<unk>	0
<s>	0
</s>	0
ha	-0
▁b	-1
▁k	-2
an	-3
ch	-4
ar	-5
▁m	-6
aa	-7
▁ch	-8
▁p	-9
▁s	-10
▁t	-11
▁d	-12
▁l	-13
ak	-14
▁j	-15
un	-16
▁a	-17
hi	-18
▁g	-19
at	-20
ek	-21
▁n	-22
▁chha	-23
ad	-24
▁ha	-25
al	-26
ho	-27
yo	-28
▁bha	-29
ya	-30
he	-31
▁ma	-32
ur	-33
han	-34
▁r	-35
▁w	-36
ai	-37
▁kar	-38
▁ki	-39
er	-40
ag	-41
▁mi	-42
▁tu	-43
as	-44
ab	-45
aan	-46
in	-47
▁aa	-48
▁c	-49
▁bhal	-50
▁ni	-51
▁le	-52
▁h	-53
am	-54
li	-55
▁cha	-56
▁yo	-57
uk	-58
▁tum	-59
hu	-60
har	-61
▁ek	-62
▁bat	-63
ik	-64
▁aur	-65
ee	-66
aat	-67
▁ke	-68
▁lag	-69
▁we	-70
▁u	-71
▁ham	-72
▁ban	-73
▁bati	-74
▁chhe	-75
▁me	-76
▁par	-77
▁to	-78
di	-79
▁bad	-80
▁ho	-81
la	-82
▁hun	-83
ye	-84
ji	-85
▁hi	-86
▁di	-87
▁li	-88
▁bhi	-89
ti	-90
eke	-91
oo	-92
▁kha	-93
▁hao	-94
aal	-95
▁paan	-96
▁ap	-97
▁go	-98
▁na	-99
aam	-100
anch	-101
▁ko	-102
we	-103
ri	-104
yar	-105
▁pad	-106
▁kat	-107
ang	-108
▁ber	-109
▁liji	-110
▁hunch	-111
▁dek	-112
aj	-113
▁ge	-114
▁mer	-115
▁sab	-116
▁chhan	-117
aad	-118
ani	-119
▁hwe	-120
▁paani	-121
ul	-122
le	-123
▁din	-124
▁un	-125
▁meke	-126
ano	-127
▁sak	-128
ke	-129
▁ghar	-130
▁baat	-131
▁kaam	-132
▁bado	-133
▁sa	-134
it	-135
▁bho	-136
ni	-137
▁f	-138
ta	-139
▁jaan	-140
hai	-141
▁kari	-142
een	-143
ali	-144
yu	-145
aun	-146
anu	-147
wa	-148
▁kun	-149
▁myar	-150
ari	-151
▁the	-152
▁ya	-153
▁saa	-154
▁theek	-155
da	-156
▁ab	-157
▁chho	-158
▁chhi	-159
▁kas	-160
▁hamar	-161
▁pai	-162
us	-163
anak	-164
on	-165
▁chhu	-166
▁aaj	-167
▁de	-168
▁apun	-169
hul	-170
▁ba	-171
yun	-172
▁khe	-173
▁sun	-174
ki	-175
▁ka	-176
▁pa	-177
ne	-178
▁man	-179
▁rak	-180
chha	-181
▁pi	-182
▁tumar	-183
hat	-184
▁sw	-185
▁mil	-186
or	-187
yan	-188
▁koi	-189
th	-190
▁ku	-191
▁bi	-192
▁pur	-193
ana	-194
▁lya	-195
▁pe	-196
▁kam	-197
▁tak	-198
▁dya	-199
yal	-200
▁tho	-201
▁janch	-202
si	-203
lo	-204
sh	-205
hin	-206
▁jas	-207
▁hal	-208
▁apan	-209
▁pho	-210
▁aai	-211
▁jar	-212
▁bhot	-213
▁sha	-214
▁san	-215
▁wek	-216
ada	-217
▁pat	-218
ra	-219
dar	-220
▁hai	-221
hak	-222
▁ag	-223
ud	-224
▁ja	-225
▁bak	-226
▁bas	-227
aas	-228
▁katuk	-229
chan	-230
▁sang	-231
▁chain	-232
▁kara	-233
ber	-234
▁se	-235
▁ro	-236
mi	-237
▁thul	-238
▁karan	-239
▁jo	-240
▁kab	-241
agad	-242
▁bai	-243
▁sam	-244
▁ra	-245
no	-246
▁gha	-247
▁badi	-248
▁weke	-249
▁aun	-250
sa	-251
ma	-252
▁jaal	-253
▁gaun	-254
▁i	-255
aag	-256
▁dagad	-257
ja	-258
kar	-259
▁jal	-260
had	-261
ool	-262
▁y	-263
▁lagi	-264
▁baj	-265
▁tab	-266
▁khan	-267
war	-268
▁khu	-269
▁mat	-270
▁khet	-271
▁sween	-272
▁mak	-273
▁wal	-274
oon	-275
▁baad	-276
▁kuch	-277
▁dekhi	-278
cha	-279
▁sch	-280
▁bakhat	-281
▁tar	-282
▁school	-283
up	-284
▁padal	-285
▁jaso	-286
▁hol	-287
ut	-288
chi	-289
aali	-290
▁bar	-291
▁mera	-292
chh	-293
▁rai	-294
▁lijiye	-295
el	-296
aaj	-297
▁che	-298
▁jab	-299
▁lagan	-300
en	-301
es	-302
yak	-303
▁pak	-304
▁make	-305
▁hunchh	-306
▁lo	-307
▁har	-308
▁jada	-309
ukh	-310
▁as	-311
▁ga	-312
▁it	-313
▁diya	-314
▁jarur	-315
hur	-316
▁da	-317
▁unar	-318
▁jan	-319
▁khar	-320
na	-321
ath	-322
bha	-323
▁dik	-324
eet	-325
▁peh	-326
chhan	-327
▁phone	-328
hun	-329
▁pr	-330
▁dar	-331
▁lhi	-332
▁band	-333
se	-334
and	-335
▁si	-336
▁bhe	-337
▁jam	-338
aati	-339
▁chal	-340
▁mo	-341
▁bank	-342
▁saaf	-343
tar	-344
ter	-345
▁byo	-346
yi	-347
lab	-348
▁bhar	-349
▁matlab	-350
ala	-351
▁ta	-352
▁bait	-353
nu	-354
ati	-355
tak	-356
do	-357
are	-358
▁gar	-359
▁khi	-360
▁kath	-361
▁laag	-362
▁v	-363
dan	-364
▁lye	-365
▁agar	-366
▁saal	-367
▁chala	-368
▁meken	-369
▁jao	-370
▁'	-371
her	-372
yon	-373
▁jhai	-374
ol	-375
ank	-376
shi	-377
▁raat	-378
▁janchh	-379
adi	-380
ket	-381
▁dhar	-382
ir	-383
▁wa	-384
huru	-385
▁aab	-386
▁gaan	-387
▁meri	-388
▁unke	-389
▁shuru	-390
hano	-391
▁holi	-392
▁gye	-393
▁sar	-394
▁bhai	-395
▁paisa	-396
▁pehle	-397
▁kharab	-398
dh	-399
aadi	-400
▁bag	-401
▁bya	-402
▁naj	-403
▁chyal	-404
uno	-405
▁pu	-406
▁aar	-407
▁jag	-408
▁diyo	-409
▁mero	-410
te	-411
to	-412
▁aad	-413
▁log	-414
▁rup	-415
▁suk	-416
▁baan	-417
▁bhag	-418
um	-419
yad	-420
▁aal	-421
▁duk	-422
il	-423
ka	-424
▁bh	-425
▁nan	-426
▁dhan	-427
▁puro	-428
▁sabse	-429
ike	-430
▁jai	-431
▁paat	-432
▁walo	-433
▁paanik	-434
ui	-435
ran	-436
▁thodi	-437
▁shahar	-438
▁so	-439
▁abhi	-440
▁chan	-441
▁tuar	-442
kal	-443
kha	-444
▁al	-445
▁chi	-446
▁kap	-447
▁kho	-448
▁sakchha	-449
me	-450
▁ji	-451
▁ut	-452
▁dab	-453
▁dha	-454
▁kya	-455
▁sik	-456
▁bhol	-457
aala	-458
▁der	-459
▁chee	-460
wi	-461
hya	-462
hyu	-463
ing	-464
lai	-465
pan	-466
sha	-467
▁an	-468
▁huni	-469
▁jaun	-470
▁naun	-471
▁bhari	-472
▁kasike	-473
os	-474
ins	-475
▁ghan	-476
▁rakhi	-477
▁hunchha	-478
▁aw	-479
kari	-480
▁aami	-481
▁haal	-482
▁saab	-483
▁suni	-484
bar	-485
▁ti	-486
▁chin	-487
▁khai	-488
▁jaldi	-489
▁lagai	-490
▁mandi	-491
▁yahan	-492
aar	-493
dhi	-494
nak	-495
par	-496
▁mad	-497
▁karu	-498
▁jaali	-499
▁bhains	-500
▁dekhan	-501
▁shayad	-502
ot	-503
ina	-504
▁huno	-505
▁jhad	-506
▁jyun	-507
▁saag	-508
▁than	-509
▁lyo	-510
▁paas	-511
▁najik	-512
▁sanket	-513
ah	-514
lak	-515
▁maj	-516
▁ras	-517
▁naam	-518
▁cheej	-519
▁gaadi	-520
▁hamke	-521
mak	-522
▁are	-523
▁sau	-524
khaat	-525
▁aayo	-526
▁barkhaat	-527
ant	-528
▁uk	-529
▁dus	-530
anchh	-531
▁khel	-532
▁puri	-533
▁wali	-534
▁yaar	-535
▁kilai	-536
▁tumun	-537
▁mandir	-538
chu	-539
wai	-540
▁co	-541
▁su	-542
▁chae	-543
▁laga	-544
▁mili	-545
▁mukh	-546
▁khali	-547
▁dhanya	-548
khi	-549
anan	-550
▁dui	-551
▁chun	-552
▁dekh	-553
▁banai	-554
▁rakha	-555
▁vi	-556
▁lak	-557
▁pahad	-558
oor	-559
wal	-560
▁fir	-561
▁ghu	-562
▁ith	-563
▁pan	-564
▁ruk	-565
▁sanj	-566
▁chali	-567
▁jaano	-568
▁badiya	-569
st	-570
pas	-571
san	-572
▁bo	-573
▁aan	-574
▁nam	-575
▁pas	-576
▁hyun	-577
▁taat	-578
▁tumi	-579
▁halyo	-580
hen	-581
iya	-582
▁in	-583
arak	-584
▁bal	-585
▁bana	-586
▁jasi	-587
▁tara	-588
▁wele	-589
▁kapad	-590
▁khaan	-591
▁sakun	-592
ba	-593
de	-594
tor	-595
yat	-596
▁bu	-597
▁he	-598
chhu	-599
▁kai	-600
▁pha	-601
▁tyo	-602
▁bina	-603
▁tyar	-604
▁aaram	-605
▁rupya	-606
▁tyohar	-607
alo	-608
jli	-609
▁gi	-610
▁bhu	-611
▁bil	-612
▁bus	-613
▁dho	-614
▁char	-615
▁kaaj	-616
▁yaad	-617
▁padan	-618
▁dagadi	-619
▁jaruri	-620
▁sundar	-621
▁hunchhan	-622
las	-623
elle	-624
usam	-625
▁aso	-626
▁fas	-627
▁jee	-628
▁jho	-629
▁byal	-630
▁kabh	-631
▁pato	-632
▁raye	-633
▁sabb	-634
anchha	-635
▁garmi	-636
▁kunan	-637
▁maati	-638
▁sangi	-639
▁bandar	-640
et	-641
udh	-642
▁ak	-643
▁naa	-644
▁nee	-645
▁aani	-646
▁geyi	-647
▁hath	-648
▁pail	-649
▁sahi	-650
▁tume	-651
▁milan	-652
anchhan	-653
ard	-654
hani	-655
▁dev	-656
▁lik	-657
karan	-658
▁aelle	-659
▁jagah	-660
▁thodo	-661
▁karanu	-662
▁mausam	-663
bi	-664
▁dur	-665
▁hawa	-666
▁thor	-667
▁weki	-668
▁chhat	-669
▁dekha	-670
▁janchhan	-671
bh	-672
re	-673
ate	-674
ind	-675
kul	-676
▁be	-677
▁aag	-678
▁bab	-679
▁das	-680
▁hit	-681
▁kit	-682
▁lam	-683
▁ram	-684
▁tuk	-685
▁awaj	-686
▁bata	-687
▁banan	-688
▁bijli	-689
▁karno	-690
▁madad	-691
▁taraf	-692
▁wapas	-693
▁bilkul	-694
▁chinta	-695
▁jameen	-696
▁o	-697
wan	-698
▁aap	-699
▁lai	-700
▁tal	-701
▁honi	-702
▁jaad	-703
▁miki	-704
▁padi	-705
▁piya	-706
▁sach	-707
▁tuke	-708
▁wath	-709
▁cheth	-710
▁dekho	-711
▁fasal	-712
agi	-713
mar	-714
▁up	-715
esha	-716
▁kan	-717
▁kuk	-718
▁rau	-719
▁saf	-720
askar	-721
▁daan	-722
▁jama	-723
▁jara	-724
▁saam	-725
▁kitab	-726
▁gharak	-727
ed	-728
kil	-729
▁ija	-730
▁mus	-731
▁pir	-732
▁poo	-733
▁ran	-734
▁run	-735
▁kaat	-736
▁kati	-737
▁byaan	-738
▁ghaam	-739
▁karni	-740
▁lakad	-741
▁karano	-742
▁kikaran	-743
dik	-744
hir	-745
nan	-746
atar	-747
▁bun	-748
▁mit	-749
▁pee	-750
▁phe	-751
▁shu	-752
▁baas	-753
▁baje	-754
▁geet	-755
▁tayar	-756
▁dukaan	-757
▁hamesha	-758
mat	-759
▁ye	-760
char	-761
▁gad	-762
▁nik	-763
▁rit	-764
▁taa	-765
▁dyak	-766
▁jind	-767
▁nawa	-768
▁karul	-769
▁phool	-770
▁taato	-771
▁banoon	-772
▁lagani	-773
▁jindagi	-774
▁karanak	-775
pe	-776
dha	-777
▁ai	-778
▁la	-779
▁bul	-780
▁gor	-781
▁auno	-782
▁daal	-783
▁dang	-784
▁dudh	-785
▁dwar	-786
▁janu	-787
▁kasi	-788
▁kunu	-789
▁main	-790
▁pher	-791
▁badhai	-792
▁khabar	-793
▁mukhya	-794
▁sweenar	-795
▁chanchhu	-796
ck	-797
ika	-798
▁te	-799
dhan	-800
yunl	-801
▁byu	-802
▁den	-803
▁fai	-804
▁gal	-805
▁his	-806
▁nai	-807
▁pin	-808
▁tel	-809
▁tha	-810
▁aank	-811
▁alag	-812
▁chet	-813
▁dinu	-814
▁kaan	-815
▁maas	-816
▁teen	-817
▁dabal	-818
▁dawai	-819
▁katek	-820
▁shubh	-821
▁jaanch	-822
fi	-823
wo	-824
boo	-825
lik	-826
alak	-827
▁aao	-828
▁bur	-829
▁jad	-830
▁tai	-831
umber	-832
▁ghyu	-833
▁jang	-834
▁jani	-835
▁liyo	-836
▁tuti	-837
▁paanch	-838
▁padali	-839
▁pathar	-840
▁sabbai	-841
▁sambha	-842
ce	-843
kat	-844
pat	-845
ajyu	-846
▁doo	-847
▁jor	-848
▁sad	-849
▁bagh	-850
▁khut	-851
▁kilo	-852
▁nawo	-853
▁baith	-854
▁chhyu	-855
▁photo	-856
▁khaano	-857
▁khanak	-858
▁dhanyav	-859
▁janchha	-860
▁namaskar	-861
uli	-862
▁do	-863
bhag	-864
▁bee	-865
▁dos	-866
▁dwi	-867
▁jha	-868
▁pun	-869
▁aano	-870
▁baar	-871
▁bhet	-872
▁mang	-873
▁mani	-874
▁noon	-875
▁pura	-876
▁wala	-877
▁bajar	-878
▁karun	-879
▁kukur	-880
▁puran	-881
▁dangar	-882
▁number	-883
▁pasand	-884
▁rakhan	-885
▁laganchha	-886
so	-887
rid	-888
▁re	-889
wari	-890
▁for	-891
▁kud	-892
▁lek	-893
▁aapn	-894
▁bhan	-895
▁card	-896
▁ghas	-897
▁kile	-898
▁nawi	-899
▁pari	-900
▁waal	-901
▁aakhi	-902
▁bhyan	-903
▁dajyu	-904
▁jaala	-905
▁nikal	-906
▁rakho	-907
▁tumke	-908
aak	-909
dam	-910
tam	-911
tir	-912
ctor	-913
haar	-914
▁ang	-915
▁ben	-916
▁dil	-917
▁jyu	-918
▁sur	-919
▁chit	-920
▁ituk	-921
▁jald	-922
chchha	-923
▁aunch	-924
▁bahar	-925
▁haath	-926
▁khaas	-927
▁mahin	-928
▁mohan	-929
▁pares	-930
▁wahan	-931
▁baitha	-932
▁laguno	-933
▁maasab	-934
▁sambhali	-935
jak	-936
jan	-937
lan	-938
tik	-939
▁ri	-940
▁st	-941
▁dyo	-942
▁him	-943
▁pal	-944
▁see	-945
▁she	-946
▁uke	-947
▁bani	-948
▁chut	-949
▁geyo	-950
▁ghum	-951
▁hari	-952
▁khid	-953
▁kono	-954
▁paar	-955
▁reet	-956
▁dhari	-957
▁gaanv	-958
▁khano	-959
▁pacha	-960
▁pheri	-961
▁sanch	-962
▁chhiyo	-963
▁dikkat	-964
▁kabhai	-965
▁khushi	-966
▁mithai	-967
▁taiyar	-968
▁schoolak	-969
ge	-970
hn	-971
ata	-972
gar	-973
odi	-974
ula	-975
▁ad	-976
aani	-977
baad	-978
cket	-979
lass	-980
waar	-981
▁aas	-982
▁kak	-983
▁kau	-984
▁lin	-985
▁aali	-986
▁aama	-987
▁form	-988
▁keni	-989
▁maat	-990
▁nana	-991
▁rang	-992
▁agadi	-993
▁kheti	-994
▁laagi	-995
▁lagun	-996
▁baithi	-997
▁laganu	-998
▁tarika	-999
ash	-1000
ela	-1001
kan	-1002
ram	-1003
yuk	-1004
▁ug	-1005
anti	-1006
ikar	-1007
▁aam	-1008
▁hon	-1009
▁kis	-1010
▁lep	-1011
▁maa	-1012
▁nuk	-1013
▁rag	-1014
▁aang	-1015
▁chaa	-1016
▁geyu	-1017
▁maal	-1018
▁pata	-1019
▁phir	-1020
▁samj	-1021
▁badhi	-1022
▁jaana	-1023
▁khaad	-1024
▁paili	-1025
▁samaj	-1026
▁bajaar	-1027
▁ghanta	-1028
▁khetak	-1029
▁achchha	-1030
thi	-1031
▁dh	-1032
agun	-1033
▁bud	-1034
▁dul	-1035
▁gho	-1036
▁gya	-1037
▁paa	-1038
▁pet	-1039
▁raj	-1040
▁sut	-1041
shish	-1042
▁nano	-1043
▁peli	-1044
▁ritu	-1045
▁saan	-1046
▁unle	-1047
▁yeke	-1048
▁batai	-1049
▁bhuli	-1050
▁doodh	-1051
▁fikar	-1052
▁gaunk	-1053
▁thoda	-1054
▁aaraam	-1055
▁bhitar	-1056
▁chheli	-1057
▁dikhan	-1058
▁dyakhi	-1059
▁khatam	-1060
▁lagawa	-1061
▁milali	-1062
▁koshish	-1063
bu	-1064
go	-1065
pp	-1066
ua	-1067
ara	-1068
oni	-1069
sak	-1070
wor	-1071
▁po	-1072
▁sc	-1073
ayat	-1074
▁adh	-1075
▁bol	-1076
▁jat	-1077
▁kaa	-1078
▁roj	-1079
▁aaye	-1080
▁babu	-1081
▁chah	-1082
▁daud	-1083
▁dhun	-1084
▁diha	-1085
▁kamj	-1086
▁nati	-1087
▁raun	-1088
▁taal	-1089
▁awaaj	-1090
▁chhod	-1091
▁garam	-1092
▁kahin	-1093
▁karyo	-1094
▁khata	-1095
▁mathi	-1096
▁pakka	-1097
▁sakch	-1098
▁bachan	-1099
▁bhitir	-1100
▁janwar	-1101
▁jaroor	-1102
▁karana	-1103
▁khidki	-1104
▁majboo	-1105
▁muskil	-1106
▁ticket	-1107
▁sikayat	-1108
▁dhanyabaad	-1109
▁dhanyavaad	-1110
..	-1111
bo	-1112
gn	-1113
sar	-1114
tin	-1115
unl	-1116
▁um	-1117
adio	-1118
chak	-1119
lawa	-1120
mari	-1121
stri	-1122
umas	-1123
waal	-1124
wani	-1125
▁com	-1126
▁gud	-1127
▁jye	-1128
▁jyo	-1129
hanak	-1130
hyaan	-1131
▁agil	-1132
▁byok	-1133
▁hita	-1134
▁kaag	-1135
▁kuma	-1136
▁lhin	-1137
▁mele	-1138
▁sada	-1139
▁soch	-1140
▁suna	-1141
▁bakri	-1142
▁bheed	-1143
▁chhin	-1144
▁class	-1145
▁haldi	-1146
▁kasan	-1147
▁milal	-1148
▁radio	-1149
▁sakan	-1150
▁sukhi	-1151
▁sunan	-1152
▁aajkal	-1153
▁chhayi	-1154
▁dhyaan	-1155
▁bhagwan	-1156
▁gachhan	-1157
▁majboot	-1158
▁hunchhin	-1159
vi	-1160
dak	-1161
esh	-1162
hil	-1163
hyo	-1164
tic	-1165
▁at	-1166
jaar	-1167
▁aji	-1168
▁dak	-1169
▁gai	-1170
▁han	-1171
▁kee	-1172
▁kir	-1173
▁kri	-1174
▁tur	-1175
aatin	-1176
▁aana	-1177
▁baal	-1178
▁bare	-1179
▁gaad	-1180
▁gham	-1181
▁nani	-1182
▁plas	-1183
▁yaso	-1184
▁yath	-1185
▁badal	-1186
▁banar	-1187
▁bhali	-1188
▁bheji	-1189
▁dhaan	-1190
▁dhara	-1191
▁khush	-1192
▁pahun	-1193
▁sukha	-1194
▁aanchh	-1195
▁bhiter	-1196
▁chaini	-1197
▁ghanti	-1198
▁harela	-1199
▁kaagaj	-1200
▁kathin	-1201
▁raatak	-1202
▁hunchho	-1203
▁lagbhag	-1204
▁lagchha	-1205
▁sarkari	-1206
pa	-1207
ro	-1208
ub	-1209
▁e	-1210
sis	-1211
ver	-1212
▁dy	-1213
▁mu	-1214
▁ud	-1215
yala	-1216
▁lad	-1217
▁pit	-1218
▁unk	-1219
▁aunl	-1220
▁bhat	-1221
▁byan	-1222
▁cham	-1223
▁deni	-1224
▁dhul	-1225
▁didi	-1226
▁kami	-1227
▁lhen	-1228
▁meet	-1229
▁raal	-1230
▁shan	-1231
▁sing	-1232
▁upar	-1233
▁wema	-1234
naatin	-1235
▁bachh	-1236
▁chuna	-1237
▁dinch	-1238
▁dusar	-1239
▁ekdam	-1240
▁faida	-1241
▁ghaad	-1242
▁halla	-1243
▁hunal	-1244
▁jaunl	-1245
▁maang	-1246
▁milai	-1247
▁sakda	-1248
▁bananu	-1249
▁chahan	-1250
▁chalan	-1251
▁chutti	-1252
▁mankhi	-1253
▁mistri	-1254
▁nuksan	-1255
▁padano	-1256
▁thandi	-1257
▁thando	-1258
▁turant	-1259
▁kariber	-1260
▁pachadi	-1261
▁mandirak	-1262
gi	-1263
oi	-1264
asi	-1265
ato	-1266
bak	-1267
cho	-1268
ine	-1269
lme	-1270
ook	-1271
▁aj	-1272
▁ij	-1273
atak	-1274
chai	-1275
work	-1276
▁app	-1277
▁dee	-1278
▁gil	-1279
▁gut	-1280
▁haf	-1281
▁jod	-1282
▁mas	-1283
▁min	-1284
▁res	-1285
▁tej	-1286
▁yan	-1287
▁yek	-1288
▁chup	-1289
▁daaj	-1290
▁door	-1291
▁jyoo	-1292
▁kaal	-1293
▁kran	-1294
▁lyao	-1295
▁majo	-1296
▁mank	-1297
▁nayi	-1298
▁puna	-1299
▁puno	-1300
▁rukh	-1301
▁shar	-1302
▁batao	-1303
▁batul	-1304
▁bhagw	-1305
▁dukan	-1306
▁galat	-1307
▁helme	-1308
▁jhola	-1309
▁kamra	-1310
▁karal	-1311
▁karne	-1312
▁tukad	-1313
▁chhiya	-1314
▁himmat	-1315
▁khatar	-1316
▁padhai	-1317
▁pancha	-1318
▁sabyan	-1319
▁sheher	-1320
▁aakhiri	-1321
▁baandhi	-1322
▁chalano	-1323
▁dekhano	-1324
▁jarurat	-1325
▁karchha	-1326
▁plastic	-1327
lu	-1328
der	-1329
dhe	-1330
ent	-1331
tan	-1332
wer	-1333
▁ar	-1334
▁ly	-1335
▁ait	-1336
▁bek	-1337
▁bis	-1338
▁chu	-1339
▁dri	-1340
▁gau	-1341
▁jaw	-1342
▁kal	-1343
▁kur	-1344
▁kwe	-1345
▁mai	-1346
▁tam	-1347
adhan	-1348
ampar	-1349
ation	-1350
dwani	-1351
paani	-1352
yonak	-1353
▁auni	-1354
▁chak	-1355
▁chip	-1356
▁daam	-1357
▁dher	-1358
▁jaag	-1359
▁kani	-1360
▁khil	-1361
▁khoj	-1362
▁khul	-1363
▁kuno	-1364
▁laal	-1365
▁lago	-1366
▁lami	-1367
▁mela	-1368
▁milo	-1369
▁pank	-1370
▁phal	-1371
▁waan	-1372
anchhi	-1373
▁baari	-1374
▁beech	-1375
▁bunan	-1376
▁chidi	-1377
▁daaju	-1378
▁dabba	-1379
▁devta	-1380
▁dhyan	-1381
▁dinak	-1382
▁diwal	-1383
▁dyunl	-1384
▁goruk	-1385
▁lyunl	-1386
▁motor	-1387
▁padyo	-1388
▁pariv	-1389
▁sidhe	-1390
▁swaad	-1391
▁chhiyu	-1392
▁hitanu	-1393
▁jaunla	-1394
▁karala	-1395
▁lagano	-1396
▁sikhan	-1397
▁sochan	-1398
▁adhkari	-1399
▁chaumas	-1400
▁jaanchh	-1401
▁shaanti	-1402
▁haldwani	-1403
▁parampar	-1404
ok	-1405
pi	-1406
pu	-1407
va	-1408
dit	-1409
ekh	-1410
ffi	-1411
jal	-1412
man	-1413
mor	-1414
mti	-1415
pai	-1416
rak	-1417
ulo	-1418
van	-1419
was	-1420
▁jy	-1421
asya	-1422
ctar	-1423
hang	-1424
paat	-1425
reen	-1426
▁gae	-1427
▁gan	-1428
▁gun	-1429
▁lij	-1430
▁nar	-1431
▁shi	-1432
▁tan	-1433
ateek	-1434
yanak	-1435
▁aalu	-1436
▁bair	-1437
▁bhav	-1438
▁bhuk	-1439
▁chur	-1440
▁delo	-1441
▁diye	-1442
▁dyol	-1443
▁dyun	-1444
▁goru	-1445
▁ilak	-1446
▁jagg	-1447
▁jodi	-1448
▁kabi	-1449
▁kaso	-1450
▁lyon	-1451
▁rakh	-1452
▁runu	-1453
▁suti	-1454
▁tuta	-1455
▁umar	-1456
▁wehi	-1457
▁aankh	-1458
▁balad	-1459
▁balti	-1460
▁bimar	-1461
▁byanh	-1462
▁chaan	-1463
▁dulha	-1464
▁ghaas	-1465
▁haali	-1466
▁hafta	-1467
▁jaada	-1468
▁jaani	-1469
▁karai	-1470
▁khanu	-1471
▁najar	-1472
▁pehli	-1473
▁piran	-1474
▁safal	-1475
▁sanjh	-1476
▁takat	-1477
▁waali	-1478
▁banaye	-1479
▁chhanu	-1480
▁dactar	-1481
▁dihaal	-1482
▁jaanak	-1483
▁lagaya	-1484
▁maatik	-1485
▁ragada	-1486
▁screen	-1487
▁thanda	-1488
▁dikhano	-1489
▁kumaoni	-1490
▁mankhin	-1491
▁prateek	-1492
▁pareshani	-1493
ga	-1494
ko	-1495
eli	-1496
eri	-1497
ure	-1498
ush	-1499
▁fa	-1500
▁ju	-1501
▁ub	-1502
▁ul	-1503
agri	-1504
atin	-1505
bile	-1506
shna	-1507
ulak	-1508
wali	-1509
▁anu	-1510
▁hap	-1511
▁lat	-1512
▁mar	-1513
▁nal	-1514
▁net	-1515
▁nyo	-1516
▁sai	-1517
▁sim	-1518
▁tap	-1519
ffice	-1520
▁bhej	-1521
▁dukh	-1522
▁dusr	-1523
▁ithe	-1524
▁jeep	-1525
▁maar	-1526
▁mari	-1527
▁nawe	-1528
▁pair	-1529
▁puja	-1530
▁rain	-1531
▁saat	-1532
▁sign	-1533
▁todi	-1534
▁yahi	-1535
chanak	-1536
▁aadmi	-1537
▁baare	-1538
▁bhalu	-1539
▁chaar	-1540
▁chhut	-1541
▁dikat	-1542
▁gaank	-1543
▁hissa	-1544
▁jaiya	-1545
▁kapda	-1546
▁lagno	-1547
▁pakdi	-1548
▁pichh	-1549
▁raati	-1550
▁saari	-1551
▁tilik	-1552
▁waala	-1553
▁chhodi	-1554
▁jangal	-1555
▁kariya	-1556
▁manukh	-1557
▁mobile	-1558
▁neemak	-1559
▁office	-1560
▁padhan	-1561
▁pandit	-1562
▁sadani	-1563
▁sakana	-1564
▁ghoshna	-1565
▁network	-1566
▁sakanch	-1567
▁tarkari	-1568
▁karchhan	-1569
be	-1570
ff	-1571
aab	-1572
aav	-1573
hit	-1574
jar	-1575
net	-1576
ori	-1577
sma	-1578
uka	-1579
ura	-1580
waj	-1581
▁je	-1582
aada	-1583
asan	-1584
mora	-1585
onak	-1586
tery	-1587
unch	-1588
▁and	-1589
▁asi	-1590
▁baa	-1591
▁dai	-1592
▁kad	-1593
▁mek	-1594
▁mud	-1595
▁oon	-1596
▁pya	-1597
▁aala	-1598
▁anaj	-1599
▁asli	-1600
▁chot	-1601
▁dari	-1602
▁desi	-1603
▁jano	-1604
▁khas	-1605
▁pand	-1606
▁pass	-1607
▁paud	-1608
▁pich	-1609
▁sank	-1610
▁tank	-1611
▁time	-1612
▁yasi	-1613
ternet	-1614
▁aadho	-1615
▁angre	-1616
▁bachi	-1617
▁batti	-1618
▁chahi	-1619
▁cheli	-1620
▁chiyo	-1621
▁deepu	-1622
▁dhaki	-1623
▁gutuk	-1624
▁jawab	-1625
▁kaali	-1626
▁karch	-1627
▁khaya	-1628
▁lagal	-1629
▁lagch	-1630
▁phati	-1631
▁sacho	-1632
▁sagun	-1633
▁sarka	-1634
▁sochi	-1635
▁taaji	-1636
▁bharos	-1637
▁chithi	-1638
▁doctor	-1639
▁driver	-1640
▁helmet	-1641
▁jyaada	-1642
▁jyeber	-1643
▁likhan	-1644
▁nikali	-1645
▁paatak	-1646
▁sabban	-1647
▁sarkar	-1648
▁sawaal	-1649
▁shaant	-1650
▁shanti	-1651
▁signal	-1652
▁baandar	-1653
▁jaanchu	-1654
▁lagatar	-1655
▁najikak	-1656
▁padhano	-1657
▁parivar	-1658
▁puchhan	-1659
▁rakhiya	-1660
▁saanchi	-1661
▁aanchhan	-1662
▁internet	-1663
00	-1664
ht	-1665
bhi	-1666
dai	-1667
erv	-1668
gha	-1669
hut	-1670
ita	-1671
pur	-1672
▁on	-1673
atik	-1674
atra	-1675
baar	-1676
ikhe	-1677
sapp	-1678
▁atm	-1679
▁fil	-1680
▁hin	-1681
▁muk	-1682
▁mur	-1683
▁nim	-1684
▁nir	-1685
▁rok	-1686
▁sas	-1687
▁ule	-1688
▁asar	-1689
▁bhul	-1690
▁dada	-1691
▁dela	-1692
▁frid	-1693
▁hali	-1694
▁holo	-1695
▁jhag	-1696
▁kaad	-1697
▁kahi	-1698
▁kira	-1699
▁laun	-1700
▁lyan	-1701
▁maan	-1702
▁mana	-1703
▁mehn	-1704
▁nayo	-1705
▁paha	-1706
▁taar	-1707
▁what	-1708
▁yema	-1709
▁aanch	-1710
▁badha	-1711
▁badon	-1712
▁banoi	-1713
▁bhaat	-1714
▁bhale	-1715
▁bhyal	-1716
▁bhyar	-1717
▁bwari	-1718
▁dilli	-1719
▁dinan	-1720
▁gagri	-1721
▁gichi	-1722
▁khani	-1723
▁kosis	-1724
▁layak	-1725
▁manin	-1726
▁pachh	-1727
▁pooja	-1728
▁rahan	-1729
▁safed	-1730
▁surak	-1731
▁tanki	-1732
▁thaki	-1733
▁tower	-1734
▁uthan	-1735
▁almora	-1736
▁bachai	-1737
▁basant	-1738
▁bechan	-1739
▁bimari	-1740
▁compan	-1741
▁gharar	-1742
▁janjal	-1743
▁jhadak	-1744
▁kaatan	-1745
▁pakaan	-1746
▁raunak	-1747
▁reserv	-1748
▁sungar	-1749
▁tumhar	-1750
▁aadhaar	-1751
▁baithan	-1752
▁chyalak	-1753
▁pardhan	-1754
▁ranikhe	-1755
▁samasya	-1756
▁pareshan	-1757
▁tyoharak	-1758
▁whatsapp	-1759
▁khatarnak	-1760
▁parampara	-1761
▁barkhaatak	-1762
hs	-1763
ku	-1764
ll	-1765
mo	-1766
bat	-1767
bho	-1768
buk	-1769
dal	-1770
des	-1771
eed	-1772
ees	-1773
gun	-1774
hik	-1775
kab	-1776
kri	-1777
mid	-1778
ono	-1779
pak	-1780
rat	-1781
tha	-1782
uri	-1783
wak	-1784
▁gu	-1785
amak	-1786
amal	-1787
bhal	-1788
chhi	-1789
eend	-1790
khat	-1791
thar	-1792
ukri	-1793
vaar	-1794
▁aat	-1795
▁bel	-1796
▁bir	-1797
▁con	-1798
▁dhi	-1799
▁eko	-1800
▁gyo	-1801
▁has	-1802
▁hat	-1803
▁ist	-1804
▁jut	-1805
▁len	-1806
▁mee	-1807
▁mun	-1808
▁nak	-1809
▁phi	-1810
▁rao	-1811
▁sal	-1812
▁tut	-1813
▁yoi	-1814
echan	-1815
▁adda	-1816
▁aiya	-1817
▁baki	-1818
▁buri	-1819
▁denu	-1820
▁dyul	-1821
▁ghug	-1822
▁goli	-1823
▁hame	-1824
▁honu	-1825
▁jeet	-1826
▁kehn	-1827
▁khol	-1828
▁naak	-1829
▁need	-1830
▁paal	-1831
▁pahu	-1832
▁pisi	-1833
▁ruka	-1834
▁ruki	-1835
▁saas	-1836
▁sabi	-1837
▁sans	-1838
▁seat	-1839
▁thai	-1840
▁thak	-1841
▁vide	-1842
midwar	-1843
riddhi	-1844
▁aksar	-1845
▁bagan	-1846
▁bajyu	-1847
▁bekar	-1848
▁bhoot	-1849
▁byoli	-1850
▁chaba	-1851
▁chauk	-1852
▁chhya	-1853
▁chodi	-1854
▁ghant	-1855
▁haala	-1856
▁jodan	-1857
▁kabhi	-1858
▁karna	-1859
▁karya	-1860
▁khayo	-1861
▁khuli	-1862
▁laago	-1863
▁ladai	-1864
▁lagyo	-1865
▁logon	-1866
▁lyaan	-1867
▁mauka	-1868
▁natin	-1869
▁neend	-1870
▁rassi	-1871
▁rituk	-1872
▁riwaj	-1873
▁saman	-1874
▁sikha	-1875
▁singh	-1876
▁taalo	-1877
▁tabai	-1878
▁aakhir	-1879
▁baatak	-1880
▁daktar	-1881
▁gadher	-1882
▁hajaar	-1883
▁jaagar	-1884
▁kamjor	-1885
▁karula	-1886
▁kathak	-1887
▁khelan	-1888
▁laagal	-1889
▁lagana	-1890
▁meethi	-1891
▁naukri	-1892
▁pakodi	-1893
▁rupyak	-1894
▁saamne	-1895
▁samajh	-1896
▁sandes	-1897
▁sawari	-1898
▁sukhan	-1899
▁baithak	-1900
▁chahano	-1901
▁chandan	-1902
▁company	-1903
▁dinchan	-1904
▁istamal	-1905
▁kamjori	-1906
▁manchhi	-1907
▁pahadak	-1908
▁pichhne	-1909
▁shahare	-1910
▁ranikhet	-1911
▁ummidwar	-1912
▁bhagwanak	-1913
▁panchayat	-1914
ans	-1915
fal	-1916
hna	-1917
ore	-1918
ote	-1919
rit	-1920
uni	-1921
wat	-1922
▁et	-1923
▁kh	-1924
▁ru	-1925
▁sy	-1926
▁yi	-1927
bhav	-1928
book	-1929
heer	-1930
lock	-1931
ooni	-1932
unak	-1933
yari	-1934
▁aak	-1935
▁aps	-1936
▁dal	-1937
▁fau	-1938
▁gup	-1939
▁jik	-1940
▁kin	-1941
▁luk	-1942
▁pag	-1943
▁ped	-1944
▁pra	-1945
▁ses	-1946
▁tin	-1947
bhaag	-1948
chaar	-1949
▁aane	-1950
▁apni	-1951
▁bada	-1952
▁bhau	-1953
▁bhun	-1954
▁chor	-1955
▁deen	-1956
▁dost	-1957
▁etuk	-1958
▁gair	-1959
▁gauk	-1960
▁ghun	-1961
▁giri	-1962
▁haan	-1963
▁hono	-1964
▁hune	-1965
▁	-1966
a	-1967
h	-1968
i	-1969
n	-1970
k	-1971
e	-1972
r	-1973
l	-1974
u	-1975
o	-1976
t	-1977
b	-1978
m	-1979
d	-1980
c	-1981
s	-1982
y	-1983
p	-1984
g	-1985
j	-1986
.	-1987
w	-1988
,	-1989
?	-1990
f	-1991
v	-1992
-	-1993
'	-1994
!	-1995
0	-1996
