<unk>	0
<s>	0
</s>	0
▁t	-0
he	-1
▁i	-2
▁a	-3
▁the	-4
▁w	-5
▁s	-6
in	-7
re	-8
ou	-9
▁f	-10
▁m	-11
er	-12
▁b	-13
ha	-14
▁c	-15
on	-16
ing	-17
▁y	-18
▁d	-19
ll	-20
▁to	-21
▁g	-22
or	-23
▁p	-24
es	-25
▁is	-26
▁it	-27
▁n	-28
▁you	-29
▁l	-30
an	-31
om	-32
at	-33
▁o	-34
▁ha	-35
nd	-36
ve	-37
ar	-38
▁wi	-39
ed	-40
ot	-41
et	-42
st	-43
ow	-44
hi	-45
▁in	-46
le	-47
ay	-48
en	-49
ver	-50
▁of	-51
hat	-52
oo	-53
ld	-54
▁and	-55
▁he	-56
▁r	-57
▁be	-58
▁will	-59
▁e	-60
▁for	-61
▁h	-62
ke	-63
it	-64
as	-65
▁we	-66
▁on	-67
ome	-68
al	-69
▁st	-70
very	-71
ic	-72
▁are	-73
▁my	-74
ig	-75
th	-76
▁have	-77
▁yes	-78
▁fr	-79
▁go	-80
▁do	-81
se	-82
id	-83
his	-84
▁ne	-85
▁u	-86
ch	-87
am	-88
ad	-89
ut	-90
ly	-91
▁re	-92
▁very	-93
▁this	-94
ht	-95
her	-96
one	-97
▁that	-98
ge	-99
ac	-100
▁me	-101
▁what	-102
ood	-103
▁not	-104
▁from	-105
ain	-106
ir	-107
ter	-108
ee	-109
▁sh	-110
▁j	-111
our	-112
ro	-113
ake	-114
ur	-115
▁with	-116
ould	-117
ight	-118
▁so	-119
ill	-120
▁they	-121
ater	-122
▁li	-123
il	-124
▁your	-125
▁v	-126
▁can	-127
▁an	-128
ust	-129
ion	-130
all	-131
▁was	-132
ore	-133
im	-134
▁there	-135
▁water	-136
▁te	-137
pp	-138
ul	-139
king	-140
▁br	-141
▁has	-142
ct	-143
ie	-144
age	-145
▁at	-146
▁get	-147
▁good	-148
▁le	-149
▁wor	-150
is	-151
ive	-152
▁some	-153
out	-154
ant	-155
▁whe	-156
ent	-157
▁k	-158
▁come	-159
ep	-160
ry	-161
op	-162
▁how	-163
est	-164
▁our	-165
▁wh	-166
▁should	-167
un	-168
▁now	-169
▁pl	-170
ast	-171
▁al	-172
and	-173
▁bu	-174
▁th	-175
▁am	-176
▁se	-177
▁but	-178
▁sp	-179
um	-180
▁gr	-181
▁no	-182
▁com	-183
other	-184
▁them	-185
▁did	-186
day	-187
▁vill	-188
han	-189
▁need	-190
ck	-191
red	-192
▁let	-193
ning	-194
ce	-195
ble	-196
▁tr	-197
▁co	-198
▁all	-199
▁us	-200
ard	-201
▁village	-202
art	-203
▁every	-204
ack	-205
▁tim	-206
if	-207
▁one	-208
ong	-209
▁sa	-210
▁day	-211
ook	-212
▁take	-213
ess	-214
ide	-215
ak	-216
▁ke	-217
ice	-218
eel	-219
▁de	-220
▁hi	-221
▁here	-222
ity	-223
▁new	-224
▁pro	-225
ers	-226
▁mu	-227
▁dr	-228
▁like	-229
ind	-230
▁pr	-231
▁time	-232
▁feel	-233
▁just	-234
▁make	-235
▁su	-236
way	-237
▁cl	-238
▁give	-239
▁too	-240
pe	-241
▁as	-242
▁up	-243
ool	-244
▁ab	-245
nt	-246
▁when	-247
ag	-248
fe	-249
▁today	-250
▁or	-251
▁going	-252
so	-253
▁fe	-254
▁don	-255
ick	-256
▁eat	-257
ine	-258
▁af	-259
▁see	-260
iv	-261
ream	-262
qu	-263
▁if	-264
▁man	-265
▁keep	-266
▁work	-267
ate	-268
▁hou	-269
▁pe	-270
are	-271
ame	-272
▁sm	-273
ound	-274
ation	-275
▁fore	-276
▁about	-277
▁chi	-278
▁mon	-279
▁bl	-280
▁con	-281
▁much	-282
mp	-283
ting	-284
▁who	-285
row	-286
▁why	-287
▁any	-288
▁want	-289
au	-290
▁whi	-291
▁must	-292
▁dream	-293
get	-294
▁ro	-295
▁bec	-296
▁house	-297
▁brother	-298
▁ple	-299
▁happ	-300
ase	-301
ber	-302
oug	-303
av	-304
▁sch	-305
▁school	-306
ace	-307
ink	-308
▁forest	-309
▁eve	-310
▁had	-311
▁after	-312
▁ru	-313
ab	-314
▁ok	-315
▁lot	-316
ous	-317
▁ph	-318
▁lo	-319
▁then	-320
ire	-321
ol	-322
▁'	-323
▁rain	-324
ue	-325
ure	-326
▁sc	-327
ment	-328
▁home	-329
▁tell	-330
▁say	-331
▁ar	-332
▁only	-333
▁please	-334
ign	-335
ield	-336
ri	-337
ful	-338
▁kn	-339
iend	-340
▁also	-341
▁friend	-342
▁by	-343
▁mo	-344
▁mar	-345
▁where	-346
ap	-347
oney	-348
▁she	-349
hing	-350
▁out	-351
▁comp	-352
ss	-353
▁ag	-354
▁qu	-355
▁str	-356
▁tea	-357
▁field	-358
ass	-359
ist	-360
▁cle	-361
▁child	-362
▁look	-363
▁ex	-364
▁ve	-365
▁mor	-366
ather	-367
▁okay	-368
▁used	-369
ree	-370
▁saw	-371
▁call	-372
▁sign	-373
▁start	-374
mor	-375
▁fir	-376
▁sit	-377
aking	-378
▁well	-379
side	-380
▁app	-381
▁big	-382
▁old	-383
▁their	-384
▁morning	-385
ans	-386
ank	-387
arm	-388
ort	-389
▁har	-390
▁him	-391
thing	-392
▁back	-393
▁money	-394
▁first	-395
em	-396
▁hel	-397
▁away	-398
▁night	-399
ings	-400
▁know	-401
▁bo	-402
▁en	-403
hes	-404
ies	-405
les	-406
▁fl	-407
ff	-408
we	-409
alk	-410
der	-411
tle	-412
▁off	-413
▁hand	-414
▁would	-415
▁ye	-416
ople	-417
▁rem	-418
▁people	-419
▁tw	-420
▁been	-421
▁than	-422
ens	-423
▁che	-424
▁gre	-425
ade	-426
ason	-427
ount	-428
aut	-429
▁pre	-430
▁his	-431
▁city	-432
morrow	-433
▁tomorrow	-434
os	-435
omet	-436
▁again	-437
▁beaut	-438
▁cold	-439
▁days	-440
▁more	-441
ren	-442
▁bus	-443
▁chan	-444
▁somet	-445
▁everyone	-446
▁right	-447
ach	-448
als	-449
ther	-450
▁dur	-451
▁her	-452
▁help	-453
▁year	-454
▁become	-455
sh	-456
har	-457
pees	-458
▁does	-459
▁even	-460
▁phone	-461
▁small	-462
▁rupees	-463
ave	-464
ect	-465
fore	-466
▁mis	-467
▁drink	-468
▁beautif	-469
dy	-470
la	-471
ty	-472
▁hu	-473
able	-474
ding	-475
ough	-476
▁wed	-477
▁many	-478
▁were	-479
▁these	-480
▁during	-481
lf	-482
hed	-483
ily	-484
urn	-485
▁two	-486
▁bring	-487
ite	-488
▁bet	-489
▁may	-490
▁might	-491
▁plant	-492
▁sl	-493
▁lit	-494
▁before	-495
aste	-496
blem	-497
▁sle	-498
▁use	-499
▁care	-500
▁veget	-501
▁problem	-502
ip	-503
ath	-504
ket	-505
ally	-506
▁put	-507
▁other	-508
▁beautiful	-509
▁which	-510
cc	-511
ci	-512
ish	-513
ways	-514
▁its	-515
▁win	-516
▁temp	-517
eep	-518
mer	-519
own	-520
ult	-521
iver	-522
▁long	-523
▁miss	-524
▁always	-525
ix	-526
▁po	-527
▁spe	-528
▁fest	-529
▁made	-530
▁near	-531
air	-532
ilk	-533
▁pot	-534
▁son	-535
▁stu	-536
▁won	-537
▁done	-538
▁play	-539
▁sleep	-540
▁festiv	-541
▁wedding	-542
aug	-543
▁wr	-544
▁cow	-545
▁fam	-546
▁find	-547
▁food	-548
▁life	-549
▁clean	-550
▁fields	-551
▁little	-552
▁market	-553
▁getting	-554
be	-555
▁(	-556
ull	-557
▁got	-558
▁last	-559
▁milk	-560
▁feeling	-561
▁everything	-562
per	-563
rop	-564
▁dry	-565
▁ele	-566
▁try	-567
▁apply	-568
alo	-569
▁bro	-570
ember	-571
ffalo	-572
▁clot	-573
▁over	-574
▁means	-575
▁better	-576
▁buffalo	-577
ra	-578
wn	-579
key	-580
pen	-581
▁god	-582
▁res	-583
▁monkey	-584
▁season	-585
▁fo	-586
▁spr	-587
▁sun	-588
▁compl	-589
▁coming	-590
▁mother	-591
▁someone	-592
▁children	-593
▁remember	-594
ang	-595
ock	-596
▁ce	-597
nder	-598
▁per	-599
▁swe	-600
ought	-601
ary	-602
▁ad	-603
▁bad	-604
▁leav	-605
▁true	-606
▁great	-607
▁thank	-608
▁temple	-609
xt	-610
▁un	-611
▁dif	-612
▁way	-613
owing	-614
▁read	-615
▁sing	-616
▁elect	-617
▁grand	-618
▁under	-619
ft	-620
ise	-621
▁oh	-622
ooking	-623
▁worry	-624
▁happen	-625
▁winter	-626
ains	-627
ause	-628
▁rep	-629
▁roo	-630
ables	-631
aught	-632
▁best	-633
▁fire	-634
▁seed	-635
▁check	-636
de	-637
ani	-638
ici	-639
▁jo	-640
▁bag	-641
▁car	-642
▁own	-643
ndred	-644
▁next	-645
▁shop	-646
▁hundred	-647
▁dep	-648
▁hot	-649
▁roof	-650
▁making	-651
▁vegetables	-652
us	-653
ait	-654
amp	-655
▁sal	-656
ition	-657
▁bank	-658
▁road	-659
▁stor	-660
▁talk	-661
▁feels	-662
▁mount	-663
▁quick	-664
▁evening	-665
ung	-666
ance	-667
atch	-668
▁arr	-669
▁sha	-670
▁fill	-671
▁fine	-672
▁same	-673
▁warm	-674
▁month	-675
▁sound	-676
▁while	-677
▁strong	-678
ric	-679
▁cha	-680
▁run	-681
▁came	-682
▁down	-683
▁main	-684
▁whole	-685
▁eating	-686
▁family	-687
▁something	-688
ato	-689
mon	-690
▁buy	-691
▁rice	-692
▁wind	-693
▁river	-694
▁inside	-695
ne	-696
ile	-697
▁sn	-698
▁farm	-699
▁gone	-700
▁hear	-701
▁list	-702
▁wood	-703
▁could	-704
▁change	-705
br	-706
ell	-707
shi	-708
▁cr	-709
akes	-710
▁fin	-711
▁imp	-712
umber	-713
▁anim	-714
▁door	-715
▁hard	-716
▁open	-717
▁stop	-718
▁wait	-719
inking	-720
▁think	-721
▁without	-722
ail	-723
wor	-724
▁ji	-725
▁del	-726
erson	-727
▁book	-728
▁rest	-729
▁stay	-730
▁wall	-731
▁still	-732
▁sweet	-733
▁person	-734
▁because	-735
▁festival	-736
▁ch	-737
▁giv	-738
▁meet	-739
▁news	-740
▁soil	-741
gether	-742
▁black	-743
▁light	-744
▁never	-745
▁together	-746
iz	-747
act	-748
cre	-749
ied	-750
ken	-751
ope	-752
ared	-753
fect	-754
here	-755
ired	-756
self	-757
ving	-758
▁bre	-759
▁cut	-760
▁fre	-761
opard	-762
▁sist	-763
▁spring	-764
▁leopard	-765
▁monkeys	-766
▁quickly	-767
▁working	-768
cle	-769
old	-770
ated	-771
ctor	-772
ness	-773
ower	-774
atter	-775
▁crop	-776
▁full	-777
▁love	-778
▁path	-779
▁song	-780
▁walk	-781
terday	-782
▁smell	-783
▁clothes	-784
▁yesterday	-785
ds	-786
orn	-787
▁ey	-788
▁gu	-789
alth	-790
ange	-791
vern	-792
▁ear	-793
▁ram	-794
▁tur	-795
▁card	-796
▁cook	-797
▁prep	-798
▁tree	-799
▁trou	-800
▁heard	-801
▁leave	-802
aughter	-803
▁around	-804
▁govern	-805
▁government	-806
ten	-807
▁acc	-808
▁ter	-809
▁tre	-810
▁grow	-811
▁left	-812
▁mean	-813
▁part	-814
▁doing	-815
▁looks	-816
▁maybe	-817
▁broken	-818
▁proper	-819
▁anything	-820
ms	-821
pt	-822
fic	-823
lie	-824
▁ask	-825
▁bit	-826
▁ent	-827
where	-828
▁cont	-829
▁heav	-830
▁said	-831
▁show	-832
▁sure	-833
▁trad	-834
▁turn	-835
icious	-836
▁happy	-837
▁diffic	-838
▁animals	-839
▁careful	-840
▁daughter	-841
te	-842
anc	-843
ump	-844
ved	-845
▁el	-846
ried	-847
▁bir	-848
▁few	-849
▁hey	-850
▁hur	-851
▁sick	-852
▁teac	-853
▁needs	-854
▁seeds	-855
▁father	-856
▁leaves	-857
▁sister	-858
▁underst	-859
▁weather	-860
▁tradition	-861
ya	-862
int	-863
▁hol	-864
▁sum	-865
▁wee	-866
▁cour	-867
▁else	-868
▁head	-869
▁land	-870
▁clear	-871
▁paste	-872
▁place	-873
▁ready	-874
▁number	-875
▁sometim	-876
▁electric	-877
▁difficult	-878
ng	-879
ug	-880
che	-881
med	-882
cial	-883
ship	-884
▁fix	-885
▁coll	-886
▁deep	-887
▁lear	-888
▁live	-889
▁pass	-890
▁fresh	-891
▁stand	-892
▁listen	-893
▁potato	-894
▁teacher	-895
ery	-896
law	-897
ont	-898
▁sk	-899
edic	-900
room	-901
work	-902
▁due	-903
▁late	-904
▁name	-905
▁send	-906
▁side	-907
▁heavy	-908
▁scared	-909
▁summer	-910
▁sometimes	-911
▁electricity	-912
aw	-913
gr	-914
ark	-915
ete	-916
ild	-917
ost	-918
oth	-919
▁cu	-920
ince	-921
▁job	-922
▁rad	-923
▁form	-924
▁pain	-925
▁salt	-926
▁wear	-927
alking	-928
ations	-929
▁front	-930
▁medic	-931
▁peace	-932
▁asking	-933
▁doctor	-934
▁import	-935
▁wonder	-936
▁looking	-937
▁trouble	-938
▁understand	-939
cess	-940
pped	-941
read	-942
ress	-943
soon	-944
▁add	-945
▁dis	-946
▁fun	-947
▁mix	-948
ature	-949
meric	-950
▁didn	-951
▁fall	-952
▁sell	-953
▁terr	-954
▁went	-955
▁hands	-956
▁plast	-957
▁thing	-958
▁three	-959
▁trees	-960
▁	-961
e	-962
t	-963
o	-964
a	-965
i	-966
s	-967
r	-968
n	-969
h	-970
l	-971
d	-972
y	-973
u	-974
m	-975
w	-976
g	-977
c	-978
f	-979
p	-980
.	-981
b	-982
k	-983
v	-984
,	-985
'	-986
?	-987
j	-988
x	-989
!	-990
q	-991
-	-992
z	-993
(	-994
)	-995
0	-996
