<unk>	0
<s>	0
</s>	0
ha	-0
▁b	-1
▁k	-2
an	-3
ch	-4
ar	-5
▁m	-6
aa	-7
▁ch	-8
▁p	-9
▁s	-10
▁t	-11
▁d	-12
▁l	-13
ak	-14
▁j	-15
un	-16
▁a	-17
hi	-18
▁g	-19
at	-20
ek	-21
▁n	-22
▁chha	-23
ad	-24
▁ha	-25
al	-26
ho	-27
yo	-28
▁bha	-29
ya	-30
he	-31
▁ma	-32
ur	-33
han	-34
▁r	-35
▁w	-36
ai	-37
▁kar	-38
▁ki	-39
er	-40
ag	-41
▁mi	-42
▁tu	-43
as	-44
ab	-45
aan	-46
in	-47
▁aa	-48
▁c	-49
▁bhal	-50
▁ni	-51
▁le	-52
▁h	-53
am	-54
li	-55
▁cha	-56
▁yo	-57
uk	-58
▁tum	-59
hu	-60
har	-61
▁ek	-62
▁bat	-63
ik	-64
▁aur	-65
ee	-66
aat	-67
▁ke	-68
▁lag	-69
▁we	-70
▁u	-71
▁ham	-72
▁ban	-73
▁bati	-74
▁chhe	-75
▁me	-76
▁par	-77
▁to	-78
di	-79
▁bad	-80
▁ho	-81
la	-82
▁hun	-83
ye	-84
ji	-85
▁hi	-86
▁di	-87
▁li	-88
▁bhi	-89
ti	-90
eke	-91
oo	-92
▁kha	-93
▁hao	-94
aal	-95
▁paan	-96
▁ap	-97
▁go	-98
▁na	-99
aam	-100
anch	-101
▁ko	-102
we	-103
ri	-104
yar	-105
▁pad	-106
▁kat	-107
ang	-108
▁ber	-109
▁liji	-110
▁hunch	-111
▁dek	-112
aj	-113
▁ge	-114
▁mer	-115
▁sab	-116
▁chhan	-117
aad	-118
ani	-119
▁hwe	-120
▁paani	-121
ul	-122
le	-123
▁din	-124
▁un	-125
▁meke	-126
ano	-127
▁sak	-128
ke	-129
▁ghar	-130
▁baat	-131
▁kaam	-132
▁bado	-133
▁sa	-134
it	-135
▁bho	-136
ni	-137
▁f	-138
ta	-139
▁jaan	-140
hai	-141
▁kari	-142
een	-143
ali	-144
yu	-145
aun	-146
anu	-147
wa	-148
▁kun	-149
▁myar	-150
ari	-151
▁the	-152
▁ya	-153
▁saa	-154
▁theek	-155
da	-156
▁ab	-157
▁chho	-158
▁chhi	-159
▁kas	-160
▁hamar	-161
▁pai	-162
us	-163
anak	-164
on	-165
▁chhu	-166
▁aaj	-167
▁de	-168
▁apun	-169
hul	-170
▁ba	-171
yun	-172
▁khe	-173
▁sun	-174
ki	-175
▁ka	-176
▁pa	-177
ne	-178
▁man	-179
▁rak	-180
chha	-181
▁pi	-182
▁tumar	-183
hat	-184
▁sw	-185
▁mil	-186
or	-187
yan	-188
▁koi	-189
th	-190
▁ku	-191
▁bi	-192
▁pur	-193
ana	-194
▁lya	-195
▁pe	-196
▁kam	-197
▁tak	-198
▁dya	-199
yal	-200
▁tho	-201
▁janch	-202
si	-203
lo	-204
sh	-205
hin	-206
▁jas	-207
▁hal	-208
▁apan	-209
▁pho	-210
▁aai	-211
▁jar	-212
▁bhot	-213
▁sha	-214
▁san	-215
▁wek	-216
ada	-217
▁pat	-218
ra	-219
dar	-220
▁hai	-221
hak	-222
▁ag	-223
ud	-224
▁ja	-225
▁bak	-226
▁bas	-227
aas	-228
▁katuk	-229
chan	-230
▁sang	-231
▁chain	-232
▁kara	-233
ber	-234
▁se	-235
▁ro	-236
mi	-237
▁thul	-238
▁karan	-239
▁jo	-240
▁kab	-241
agad	-242
▁bai	-243
▁sam	-244
▁ra	-245
no	-246
▁gha	-247
▁badi	-248
▁weke	-249
▁aun	-250
sa	-251
ma	-252
▁jaal	-253
▁gaun	-254
▁i	-255
aag	-256
▁dagad	-257
ja	-258
kar	-259
▁jal	-260
had	-261
ool	-262
▁y	-263
▁lagi	-264
▁baj	-265
▁tab	-266
▁khan	-267
war	-268
▁khu	-269
▁mat	-270
▁khet	-271
▁sween	-272
▁mak	-273
▁wal	-274
oon	-275
▁baad	-276
▁kuch	-277
▁dekhi	-278
cha	-279
▁sch	-280
▁bakhat	-281
▁tar	-282
▁school	-283
up	-284
▁padal	-285
▁jaso	-286
▁hol	-287
ut	-288
chi	-289
aali	-290
▁bar	-291
▁mera	-292
chh	-293
▁rai	-294
▁lijiye	-295
el	-296
aaj	-297
▁che	-298
▁jab	-299
▁lagan	-300
en	-301
es	-302
yak	-303
▁pak	-304
▁make	-305
▁hunchh	-306
▁lo	-307
▁har	-308
▁jada	-309
ukh	-310
▁as	-311
▁ga	-312
▁it	-313
▁diya	-314
▁jarur	-315
hur	-316
▁da	-317
▁unar	-318
▁jan	-319
▁khar	-320
na	-321
ath	-322
bha	-323
▁dik	-324
eet	-325
▁peh	-326
chhan	-327
▁phone	-328
hun	-329
▁pr	-330
▁dar	-331
▁lhi	-332
▁band	-333
se	-334
and	-335
▁si	-336
▁bhe	-337
▁jam	-338
aati	-339
▁chal	-340
▁mo	-341
▁bank	-342
▁saaf	-343
tar	-344
ter	-345
▁byo	-346
yi	-347
lab	-348
▁bhar	-349
▁matlab	-350
ala	-351
▁ta	-352
▁bait	-353
nu	-354
ati	-355
tak	-356
do	-357
are	-358
▁gar	-359
▁khi	-360
▁kath	-361
▁laag	-362
▁v	-363
dan	-364
▁lye	-365
▁agar	-366
▁saal	-367
▁chala	-368
▁meken	-369
▁jao	-370
▁'	-371
her	-372
yon	-373
▁jhai	-374
ol	-375
ank	-376
shi	-377
▁raat	-378
▁janchh	-379
adi	-380
ket	-381
▁dhar	-382
ir	-383
▁wa	-384
huru	-385
▁aab	-386
▁gaan	-387
▁meri	-388
▁unke	-389
▁shuru	-390
hano	-391
▁holi	-392
▁gye	-393
▁sar	-394
▁bhai	-395
▁paisa	-396
▁pehle	-397
▁kharab	-398
dh	-399
aadi	-400
▁bag	-401
▁bya	-402
▁naj	-403
▁chyal	-404
uno	-405
▁pu	-406
▁aar	-407
▁jag	-408
▁diyo	-409
▁mero	-410
te	-411
to	-412
▁aad	-413
▁log	-414
▁rup	-415
▁suk	-416
▁baan	-417
▁bhag	-418
um	-419
yad	-420
▁aal	-421
▁duk	-422
il	-423
ka	-424
▁bh	-425
▁nan	-426
▁dhan	-427
▁puro	-428
▁sabse	-429
ike	-430
▁jai	-431
▁paat	-432
▁walo	-433
▁paanik	-434
ui	-435
ran	-436
▁thodi	-437
▁shahar	-438
▁so	-439
▁abhi	-440
▁chan	-441
▁tuar	-442
kal	-443
kha	-444
▁al	-445
▁chi	-446
▁kap	-447
▁kho	-448
▁sakchha	-449
me	-450
▁ji	-451
▁ut	-452
▁dab	-453
▁dha	-454
▁kya	-455
▁sik	-456
▁bhol	-457
aala	-458
▁der	-459
▁chee	-460
wi	-461
hya	-462
hyu	-463
ing	-464
lai	-465
pan	-466
sha	-467
▁an	-468
▁huni	-469
▁jaun	-470
▁naun	-471
▁bhari	-472
▁kasike	-473
os	-474
ins	-475
▁ghan	-476
▁rakhi	-477
▁hunchha	-478
▁aw	-479
kari	-480
▁aami	-481
▁haal	-482
▁saab	-483
▁suni	-484
bar	-485
▁ti	-486
▁chin	-487
▁khai	-488
▁jaldi	-489
▁lagai	-490
▁mandi	-491
▁yahan	-492
aar	-493
dhi	-494
nak	-495
par	-496
▁mad	-497
▁karu	-498
▁jaali	-499
▁bhains	-500
▁dekhan	-501
▁shayad	-502
ot	-503
ina	-504
▁huno	-505
▁jhad	-506
▁jyun	-507
▁saag	-508
▁than	-509
▁lyo	-510
▁paas	-511
▁najik	-512
▁sanket	-513
ah	-514
lak	-515
▁maj	-516
▁ras	-517
▁naam	-518
▁cheej	-519
▁gaadi	-520
▁hamke	-521
mak	-522
▁are	-523
▁sau	-524
khaat	-525
▁aayo	-526
▁barkhaat	-527
ant	-528
▁uk	-529
▁dus	-530
anchh	-531
▁khel	-532
▁puri	-533
▁wali	-534
▁yaar	-535
▁kilai	-536
▁tumun	-537
▁mandir	-538
chu	-539
wai	-540
▁co	-541
▁su	-542
▁chae	-543
▁laga	-544
▁mili	-545
▁mukh	-546
▁khali	-547
▁dhanya	-548
khi	-549
anan	-550
▁dui	-551
▁chun	-552
▁dekh	-553
▁banai	-554
▁rakha	-555
▁vi	-556
▁lak	-557
▁pahad	-558
oor	-559
wal	-560
▁fir	-561
▁ghu	-562
▁ith	-563
▁pan	-564
▁ruk	-565
▁sanj	-566
▁chali	-567
▁jaano	-568
▁badiya	-569
st	-570
pas	-571
san	-572
▁bo	-573
▁aan	-574
▁nam	-575
▁pas	-576
▁hyun	-577
▁taat	-578
▁tumi	-579
▁halyo	-580
hen	-581
iya	-582
▁in	-583
arak	-584
▁bal	-585
▁bana	-586
▁jasi	-587
▁tara	-588
▁wele	-589
▁kapad	-590
▁khaan	-591
▁sakun	-592
ba	-593
de	-594
tor	-595
yat	-596
▁bu	-597
▁he	-598
chhu	-599
▁kai	-600
▁pha	-601
▁tyo	-602
▁bina	-603
▁tyar	-604
▁aaram	-605
▁rupya	-606
▁tyohar	-607
alo	-608
jli	-609
▁gi	-610
▁bhu	-611
▁bil	-612
▁bus	-613
▁dho	-614
▁char	-615
▁kaaj	-616
▁yaad	-617
▁padan	-618
▁dagadi	-619
▁jaruri	-620
▁sundar	-621
▁hunchhan	-622
las	-623
elle	-624
usam	-625
▁aso	-626
▁fas	-627
▁jee	-628
▁jho	-629
▁byal	-630
▁kabh	-631
▁pato	-632
▁raye	-633
▁sabb	-634
anchha	-635
▁garmi	-636
▁kunan	-637
▁maati	-638
▁sangi	-639
▁bandar	-640
et	-641
udh	-642
▁ak	-643
▁naa	-644
▁nee	-645
▁aani	-646
▁geyi	-647
▁hath	-648
▁pail	-649
▁sahi	-650
▁tume	-651
▁milan	-652
anchhan	-653
ard	-654
hani	-655
▁dev	-656
▁lik	-657
karan	-658
▁aelle	-659
▁jagah	-660
▁thodo	-661
▁karanu	-662
▁mausam	-663
bi	-664
▁dur	-665
▁hawa	-666
▁thor	-667
▁weki	-668
▁chhat	-669
▁dekha	-670
▁janchhan	-671
bh	-672
re	-673
ate	-674
ind	-675
kul	-676
▁be	-677
▁aag	-678
▁bab	-679
▁das	-680
▁hit	-681
▁kit	-682
▁lam	-683
▁ram	-684
▁tuk	-685
▁awaj	-686
▁bata	-687
▁banan	-688
▁bijli	-689
▁karno	-690
▁madad	-691
▁taraf	-692
▁wapas	-693
▁bilkul	-694
▁chinta	-695
▁jameen	-696
▁o	-697
wan	-698
▁aap	-699
▁lai	-700
▁tal	-701
▁honi	-702
▁jaad	-703
▁miki	-704
▁padi	-705
▁piya	-706
▁sach	-707
▁tuke	-708
▁wath	-709
▁cheth	-710
▁dekho	-711
▁fasal	-712
agi	-713
mar	-714
▁up	-715
esha	-716
▁kan	-717
▁kuk	-718
▁rau	-719
▁saf	-720
askar	-721
▁daan	-722
▁jama	-723
▁jara	-724
▁saam	-725
▁kitab	-726
▁gharak	-727
ed	-728
kil	-729
▁ija	-730
▁mus	-731
▁pir	-732
▁poo	-733
▁ran	-734
▁run	-735
▁kaat	-736
▁kati	-737
▁byaan	-738
▁ghaam	-739
▁karni	-740
▁lakad	-741
▁karano	-742
▁kikaran	-743
dik	-744
hir	-745
nan	-746
atar	-747
▁bun	-748
▁mit	-749
▁pee	-750
▁phe	-751
▁shu	-752
▁baas	-753
▁baje	-754
▁geet	-755
▁tayar	-756
▁dukaan	-757
▁hamesha	-758
mat	-759
▁ye	-760
char	-761
▁gad	-762
▁nik	-763
▁rit	-764
▁taa	-765
▁dyak	-766
▁jind	-767
▁nawa	-768
▁karul	-769
▁phool	-770
▁taato	-771
▁banoon	-772
▁lagani	-773
▁jindagi	-774
▁karanak	-775
pe	-776
dha	-777
▁ai	-778
▁la	-779
▁bul	-780
▁gor	-781
▁auno	-782
▁daal	-783
▁dang	-784
▁dudh	-785
▁dwar	-786
▁janu	-787
▁kasi	-788
▁kunu	-789
▁main	-790
▁pher	-791
▁badhai	-792
▁khabar	-793
▁mukhya	-794
▁sweenar	-795
▁chanchhu	-796
ck	-797
ika	-798
▁te	-799
dhan	-800
yunl	-801
▁byu	-802
▁den	-803
▁fai	-804
▁gal	-805
▁his	-806
▁nai	-807
▁pin	-808
▁tel	-809
▁tha	-810
▁aank	-811
▁alag	-812
▁chet	-813
▁dinu	-814
▁kaan	-815
▁maas	-816
▁teen	-817
▁dabal	-818
▁dawai	-819
▁katek	-820
▁shubh	-821
▁jaanch	-822
fi	-823
wo	-824
boo	-825
lik	-826
alak	-827
▁aao	-828
▁bur	-829
▁jad	-830
▁tai	-831
umber	-832
▁ghyu	-833
▁jang	-834
▁jani	-835
▁liyo	-836
▁tuti	-837
▁paanch	-838
▁padali	-839
▁pathar	-840
▁sabbai	-841
▁sambha	-842
ce	-843
kat	-844
pat	-845
ajyu	-846
▁doo	-847
▁jor	-848
▁sad	-849
▁bagh	-850
▁khut	-851
▁kilo	-852
▁nawo	-853
▁baith	-854
▁chhyu	-855
▁photo	-856
▁khaano	-857
▁khanak	-858
▁dhanyav	-859
▁janchha	-860
▁namaskar	-861
uli	-862
▁do	-863
bhag	-864
▁bee	-865
▁dos	-866
▁dwi	-867
▁jha	-868
▁pun	-869
▁aano	-870
▁baar	-871
▁bhet	-872
▁mang	-873
▁mani	-874
▁noon	-875
▁pura	-876
▁wala	-877
▁bajar	-878
▁karun	-879
▁kukur	-880
▁puran	-881
▁dangar	-882
▁number	-883
▁pasand	-884
▁rakhan	-885
▁laganchha	-886
so	-887
rid	-888
▁re	-889
wari	-890
▁for	-891
▁kud	-892
▁lek	-893
▁aapn	-894
▁bhan	-895
▁card	-896
▁ghas	-897
▁kile	-898
▁nawi	-899
▁pari	-900
▁waal	-901
▁aakhi	-902
▁bhyan	-903
▁dajyu	-904
▁jaala	-905
▁nikal	-906
▁rakho	-907
▁tumke	-908
aak	-909
dam	-910
tam	-911
tir	-912
ctor	-913
haar	-914
▁ang	-915
▁ben	-916
▁dil	-917
▁jyu	-918
▁sur	-919
▁chit	-920
▁ituk	-921
▁jald	-922
chchha	-923
▁aunch	-924
▁bahar	-925
▁haath	-926
▁khaas	-927
▁mahin	-928
▁mohan	-929
▁pares	-930
▁wahan	-931
▁baitha	-932
▁laguno	-933
▁maasab	-934
▁sambhali	-935
jak	-936
jan	-937
lan	-938
tik	-939
▁ri	-940
▁st	-941
▁dyo	-942
▁him	-943
▁pal	-944
▁see	-945
▁she	-946
▁uke	-947
▁bani	-948
▁chut	-949
▁geyo	-950
▁ghum	-951
▁hari	-952
▁khid	-953
▁kono	-954
▁paar	-955
▁reet	-956
▁dhari	-957
▁gaanv	-958
▁khano	-959
▁pacha	-960
▁pheri	-961
▁sanch	-962
▁chhiyo	-963
▁dikkat	-964
▁kabhai	-965
▁khushi	-966
▁mithai	-967
▁taiyar	-968
▁schoolak	-969
ge	-970
hn	-971
ata	-972
gar	-973
odi	-974
ula	-975
▁ad	-976
aani	-977
baad	-978
cket	-979
lass	-980
waar	-981
▁aas	-982
▁kak	-983
▁kau	-984
▁lin	-985
▁aali	-986
▁aama	-987
▁form	-988
▁keni	-989
▁maat	-990
▁nana	-991
▁rang	-992
▁agadi	-993
▁kheti	-994
▁laagi	-995
▁lagun	-996
▁baithi	-997
▁laganu	-998
▁tarika	-999
ash	-1000
ela	-1001
kan	-1002
ram	-1003
yuk	-1004
▁ug	-1005
anti	-1006
ikar	-1007
▁aam	-1008
▁hon	-1009
▁kis	-1010
▁lep	-1011
▁maa	-1012
▁nuk	-1013
▁rag	-1014
▁aang	-1015
▁chaa	-1016
▁geyu	-1017
▁maal	-1018
▁pata	-1019
▁phir	-1020
▁samj	-1021
▁badhi	-1022
▁jaana	-1023
▁khaad	-1024
▁paili	-1025
▁samaj	-1026
▁bajaar	-1027
▁ghanta	-1028
▁khetak	-1029
▁achchha	-1030
thi	-1031
▁dh	-1032
agun	-1033
▁bud	-1034
▁dul	-1035
▁gho	-1036
▁gya	-1037
▁paa	-1038
▁pet	-1039
▁raj	-1040
▁sut	-1041
shish	-1042
▁nano	-1043
▁peli	-1044
▁ritu	-1045
▁saan	-1046
▁unle	-1047
▁yeke	-1048
▁batai	-1049
▁bhuli	-1050
▁doodh	-1051
▁fikar	-1052
▁gaunk	-1053
▁thoda	-1054
▁aaraam	-1055
▁bhitar	-1056
▁chheli	-1057
▁dikhan	-1058
▁dyakhi	-1059
▁khatam	-1060
▁lagawa	-1061
▁milali	-1062
▁koshish	-1063
bu	-1064
go	-1065
pp	-1066
ua	-1067
ara	-1068
oni	-1069
sak	-1070
wor	-1071
▁po	-1072
▁sc	-1073
ayat	-1074
▁adh	-1075
▁bol	-1076
▁jat	-1077
▁kaa	-1078
▁roj	-1079
▁aaye	-1080
▁babu	-1081
▁chah	-1082
▁daud	-1083
▁dhun	-1084
▁diha	-1085
▁kamj	-1086
▁nati	-1087
▁raun	-1088
▁taal	-1089
▁awaaj	-1090
▁chhod	-1091
▁garam	-1092
▁kahin	-1093
▁karyo	-1094
▁khata	-1095
▁mathi	-1096
▁pakka	-1097
▁sakch	-1098
▁bachan	-1099
▁bhitir	-1100
▁janwar	-1101
▁jaroor	-1102
▁karana	-1103
▁khidki	-1104
▁majboo	-1105
▁muskil	-1106
▁ticket	-1107
▁sikayat	-1108
▁dhanyabaad	-1109
▁dhanyavaad	-1110
..	-1111
bo	-1112
gn	-1113
sar	-1114
tin	-1115
unl	-1116
▁um	-1117
adio	-1118
chak	-1119
lawa	-1120
mari	-1121
stri	-1122
umas	-1123
waal	-1124
wani	-1125
▁com	-1126
▁gud	-1127
▁jye	-1128
▁jyo	-1129
hanak	-1130
hyaan	-1131
▁agil	-1132
▁byok	-1133
▁hita	-1134
▁kaag	-1135
▁kuma	-1136
▁lhin	-1137
▁mele	-1138
▁sada	-1139
▁soch	-1140
▁suna	-1141
▁bakri	-1142
▁bheed	-1143
▁chhin	-1144
▁class	-1145
▁haldi	-1146
▁kasan	-1147
▁milal	-1148
▁radio	-1149
▁sakan	-1150
▁sukhi	-1151
▁sunan	-1152
▁aajkal	-1153
▁chhayi	-1154
▁dhyaan	-1155
▁bhagwan	-1156
▁gachhan	-1157
▁majboot	-1158
▁hunchhin	-1159
vi	-1160
dak	-1161
esh	-1162
hil	-1163
hyo	-1164
tic	-1165
▁at	-1166
jaar	-1167
▁aji	-1168
▁dak	-1169
▁gai	-1170
▁han	-1171
▁kee	-1172
▁kir	-1173
▁kri	-1174
▁tur	-1175
aatin	-1176
▁aana	-1177
▁baal	-1178
▁bare	-1179
▁gaad	-1180
▁gham	-1181
▁nani	-1182
▁plas	-1183
▁yaso	-1184
▁yath	-1185
▁badal	-1186
▁banar	-1187
▁bhali	-1188
▁bheji	-1189
▁dhaan	-1190
▁dhara	-1191
▁khush	-1192
▁pahun	-1193
▁sukha	-1194
▁aanchh	-1195
▁bhiter	-1196
▁chaini	-1197
▁ghanti	-1198
▁harela	-1199
▁kaagaj	-1200
▁kathin	-1201
▁raatak	-1202
▁hunchho	-1203
▁lagbhag	-1204
▁lagchha	-1205
▁sarkari	-1206
pa	-1207
ro	-1208
ub	-1209
▁e	-1210
sis	-1211
ver	-1212
▁dy	-1213
▁mu	-1214
▁ud	-1215
yala	-1216
▁lad	-1217
▁pit	-1218
▁unk	-1219
▁aunl	-1220
▁bhat	-1221
▁byan	-1222
▁cham	-1223
▁deni	-1224
▁dhul	-1225
▁didi	-1226
▁kami	-1227
▁lhen	-1228
▁meet	-1229
▁raal	-1230
▁shan	-1231
▁sing	-1232
▁upar	-1233
▁wema	-1234
naatin	-1235
▁bachh	-1236
▁chuna	-1237
▁dinch	-1238
▁dusar	-1239
▁ekdam	-1240
▁faida	-1241
▁ghaad	-1242
▁halla	-1243
▁hunal	-1244
▁jaunl	-1245
▁maang	-1246
▁milai	-1247
▁sakda	-1248
▁bananu	-1249
▁chahan	-1250
▁chalan	-1251
▁chutti	-1252
▁mankhi	-1253
▁mistri	-1254
▁nuksan	-1255
▁padano	-1256
▁thandi	-1257
▁thando	-1258
▁turant	-1259
▁kariber	-1260
▁pachadi	-1261
▁mandirak	-1262
gi	-1263
oi	-1264
asi	-1265
ato	-1266
bak	-1267
cho	-1268
ine	-1269
lme	-1270
ook	-1271
▁aj	-1272
▁ij	-1273
atak	-1274
chai	-1275
work	-1276
▁app	-1277
▁dee	-1278
▁gil	-1279
▁gut	-1280
▁haf	-1281
▁jod	-1282
▁mas	-1283
▁min	-1284
▁res	-1285
▁tej	-1286
▁yan	-1287
▁yek	-1288
▁chup	-1289
▁daaj	-1290
▁door	-1291
▁jyoo	-1292
▁kaal	-1293
▁kran	-1294
▁lyao	-1295
▁majo	-1296
▁mank	-1297
▁nayi	-1298
▁puna	-1299
▁puno	-1300
▁rukh	-1301
▁shar	-1302
▁batao	-1303
▁batul	-1304
▁bhagw	-1305
▁dukan	-1306
▁galat	-1307
▁helme	-1308
▁jhola	-1309
▁kamra	-1310
▁karal	-1311
▁karne	-1312
▁tukad	-1313
▁chhiya	-1314
▁himmat	-1315
▁khatar	-1316
▁padhai	-1317
▁pancha	-1318
▁sabyan	-1319
▁sheher	-1320
▁aakhiri	-1321
▁baandhi	-1322
▁chalano	-1323
▁dekhano	-1324
▁jarurat	-1325
▁karchha	-1326
▁plastic	-1327
lu	-1328
der	-1329
dhe	-1330
ent	-1331
tan	-1332
wer	-1333
▁ar	-1334
▁ly	-1335
▁ait	-1336
▁bek	-1337
▁bis	-1338
▁chu	-1339
▁dri	-1340
▁gau	-1341
▁jaw	-1342
▁kal	-1343
▁kur	-1344
▁kwe	-1345
▁mai	-1346
▁tam	-1347
adhan	-1348
ampar	-1349
ation	-1350
dwani	-1351
paani	-1352
yonak	-1353
▁auni	-1354
▁chak	-1355
▁chip	-1356
▁daam	-1357
▁dher	-1358
▁jaag	-1359
▁kani	-1360
▁khil	-1361
▁khoj	-1362
▁khul	-1363
▁kuno	-1364
▁laal	-1365
▁lago	-1366
▁lami	-1367
▁mela	-1368
▁milo	-1369
▁pank	-1370
▁phal	-1371
▁waan	-1372
anchhi	-1373
▁baari	-1374
▁beech	-1375
▁bunan	-1376
▁chidi	-1377
▁daaju	-1378
▁dabba	-1379
▁devta	-1380
▁dhyan	-1381
▁dinak	-1382
▁diwal	-1383
▁dyunl	-1384
▁goruk	-1385
▁lyunl	-1386
▁motor	-1387
▁padyo	-1388
▁pariv	-1389
▁sidhe	-1390
▁swaad	-1391
▁chhiyu	-1392
▁hitanu	-1393
▁jaunla	-1394
▁karala	-1395
▁lagano	-1396
▁sikhan	-1397
▁sochan	-1398
▁adhkari	-1399
▁chaumas	-1400
▁jaanchh	-1401
▁shaanti	-1402
▁haldwani	-1403
▁parampar	-1404
ok	-1405
pi	-1406
pu	-1407
va	-1408
dit	-1409
ekh	-1410
ffi	-1411
jal	-1412
man	-1413
mor	-1414
mti	-1415
pai	-1416
rak	-1417
ulo	-1418
van	-1419
was	-1420
▁jy	-1421
asya	-1422
ctar	-1423
hang	-1424
paat	-1425
reen	-1426
▁gae	-1427
▁gan	-1428
▁gun	-1429
▁lij	-1430
▁nar	-1431
▁shi	-1432
▁tan	-1433
ateek	-1434
yanak	-1435
▁aalu	-1436
▁bair	-1437
▁bhav	-1438
▁bhuk	-1439
▁chur	-1440
▁delo	-1441
▁diye	-1442
▁dyol	-1443
▁dyun	-1444
▁goru	-1445
▁ilak	-1446
▁jagg	-1447
▁jodi	-1448
▁kabi	-1449
▁kaso	-1450
▁lyon	-1451
▁rakh	-1452
▁runu	-1453
▁suti	-1454
▁tuta	-1455
▁umar	-1456
▁wehi	-1457
▁aankh	-1458
▁balad	-1459
▁balti	-1460
▁bimar	-1461
▁byanh	-1462
▁chaan	-1463
▁dulha	-1464
▁ghaas	-1465
▁haali	-1466
▁hafta	-1467
▁jaada	-1468
▁jaani	-1469
▁karai	-1470
▁khanu	-1471
▁najar	-1472
▁pehli	-1473
▁piran	-1474
▁safal	-1475
▁sanjh	-1476
▁takat	-1477
▁waali	-1478
▁banaye	-1479
▁chhanu	-1480
▁dactar	-1481
▁dihaal	-1482
▁jaanak	-1483
▁lagaya	-1484
▁maatik	-1485
▁ragada	-1486
▁screen	-1487
▁thanda	-1488
▁dikhano	-1489
▁kumaoni	-1490
▁mankhin	-1491
▁prateek	-1492
▁pareshani	-1493
ga	-1494
ko	-1495
eli	-1496
eri	-1497
ure	-1498
ush	-1499
▁fa	-1500
▁ju	-1501
▁ub	-1502
▁ul	-1503
agri	-1504
atin	-1505
bile	-1506
shna	-1507
ulak	-1508
wali	-1509
▁anu	-1510
▁hap	-1511
▁lat	-1512
▁mar	-1513
▁nal	-1514
▁net	-1515
▁nyo	-1516
▁sai	-1517
▁sim	-1518
▁tap	-1519
ffice	-1520
▁bhej	-1521
▁dukh	-1522
▁dusr	-1523
▁ithe	-1524
▁jeep	-1525
▁maar	-1526
▁mari	-1527
▁nawe	-1528
▁pair	-1529
▁puja	-1530
▁rain	-1531
▁saat	-1532
▁sign	-1533
▁todi	-1534
▁yahi	-1535
chanak	-1536
▁aadmi	-1537
▁baare	-1538
▁bhalu	-1539
▁chaar	-1540
▁chhut	-1541
▁dikat	-1542
▁gaank	-1543
▁hissa	-1544
▁jaiya	-1545
▁kapda	-1546
▁lagno	-1547
▁pakdi	-1548
▁pichh	-1549
▁raati	-1550
▁saari	-1551
▁tilik	-1552
▁waala	-1553
▁chhodi	-1554
▁jangal	-1555
▁kariya	-1556
▁manukh	-1557
▁mobile	-1558
▁neemak	-1559
▁office	-1560
▁padhan	-1561
▁pandit	-1562
▁sadani	-1563
▁sakana	-1564
▁ghoshna	-1565
▁network	-1566
▁sakanch	-1567
▁tarkari	-1568
▁karchhan	-1569
be	-1570
ff	-1571
aab	-1572
aav	-1573
hit	-1574
jar	-1575
net	-1576
ori	-1577
sma	-1578
uka	-1579
ura	-1580
waj	-1581
▁je	-1582
aada	-1583
asan	-1584
mora	-1585
onak	-1586
tery	-1587
unch	-1588
▁and	-1589
▁asi	-1590
▁baa	-1591
▁dai	-1592
▁kad	-1593
▁mek	-1594
▁mud	-1595
▁oon	-1596
▁pya	-1597
▁aala	-1598
▁anaj	-1599
▁asli	-1600
▁chot	-1601
▁dari	-1602
▁desi	-1603
▁jano	-1604
▁khas	-1605
▁pand	-1606
▁pass	-1607
▁paud	-1608
▁pich	-1609
▁sank	-1610
▁tank	-1611
▁time	-1612
▁yasi	-1613
ternet	-1614
▁aadho	-1615
▁angre	-1616
▁bachi	-1617
▁batti	-1618
▁chahi	-1619
▁cheli	-1620
▁chiyo	-1621
▁deepu	-1622
▁dhaki	-1623
▁gutuk	-1624
▁jawab	-1625
▁kaali	-1626
▁karch	-1627
▁khaya	-1628
▁lagal	-1629
▁lagch	-1630
▁phati	-1631
▁sacho	-1632
▁sagun	-1633
▁sarka	-1634
▁sochi	-1635
▁taaji	-1636
▁bharos	-1637
▁chithi	-1638
▁doctor	-1639
▁driver	-1640
▁helmet	-1641
▁jyaada	-1642
▁jyeber	-1643
▁likhan	-1644
▁nikali	-1645
▁paatak	-1646
▁sabban	-1647
▁sarkar	-1648
▁sawaal	-1649
▁shaant	-1650
▁shanti	-1651
▁signal	-1652
▁baandar	-1653
▁jaanchu	-1654
▁lagatar	-1655
▁najikak	-1656
▁padhano	-1657
▁parivar	-1658
▁puchhan	-1659
▁rakhiya	-1660
▁saanchi	-1661
▁aanchhan	-1662
▁internet	-1663
00	-1664
ht	-1665
bhi	-1666
dai	-1667
erv	-1668
gha	-1669
hut	-1670
ita	-1671
pur	-1672
▁on	-1673
atik	-1674
atra	-1675
baar	-1676
ikhe	-1677
sapp	-1678
▁atm	-1679
▁fil	-1680
▁hin	-1681
▁muk	-1682
▁mur	-1683
▁nim	-1684
▁nir	-1685
▁rok	-1686
▁sas	-1687
▁ule	-1688
▁asar	-1689
▁bhul	-1690
▁dada	-1691
▁dela	-1692
▁frid	-1693
▁hali	-1694
▁holo	-1695
▁jhag	-1696
▁kaad	-1697
▁kahi	-1698
▁kira	-1699
▁laun	-1700
▁lyan	-1701
▁maan	-1702
▁mana	-1703
▁mehn	-1704
▁nayo	-1705
▁paha	-1706
▁taar	-1707
▁what	-1708
▁yema	-1709
▁aanch	-1710
▁badha	-1711
▁badon	-1712
▁banoi	-1713
▁bhaat	-1714
▁bhale	-1715
▁bhyal	-1716
▁bhyar	-1717
▁bwari	-1718
▁dilli	-1719
▁dinan	-1720
▁gagri	-1721
▁gichi	-1722
▁khani	-1723
▁kosis	-1724
▁layak	-1725
▁manin	-1726
▁pachh	-1727
▁pooja	-1728
▁rahan	-1729
▁safed	-1730
▁surak	-1731
▁tanki	-1732
▁thaki	-1733
▁tower	-1734
▁uthan	-1735
▁almora	-1736
▁bachai	-1737
▁basant	-1738
▁bechan	-1739
▁bimari	-1740
▁compan	-1741
▁gharar	-1742
▁janjal	-1743
▁jhadak	-1744
▁kaatan	-1745
▁pakaan	-1746
▁raunak	-1747
▁reserv	-1748
▁sungar	-1749
▁tumhar	-1750
▁aadhaar	-1751
▁baithan	-1752
▁chyalak	-1753
▁pardhan	-1754
▁ranikhe	-1755
▁samasya	-1756
▁pareshan	-1757
▁tyoharak	-1758
▁whatsapp	-1759
▁khatarnak	-1760
▁parampara	-1761
▁barkhaatak	-1762
hs	-1763
ku	-1764
ll	-1765
mo	-1766
bat	-1767
bho	-1768
buk	-1769
dal	-1770
des	-1771
eed	-1772
ees	-1773
gun	-1774
hik	-1775
kab	-1776
kri	-1777
mid	-1778
ono	-1779
pak	-1780
rat	-1781
tha	-1782
uri	-1783
wak	-1784
▁gu	-1785
amak	-1786
amal	-1787
bhal	-1788
chhi	-1789
eend	-1790
khat	-1791
thar	-1792
ukri	-1793
vaar	-1794
▁aat	-1795
▁bel	-1796
▁bir	-1797
▁con	-1798
▁dhi	-1799
▁eko	-1800
▁gyo	-1801
▁has	-1802
▁hat	-1803
▁ist	-1804
▁jut	-1805
▁len	-1806
▁mee	-1807
▁mun	-1808
▁nak	-1809
▁phi	-1810
▁rao	-1811
▁sal	-1812
▁tut	-1813
▁yoi	-1814
echan	-1815
▁adda	-1816
▁aiya	-1817
▁baki	-1818
▁buri	-1819
▁denu	-1820
▁dyul	-1821
▁ghug	-1822
▁goli	-1823
▁hame	-1824
▁honu	-1825
▁jeet	-1826
▁kehn	-1827
▁khol	-1828
▁naak	-1829
▁need	-1830
▁paal	-1831
▁pahu	-1832
▁pisi	-1833
▁ruka	-1834
▁ruki	-1835
▁saas	-1836
▁sabi	-1837
▁sans	-1838
▁seat	-1839
▁thai	-1840
▁thak	-1841
▁vide	-1842
midwar	-1843
riddhi	-1844
▁aksar	-1845
▁bagan	-1846
▁bajyu	-1847
▁bekar	-1848
▁bhoot	-1849
▁byoli	-1850
▁chaba	-1851
▁chauk	-1852
▁chhya	-1853
▁chodi	-1854
▁ghant	-1855
▁haala	-1856
▁jodan	-1857
▁kabhi	-1858
▁karna	-1859
▁karya	-1860
▁khayo	-1861
▁khuli	-1862
▁laago	-1863
▁ladai	-1864
▁lagyo	-1865
▁logon	-1866
▁lyaan	-1867
▁mauka	-1868
▁natin	-1869
▁neend	-1870
▁rassi	-1871
▁rituk	-1872
▁riwaj	-1873
▁saman	-1874
▁sikha	-1875
▁singh	-1876
▁taalo	-1877
▁tabai	-1878
▁aakhir	-1879
▁baatak	-1880
▁daktar	-1881
▁gadher	-1882
▁hajaar	-1883
▁jaagar	-1884
▁kamjor	-1885
▁karula	-1886
▁kathak	-1887
▁khelan	-1888
▁laagal	-1889
▁lagana	-1890
▁meethi	-1891
▁naukri	-1892
▁pakodi	-1893
▁rupyak	-1894
▁saamne	-1895
▁samajh	-1896
▁sandes	-1897
▁sawari	-1898
▁sukhan	-1899
▁baithak	-1900
▁chahano	-1901
▁chandan	-1902
▁company	-1903
▁dinchan	-1904
▁istamal	-1905
▁kamjori	-1906
▁manchhi	-1907
▁pahadak	-1908
▁pichhne	-1909
▁shahare	-1910
▁ranikhet	-1911
▁ummidwar	-1912
▁bhagwanak	-1913
▁panchayat	-1914
ans	-1915
fal	-1916
hna	-1917
ore	-1918
ote	-1919
rit	-1920
uni	-1921
wat	-1922
▁et	-1923
▁kh	-1924
▁ru	-1925
▁sy	-1926
▁yi	-1927
bhav	-1928
book	-1929
heer	-1930
lock	-1931
ooni	-1932
unak	-1933
yari	-1934
▁aak	-1935
▁aps	-1936
▁dal	-1937
▁fau	-1938
▁gup	-1939
▁jik	-1940
▁kin	-1941
▁luk	-1942
▁pag	-1943
▁ped	-1944
▁pra	-1945
▁ses	-1946
▁tin	-1947
bhaag	-1948
chaar	-1949
▁aane	-1950
▁apni	-1951
▁bada	-1952
▁bhau	-1953
▁bhun	-1954
▁chor	-1955
▁deen	-1956
▁dost	-1957
▁etuk	-1958
▁gair	-1959
▁gauk	-1960
▁ghun	-1961
▁giri	-1962
▁haan	-1963
▁hono	-1964
▁hune	-1965
▁imti	-1966
▁jala	-1967
▁jhun	-1968
▁lhya	-1969
▁maaf	-1970
▁nyot	-1971
▁pain	-1972
▁pooj	-1973
▁prak	-1974
▁rati	-1975
▁sukh	-1976
▁tare	-1977
▁aayun	-1978
▁baanj	-1979
▁banak	-1980
▁banau	-1981
▁bhaji	-1982
▁bulai	-1983
▁chila	-1984
▁daant	-1985
▁dhaar	-1986
▁dosti	-1987
▁gobar	-1988
▁hapta	-1989
▁holan	-1990
▁jaalo	-1991
▁kasak	-1992
▁khana	-1993
▁lekin	-1994
▁likhi	-1995
▁madua	-1996
▁meeth	-1997
▁mehen	-1998
▁pakad	-1999
▁pakki	-2000
▁pehil	-2001
▁saadi	-2002
▁saara	-2003
▁taati	-2004
▁tapuk	-2005
▁video	-2006
▁yatra	-2007
▁baatar	-2008
▁banala	-2009
▁chamak	-2010
▁chhoot	-2011
▁chunav	-2012
▁dekhai	-2013
▁haldik	-2014
▁jaipur	-2015
▁jhadar	-2016
▁kardan	-2017
▁karnan	-2018
▁khaali	-2019
▁kiraya	-2020
▁mehnat	-2021
▁puchan	-2022
▁saikil	-2023
▁sanchi	-2024
▁apsagun	-2025
▁banoonu	-2026
▁chadhan	-2027
▁lakadak	-2028
▁milanch	-2029
▁nikalan	-2030
▁runchha	-2031
▁samjhan	-2032
▁taiyari	-2033
▁kehnchhan	-2034
▁samriddhi	-2035
▁reservation	-2036
ay	-2037
du	-2038
em	-2039
ey	-2040
ft	-2041
aja	-2042
all	-2043
eeb	-2044
era	-2045
ess	-2046
gak	-2047
kam	-2048
mas	-2049
pya	-2050
rah	-2051
sme	-2052
ten	-2053
win	-2054
yen	-2055
▁ne	-2056
▁uj	-2057
aaji	-2058
adar	-2059
agar	-2060
anda	-2061
bhol	-2062
line	-2063
mach	-2064
oond	-2065
shan	-2066
shta	-2067
yaas	-2068
▁dei	-2069
▁dub	-2070
▁eki	-2071
▁gaa	-2072
▁hil	-2073
▁jaa	-2074
▁kul	-2075
▁kwa	-2076
▁liy	-2077
▁mel	-2078
▁pos	-2079
▁pro	-2080
▁rot	-2081
▁sen	-2082
▁sya	-2083
▁too	-2084
▁van	-2085
▁waj	-2086
kamna	-2087
patal	-2088
unter	-2089
▁bent	-2090
▁bola	-2091
▁boli	-2092
▁bore	-2093
▁bubu	-2094
▁chad	-2095
▁chat	-2096
▁chul	-2097
▁comp	-2098
▁dahi	-2099
▁dhon	-2100
▁film	-2101
▁golu	-2102
▁goth	-2103
▁haha	-2104
▁inar	-2105
▁jana	-2106
▁kele	-2107
▁lang	-2108
▁lyai	-2109
▁pinj	-2110
▁pipe	-2111
▁rano	-2112
▁raya	-2113
▁roth	-2114
▁saav	-2115
▁suno	-2116
▁tabi	-2117
▁tato	-2118
▁udas	-2119
▁unak	-2120
▁unse	-2121
▁weko	-2122
eshwar	-2123
▁abhil	-2124
▁baand	-2125
▁bacha	-2126
▁banal	-2127
▁bhaag	-2128
▁bhado	-2129
▁bhook	-2130
▁block	-2131
▁chalo	-2132
▁chhip	-2133
▁chini	-2134
▁chuni	-2135
▁ghadi	-2136
▁halki	-2137
▁hoshi	-2138
▁ilaka	-2139
▁janan	-2140
▁jhund	-2141
▁kaath	-2142
▁kakdi	-2143
▁kanoo	-2144
▁karte	-2145
▁katha	-2146
▁keeda	-2147
▁khank	-2148
▁khula	-2149
▁kisan	-2150
▁laeen	-2151
▁liyan	-2152
▁lohak	-2153
▁lyaye	-2154
▁maani	-2155
▁minut	-2156
▁nanot	-2157
▁natar	-2158
▁padhi	-2159
▁palla	-2160
▁pirul	-2161
▁ragat	-2162
▁ranch	-2163
▁ropai	-2164
▁sayad	-2165
▁sehat	-2166
▁sutan	-2167
▁sutye	-2168
▁swani	-2169
▁aangan	-2170
▁aangul	-2171
▁badali	-2172
▁bhaiji	-2173
▁bhanda	-2174
▁bijlik	-2175
▁bunanu	-2176
▁cheeni	-2177
▁chelik	-2178
▁fridge	-2179
▁gaunak	-2180
▁khaata	-2181
▁kripya	-2182
▁milano	-2183
▁online	-2184
▁paidal	-2185
▁pairan	-2186
▁pandey	-2187
▁pichla	-2188
▁prakri	-2189
▁purani	-2190
▁ranchh	-2191
▁tumari	-2192
▁aanchho	-2193
▁aitvaar	-2194
▁battery	-2195
▁bhandar	-2196
▁bharyun	-2197
▁byaanak	-2198
▁chahiyo	-2199
▁chakkar	-2200
▁chhutti	-2201
▁counter	-2202
▁hunchhi	-2203
▁jangali	-2204
▁pahadan	-2205
▁patthar	-2206
▁vibhaag	-2207
▁bandaron	-2208
▁jameenak	-2209
▁laagunch	-2210
▁maangano	-2211
▁passbook	-2212
▁dhanyavad	-2213
ct	-2214
gh	-2215
je	-2216
ru	-2217
ty	-2218
age	-2219
ain	-2220
ale	-2221
aso	-2222
bad	-2223
cti	-2224
dea	-2225
dra	-2226
dur	-2227
hon	-2228
kai	-2229
onk	-2230
ood	-2231
ort	-2232
pin	-2233
sht	-2234
spe	-2235
tem	-2236
uak	-2237
uti	-2238
wad	-2239
wet	-2240
yam	-2241
yud	-2242
▁am	-2243
▁fi	-2244
▁gh	-2245
....	-2246
aagh	-2247
agat	-2248
aker	-2249
aste	-2250
ater	-2251
bhar	-2252
chap	-2253
desh	-2254
hthi	-2255
hula	-2256
kabi	-2257
kaji	-2258
kani	-2259
laya	-2260
mati	-2261
onch	-2262
pani	-2263
shak	-2264
shay	-2265
well	-2266
▁akh	-2267
▁bau	-2268
▁boi	-2269
▁boj	-2270
▁cam	-2271
▁gee	-2272
▁gir	-2273
▁gyu	-2274
▁jun	-2275
▁jur	-2276
▁laa	-2277
▁nas	-2278
▁oho	-2279
▁pen	-2280
▁pul	-2281
▁sit	-2282
▁sui	-2283
▁ter	-2284
▁tuf	-2285
▁wer	-2286
▁yoj	-2287
batti	-2288
hatke	-2289
terak	-2290
▁aage	-2291
▁aalo	-2292
▁agla	-2293
▁assi	-2294
▁baba	-2295
▁badh	-2296
▁bate	-2297
▁bech	-2298
▁bees	-2299
▁bhoj	-2300
▁bhut	-2301
▁bura	-2302
▁chya	-2303
▁daad	-2304
▁dedh	-2305
▁devi	-2306
▁deya	-2307
▁dhol	-2308
▁dwin	-2309
▁dyav	-2310
▁ekal	-2311
▁ekla	-2312
▁galo	-2313
▁gein	-2314
▁gwal	-2315
▁gyan	-2316
▁gyun	-2317
▁hala	-2318
▁hola	-2319
▁idea	-2320
▁itli	-2321
▁jami	-2322
▁jhol	-2323
▁kalo	-2324
▁khao	-2325
▁lamo	-2326
▁lija	-2327
▁mehs	-2328
▁mein	-2329
▁mira	-2330
▁poli	-2331
▁pras	-2332
▁prem	-2333
▁pyon	-2334
▁rwet	-2335
▁saha	-2336
▁seel	-2337
▁shiv	-2338
▁subo	-2339
▁sunn	-2340
▁swar	-2341
▁taaj	-2342
▁thad	-2343
▁tule	-2344
▁ukal	-2345
▁unhe	-2346
▁waso	-2347
▁aadat	-2348
▁aaluk	-2349
▁aatak	-2350
▁aipan	-2351
▁ajeeb	-2352
▁apune	-2353
▁baadi	-2354
▁badli	-2355
▁baira	-2356
▁banyo	-2357
▁bench	-2358
▁bhagi	-2359
▁bhatt	-2360
▁bidai	-2361
▁bulan	-2362
▁chaak	-2363
▁dhung	-2364
▁diyan	-2365
▁dusri	-2366
▁galti	-2367
▁ghyuk	-2368
▁haang	-2369
▁halko	-2370
▁hamak	-2371
▁hindi	-2372
▁jaane	-2373
▁jalan	-2374
▁jeeti	-2375
▁jhadu	-2376
▁kaati	-2377
▁karak	-2378
▁kheli	-2379
▁kursi	-2380
▁manai	-2381
▁party	-2382
▁press	-2383
▁raali	-2384
▁sasur	-2385
▁taaja	-2386
▁tumak	-2387
▁ubali	-2388
▁wepar	-2389
▁aakash	-2390
▁aankhi	-2391
▁bachha	-2392
▁badhan	-2393
▁banawa	-2394
▁banayo	-2395
▁baraat	-2396
▁bhalai	-2397
▁chalai	-2398
▁chatni	-2399
▁chhaya	-2400
▁dekhno	-2401
▁gaanar	-2402
▁ghughu	-2403
▁ghuman	-2404
▁haalnu	-2405
▁haalun	-2406
▁jeevan	-2407
▁jhagda	-2408
▁karchh	-2409
▁kharch	-2410
▁kikaji	-2411
▁kudrat	-2412
▁mangal	-2413
▁milani	-2414
▁nanpan	-2415
▁pahadi	-2416
▁pankha	-2417
▁parchi	-2418
▁phonak	-2419
▁pichha	-2420
▁pyonak	-2421
▁raksha	-2422
▁ramesh	-2423
▁rupiya	-2424
▁sakanu	-2425
▁sakdan	-2426
▁sanjak	-2427
▁siment	-2428
▁vibhag	-2429
▁achanak	-2430
▁aitwaar	-2431
▁angreji	-2432
▁asardar	-2433
▁baithun	-2434
▁banoonk	-2435
▁chadhai	-2436
▁cheejak	-2437
▁chidiya	-2438
▁chunaav	-2439
▁daskhat	-2440
▁kharcho	-2441
▁khelana	-2442
▁khushik	-2443
▁miliber	-2444
▁namaste	-2445
▁pradhan	-2446
▁purohit	-2447
▁safalta	-2448
▁sangeet	-2449
▁tamatar	-2450
▁baanjhak	-2451
▁bakhatar	-2452
▁borewell	-2453
▁chiththi	-2454
▁chupchap	-2455
▁dekhanak	-2456
▁sarkaari	-2457
▁shaharak	-2458
▁suraksha	-2459
▁mankhinak	-2460
▁sakanchhan	-2461
py	-2462
ue	-2463
awa	-2464
bai	-2465
gad	-2466
hap	-2467
hor	-2468
hri	-2469
huk	-2470
ini	-2471
int	-2472
ler	-2473
nat	-2474
oun	-2475
pal	-2476
rik	-2477
sit	-2478
ule	-2479
vik	-2480
▁ae	-2481
▁du	-2482
▁hy	-2483
▁pl	-2484
▁ty	-2485
arat	-2486
atri	-2487
ayan	-2488
chki	-2489
diya	-2490
ekhi	-2491
ffee	-2492
ghat	-2493
gram	-2494
heri	-2495
hyar	-2496
peti	-2497
shni	-2498
stem	-2499
tiha	-2500
tiya	-2501
yaar	-2502
▁abh	-2503
▁asa	-2504
▁bim	-2505
▁bin	-2506
▁dam	-2507
▁dun	-2508
▁gap	-2509
▁gul	-2510
▁hyu	-2511
▁kil	-2512
▁pyo	-2513
▁ser	-2514
▁sir	-2515
▁sup	-2516
▁sus	-2517
▁swe	-2518
▁syo	-2519
▁tir	-2520
▁tra	-2521
▁uki	-2522
▁vig	-2523
aanak	-2524
achar	-2525
admas	-2526
chana	-2527
ction	-2528
panak	-2529
shali	-2530
▁aadu	-2531
▁aeli	-2532
▁agli	-2533
▁arth	-2534
▁asal	-2535
▁bach	-2536
▁bagi	-2537
▁banu	-2538
▁bhad	-2539
▁bori	-2540
▁bula	-2541
▁chik	-2542
▁copy	-2543
▁daag	-2544
▁daat	-2545
▁dand	-2546
▁dini	-2547
▁dino	-2548
▁fali	-2549
▁garv	-2550
▁gayo	-2551
▁gili	-2552
▁gilo	-2553
▁gobi	-2554
▁gool	-2555
▁hans	-2556
▁heri	-2557
▁hiti	-2558
▁itlo	-2559
▁jain	-2560
▁jhan	-2561
▁jurm	-2562
▁kach	-2563
▁kala	-2564
▁khin	-2565
▁liya	-2566
▁mach	-2567
▁muli	-2568
▁note	-2569
▁pado	-2570
▁paki	-2571
▁peed	-2572
▁peer	-2573
▁phen	-2574
▁plan	-2575
▁pyar	-2576
▁raja	-2577
▁raji	-2578
▁rate	-2579
▁ruwa	-2580
▁saki	-2581
▁sauk	-2582
▁swad	-2583
▁taav	-2584
▁toli	-2585
▁wasi	-2586
hangor	-2587
yakram	-2588
▁aanak	-2589
▁aasha	-2590
▁aghin	-2591
▁alawa	-2592
▁anaaj	-2593
▁angan	-2594
▁antar	-2595
▁apuni	-2596
▁baati	-2597
▁banun	-2598
▁batun	-2599
▁bechi	-2600
▁bharo	-2601
▁bihan	-2602
▁byast	-2603
▁chait	-2604
▁chhui	-2605
▁chuno	-2606
▁daana	-2607
▁dikha	-2608
▁diyun	-2609
▁doori	-2610
▁dyala	-2611
▁geeta	-2612
▁gilli	-2613
▁haule	-2614
▁hitan	-2615
▁itiha	-2616
▁jadar	-2617
▁janam	-2618
▁jatan	-2619
▁jatti	-2620
▁jaula	-2621
▁jisme	-2622
▁jorak	-2623
▁kaafi	-2624
▁kaana	-2625
▁kaash	-2626
▁kamal	-2627
▁kauva	-2628
▁khari	-2629
▁khich	-2630
▁khoji	-2631
▁khola	-2632
▁khusi	-2633
▁kinar	-2634
▁kirmo	-2635
▁lamba	-2636
▁laung	-2637
▁lyanu	-2638
▁lyaun	-2639
▁maala	-2640
▁maari	-2641
▁manan	-2642
▁milyo	-2643
▁murti	-2644
▁naati	-2645
▁nalak	-2646
▁nanin	-2647
▁nauna	-2648
▁nimbu	-2649
▁paida	-2650
▁pairi	-2651
▁parik	-2652
▁patal	-2653
▁patli	-2654
▁paudh	-2655
▁peela	-2656
▁peeth	-2657
▁pyala	-2658
▁saamp	-2659
▁saans	-2660
▁sachi	-2661
▁sahar	-2662
▁sunao	-2663
▁tooti	-2664
▁wajah	-2665
▁wekai	-2666
▁almari	-2667
▁baarer	-2668
▁baitho	-2669
▁banaan	-2670
▁bhagya	-2671
▁bharan	-2672
▁bhejan	-2673
▁bolano	-2674
▁byalak	-2675
▁chinha	-2676
▁chyala	-2677
▁coffee	-2678
▁dawaik	-2679
▁dekhin	-2680
▁dekhyo	-2681
▁dinchh	-2682
▁diwali	-2683
▁dulhan	-2684
▁gaayak	-2685
▁garmir	-2686
▁gilaas	-2687
▁hahaha	-2688
▁harish	-2689
▁hichki	-2690
▁jaivik	-2691
▁jangli	-2692
▁jannan	-2693
▁jhatke	-2694
▁kahani	-2695
▁karani	-2696
▁khetik	-2697
▁lagoon	-2698
▁lapeti	-2699
▁lhyayo	-2700
▁liyanu	-2701
▁lyayun	-2702
▁mahang	-2703
▁manino	-2704
▁minute	-2705
▁paanir	-2706
▁prasad	-2707
▁roshni	-2708
▁sangai	-2709
▁saryuk	-2710
▁seedha	-2711
▁seekhi	-2712
▁swagat	-2713
▁tayari	-2714
▁aspatal	-2715
▁bananak	-2716
▁batulai	-2717
▁batulan	-2718
▁bunanak	-2719
▁chabawa	-2720
▁chahani	-2721
▁dhaanak	-2722
▁dinchha	-2723
▁dusarak	-2724
▁ghaamar	-2725
▁gwaldam	-2726
▁headmas	-2727
▁laganch	-2728
▁mahinat	-2729
▁padanch	-2730
▁pariwar	-2731
▁program	-2732
▁rasayan	-2733
▁sandesh	-2734
▁sanskri	-2735
▁sweater	-2736
▁gadherak	-2737
▁hoshiyar	-2738
▁janchhin	-2739
▁laganchh	-2740
▁pressure	-2741
▁shaharar	-2742
▁chahanchu	-2743
▁jaanchhan	-2744
▁samriddhik	-2745
ap	-2746
dr	-2747
ry	-2748
aah	-2749
aay	-2750
aik	-2751
aro	-2752
ayo	-2753
ddh	-2754
din	-2755
eej	-2756
elu	-2757
hal	-2758
hnu	-2759
jam	-2760
jat	-2761
jau	-2762
jyu	-2763
kik	-2764
mer	-2765
mik	-2766
nen	-2767
oik	-2768
ona	-2769
pho	-2770
rch	-2771
sai	-2772
sal	-2773
unn	-2774
way	-2775
▁au	-2776
▁bl	-2777
▁br	-2778
▁oh	-2779
▁sp	-2780
▁tv	-2781
ager	-2782
ahar	-2783
andi	-2784
aran	-2785
bara	-2786
bhat	-2787
brid	-2788
chat	-2789
chil	-2790
dana	-2791
danu	-2792
eeti	-2793
hari	-2794
hini	-2795
hkil	-2796
huri	-2797
jaan	-2798
mand	-2799
ppal	-2800
shap	-2801
shit	-2802
shya	-2803
ting	-2804
yaaj	-2805
yang	-2806
▁air	-2807
▁bot	-2808
▁buk	-2809
▁cho	-2810
▁fal	-2811
▁gur	-2812
▁jim	-2813
▁jit	-2814
▁jwe	-2815
▁laj	-2816
▁mae	-2817
▁mal	-2818
▁mom	-2819
▁nau	-2820
▁sek	-2821
▁sum	-2822
▁thu	-2823
▁twe	-2824
▁upi	-2825
▁yak	-2826
▁yei	-2827
andak	-2828
ariya	-2829
athak	-2830
chaal	-2831
chhin	-2832
dhaan	-2833
dhaar	-2834
shwar	-2835
taaji	-2836
udspe	-2837
warak	-2838
warik	-2839
▁aadi	-2840
▁aath	-2841
▁aaya	-2842
▁atki	-2843
▁aunu	-2844
▁baji	-2845
▁balu	-2846
▁bhig	-2847
▁boju	-2848
▁call	-2849
▁dali	-2850
▁dhak	-2851
▁duno	-2852
▁ekli	-2853
▁fauj	-2854
▁gari	-2855
▁gaya	-2856
▁gila	-2857
▁hara	-2858
▁hone	-2859
▁ijak	-2860
▁indr	-2861
▁inte	-2862
▁jaam	-2863
▁jaat	-2864
▁jadi	-2865
▁jali	-2866
▁jaya	-2867
▁jaye	-2868
▁jhoo	-2869
▁jiti	-2870
▁juta	-2871
▁kaka	-2872
▁kare	-2873
▁khal	-2874
▁khud	-2875
▁kini	-2876
▁laak	-2877
▁leni	-2878
▁ligo	-2879
▁list	-2880
▁loha	-2881
▁loon	-2882
▁mait	-2883
▁mano	-2884
▁meru	-2885
▁moch	-2886
▁muft	-2887
▁naan	-2888
▁nare	-2889
▁nari	-2890
▁naul	-2891
▁neel	-2892
▁neev	-2893
▁nuks	-2894
▁ooni	-2895
▁pack	-2896
▁paij	-2897
▁panu	-2898
▁peep	-2899
▁piye	-2900
▁puji	-2901
▁pyai	-2902
▁ramu	-2903
▁side	-2904
▁suji	-2905
▁sust	-2906
▁taap	-2907
▁taki	-2908
▁tang	-2909
▁tent	-2910
▁thop	-2911
▁unme	-2912
▁utha	-2913
▁uthi	-2914
▁wani	-2915
aadilo	-2916
charge	-2917
ductor	-2918
ounder	-2919
wastha	-2920
▁aadha	-2921
▁aamak	-2922
▁aarti	-2923
▁aasan	-2924
▁aasis	-2925
▁baagh	-2926
▁baaki	-2927
▁bajai	-2928
▁basan	-2929
▁bhato	-2930
▁bigha	-2931
▁binti	-2932
▁biral	-2933
▁blood	-2934
▁chaal	-2935
▁chahe	-2936
▁check	-2937
▁cheta	-2938
▁chhal	-2939
▁chhar	-2940
▁chhed	-2941
▁daali	-2942
▁dabbo	-2943
▁daran	-2944
▁dhaal	-2945
▁dhare	-2946
▁dheer	-2947
▁dhilo	-2948
▁dhoya	-2949
▁dikhi	-2950
▁dinar	-2951
▁diunl	-2952
▁diwai	-2953
▁faati	-2954
▁gahat	-2955
▁ganda	-2956
▁gudak	-2957
▁halan	-2958
▁hansi	-2959
▁honak	-2960
▁hunan	-2961
▁ijjat	-2962
▁istem	-2963
▁jaber	-2964
▁jahan	-2965
▁jalai	-2966
▁janne	-2967
▁jawan	-2968
▁jutta	-2969
▁kaala	-2970
▁karao	-2971
▁karja	-2972
▁katan	-2973
▁khada	-2974
▁khawa	-2975
▁kholi	-2976
▁khuta	-2977
▁khwar	-2978
▁kripa	-2979
▁kunen	-2980
▁kweek	-2981
▁lambi	-2982
▁lekhi	-2983
▁lyaya	-2984
▁maafi	-2985
▁mahat	-2986
▁march	-2987
▁meter	-2988
▁naach	-2989
▁niyam	-2990
▁paaki	-2991
▁padch	-2992
▁panna	-2993
▁parat	-2994
▁petak	-2995
▁pinak	-2996
▁prati	-2997
▁puchh	-2998
▁rasoi	-2999
▁ratik	-3000
▁ratri	-3001
▁rayen	-3002
▁sabak	-3003
▁safar	-3004
▁sahab	-3005
▁sapat	-3006
▁sardi	-3007
▁sawal	-3008
▁swadi	-3009
▁taajo	-3010
▁taata	-3011
▁tarak	-3012
▁telak	-3013
▁thaan	-3014
▁thado	-3015
▁utari	-3016
▁uthai	-3017
▁uttar	-3018
▁yojna	-3019
▁aujaar	-3020
▁bachat	-3021
▁bahini	-3022
▁bataye	-3023
▁bharak	-3024
▁bhetan	-3025
▁bhutta	-3026
▁bulana	-3027
▁bulawa	-3028
▁burans	-3029
▁chaanl	-3030
▁chabhi	-3031
▁charai	-3032
▁churan	-3033
▁darana	-3034
▁darono	-3035
▁dekhun	-3036
▁design	-3037
▁dhonak	-3038
▁dikhai	-3039
▁dobara	-3040
▁duniya	-3041
▁dyakha	-3042
▁haalni	-3043
▁hybrid	-3044
▁jaalan	-3045
▁jeetan	-3046
▁kachra	-3047
▁karali	-3048
▁karawa	-3049
▁khetar	-3050
▁khojan	-3051
▁khujli	-3052
▁krishi	-3053
▁kumaon	-3054
▁langur	-3055
▁likhai	-3056
▁maanan	-3057
▁maduak	-3058
▁mainak	-3059
▁mangai	-3060
▁mannat	-3061
▁mehsus	-3062
▁mirach	-3063
▁najaro	-3064
▁nambar	-3065
▁nimbuk	-3066
▁paakal	-3067
▁pachan	-3068
▁pachhn	-3069
▁pachil	-3070
▁paisak	-3071
▁pakdan	-3072
▁phikar	-3073
▁pithor	-3074
▁rakhul	-3075
▁rasoik	-3076
▁saathi	-3077
▁sakano	-3078
▁sakchu	-3079
▁samjhi	-3080
▁sunano	-3081
▁udhaar	-3082
adhanush	-3083
▁abhyaas	-3084
▁andhyar	-3085
▁anubhav	-3086
▁aunchha	-3087
▁bachhan	-3088
▁bajarak	-3089
▁bajyang	-3090
▁banonch	-3091
▁batanak	-3092
▁chhatak	-3093
▁chhodan	-3094
▁daraati	-3095
▁daranti	-3096
▁dyakhan	-3097
▁gharelu	-3098
▁himmati	-3099
▁hunchhe	-3100
▁jagahar	-3101
▁jhangor	-3102
▁jurmana	-3103
▁katanak	-3104
▁katukak	-3105
▁khichan	-3106
▁khilawa	-3107
▁laagalo	-3108
▁laganak	-3109
▁laganan	-3110
▁loudspe	-3111
▁manager	-3112
▁mangano	-3113
▁mushkil	-3114
▁nirbhar	-3115
▁rakhanu	-3116
▁sakanan	-3117
▁sakchhi	-3118
▁samajhi	-3119
▁sochanu	-3120
▁station	-3121
▁tabiyat	-3122
▁tareekh	-3123
▁tractor	-3124
▁tyoharo	-3125
▁baithanu	-3126
▁bhagwaan	-3127
▁chaukhat	-3128
▁companyk	-3129
▁dinchhan	-3130
▁khaaskar	-3131
▁naninpan	-3132
▁panchami	-3133
▁patharak	-3134
▁rakhwali	-3135
▁recharge	-3136
▁swaadilo	-3137
▁byawastha	-3138
▁chhodiber	-3139
▁conductor	-3140
▁karyakram	-3141
▁plasticak	-3142
▁saavdhaan	-3143
▁compounder	-3144
▁shubhkamna	-3145
▁loudspeaker	-3146
▁indradhanush	-3147
ci	-3148
co	-3149
hr	-3150
jo	-3151
ly	-3152
ss	-3153
tu	-3154
yc	-3155
ach	-3156
aki	-3157
bab	-3158
ban	-3159
bas	-3160
cto	-3161
dul	-3162
eef	-3163
eer	-3164
eev	-3165
iti	-3166
jai	-3167
jhi	-3168
kti	-3169
kur	-3170
lar	-3171
lau	-3172
lav	-3173
lhi	-3174
lsi	-3175
mal	-3176
may	-3177
oot	-3178
pha	-3179
pun	-3180
sam	-3181
sav	-3182
tal	-3183
tel	-3184
ube	-3185
vas	-3186
vit	-3187
yek	-3188
yog	-3189
▁af	-3190
▁lh	-3191
ance	-3192
arth	-3193
daar	-3194
date	-3195
erak	-3196
ffin	-3197
gaad	-3198
giya	-3199
huli	-3200
ital	-3201
iyak	-3202
janu	-3203
kali	-3204
liya	-3205
liye	-3206
ooli	-3207
pann	-3208
rati	-3209
riya	-3210
roup	-3211
shin	-3212
shir	-3213
sion	-3214
taur	-3215
uhik	-3216
urse	-3217
wala	-3218
word	-3219
yalo	-3220
ycle	-3221
yete	-3222
yunk	-3223
▁aya	-3224
▁ayu	-3225
▁bwa	-3226
▁dhe	-3227
▁dud	-3228
▁dwe	-3229
▁gaj	-3230
▁gat	-3231
▁ghi	-3232
▁gus	-3233
▁had	-3234
▁hey	-3235
▁isi	-3236
▁jaj	-3237
▁jya	-3238
▁ken	-3239
▁kon	-3240
▁las	-3241
▁lok	-3242
▁lot	-3243
▁lut	-3244
▁may	-3245
▁mor	-3246
▁nus	-3247
▁nya	-3248
▁pap	-3249
▁pot	-3250
▁pud	-3251
▁saj	-3252
▁sat	-3253
▁sel	-3254
▁set	-3255
▁sil	-3256
▁sin	-3257
▁som	-3258
▁tik	-3259
▁tit	-3260
▁tor	-3261
▁uth	-3262
▁uun	-3263
▁vol	-3264
▁wah	-3265
▁wei	-3266
aamak	-3267
aasta	-3268
aghar	-3269
akhan	-3270
board	-3271
hadur	-3272
hanat	-3273
haran	-3274
manak	-3275
neeti	-3276
paksh	-3277
ranti	-3278
utube	-3279
▁aato	-3280
▁aein	-3281
▁apna	-3282
▁asam	-3283
▁ayun	-3284
▁baaj	-3285
▁bars	-3286
▁book	-3287
▁busy	-3288
▁chyo	-3289
▁daak	-3290
▁data	-3291
▁dhad	-3292
▁dhil	-3293
▁dhoo	-3294
▁ekai	-3295
▁eklo	-3296
▁feri	-3297
▁geli	-3298
▁ghau	-3299
▁ghut	-3300
▁gulo	-3301
▁hall	-3302
▁hand	-3303
▁hilo	-3304
▁hyuk	-3305
▁isma	-3306
▁jadu	-3307
▁jate	-3308
▁kaas	-3309
▁kail	-3310
▁kaki	-3311
▁kale	-3312
▁karo	-3313
▁khit	-3314
▁khur	-3315
▁kola	-3316
▁ladi	-3317
▁laki	-3318
▁lenu	-3319
▁lhyo	-3320
▁lino	-3321
▁luki	-3322
▁lyun	-3323
▁maha	-3324
▁maun	-3325
▁mota	-3326
▁moti	-3327
▁naur	-3328
▁naya	-3329
▁octo	-3330
▁pach	-3331
▁padh	-3332
▁phai	-3333
▁phut	-3334
▁pigh	-3335
▁prad	-3336
▁puch	-3337
▁pudi	-3338
▁puni	-3339
▁purk	-3340
▁rail	-3341
▁ranu	-3342
▁rayu	-3343
▁reti	-3344
▁saap	-3345
▁saja	-3346
▁saun	-3347
▁seen	-3348
▁sidi	-3349
▁suki	-3350
▁sumo	-3351
▁syal	-3352
▁tali	-3353
▁team	-3354
▁thun	-3355
▁topi	-3356
▁udan	-3357
▁ulti	-3358
▁umen	-3359
▁unma	-3360
▁upay	-3361
▁utar	-3362
▁waah	-3363
▁weak	-3364
▁week	-3365
▁yesi	-3366
areekh	-3367
haniya	-3368
hirwad	-3369
paatak	-3370
pasand	-3371
shthan	-3372
▁aadak	-3373
▁aagak	-3374
▁aapuk	-3375
▁afsar	-3376
▁andaj	-3377
▁aunak	-3378
▁baali	-3379
▁babak	-3380
▁barat	-3381
▁bardi	-3382
▁batan	-3383
▁becha	-3384
▁bhand	-3385
▁bhavi	-3386
▁bhuni	-3387
▁bidhi	-3388
▁bisri	-3389
▁board	-3390
▁bokal	-3391
▁boond	-3392
▁botal	-3393
▁brush	-3394
▁bubuk	-3395
▁chabi	-3396
▁chalu	-3397
▁chara	-3398
▁charg	-3399
▁chhee	-3400
▁chuti	-3401
▁chyun	-3402
▁conne	-3403
▁dabai	-3404
▁danda	-3405
▁delhi	-3406
▁denak	-3407
▁didik	-3408
▁dosar	-3409
▁dyali	-3410
▁gawak	-3411
▁geyan	-3412
▁geyon	-3413
▁gilas	-3414
▁glass	-3415
▁goond	-3416
▁group	-3417
▁gudai	-3418
▁gupat	-3419
▁gyein	-3420
▁hajar	-3421
▁hotel	-3422
▁hunak	-3423
▁jaagi	-3424
▁janen	-3425
▁jodai	-3426
▁kadak	-3427
▁kahna	-3428
▁kamar	-3429
▁kamij	-3430
▁kamre	-3431
▁karol	-3432
▁kasik	-3433
▁katta	-3434
▁khane	-3435
▁khulo	-3436
▁kudal	-3437
▁kyari	-3438
▁lasan	-3439
▁lathi	-3440
▁lenak	-3441
▁lijan	-3442
▁liter	-3443
▁logan	-3444
▁lyana	-3445
▁lyola	-3446
▁madat	-3447
▁mahen	-3448
▁makan	-3449
▁matra	-3450
▁mehar	-3451
▁mirch	-3452
▁naali	-3453
▁naram	-3454
▁nauni	-3455
▁nidar	-3456
▁nurse	-3457
▁padha	-3458
▁pados	-3459
▁parme	-3460
▁parsi	-3461
▁parso	-3462
▁patak	-3463
▁patar	-3464
▁pavit	-3465
▁plate	-3466
▁power	-3467
▁pyaaj	-3468
▁raula	-3469
▁raunl	-3470
▁rojak	-3471
▁rokan	-3472
▁ropan	-3473
▁rukal	-3474
▁sadak	-3475
▁sakad	-3476
▁sakai	-3477
▁sakal	-3478
▁sakni	-3479
▁saknu	-3480
▁saral	-3481
▁suraj	-3482
▁syahi	-3483
▁syano	-3484
▁table	-3485
▁takak	-3486
▁tarah	-3487
▁todan	-3488
▁tukda	-3489
▁tulsi	-3490
▁tutal	-3491
▁uganu	-3492
▁unpar	-3493
▁utsav	-3494
▁waalo	-3495
▁walak	-3496
▁aashir	-3497
▁anhaar	-3498
▁aunchh	-3499
▁baadal	-3500
▁baatan	-3501
▁baaton	-3502
▁badlav	-3503
▁baghak	-3504
▁baghni	-3505
▁banano	-3506
▁banaya	-3507
▁bankak	-3508
▁batunl	-3509
▁bhasha	-3510
▁bhatoj	-3511
▁bhigai	-3512
▁bhulul	-3513
▁bishay	-3514
▁buloon	-3515
▁bwaari	-3516
▁chachi	-3517
▁chadhi	-3518
▁chahun	-3519
▁charge	-3520
▁chasma	-3521
▁chhaan	-3522
▁chhana	-3523
▁chorik	-3524
▁chunan	-3525
▁churai	-3526
▁chyete	-3527
▁dekhla	-3528
▁dekhnu	-3529
▁devtak	-3530
▁devtan	-3531
▁dharak	-3532
▁dharyo	-3533
▁dukhak	-3534
▁dukhan	-3535
▁dwarak	-3536
▁haalan	-3537
▁jajman	-3538
▁jalaun	-3539
▁jhooth	-3540
▁kaamar	-3541
▁kandak	-3542
▁karank	-3543
▁karchu	-3544
▁karnak	-3545
▁karuno	-3546
▁keemti	-3547
▁khaunl	-3548
▁khojnu	-3549
▁khutar	-3550
▁kismat	-3551
▁lagali	-3552
▁lekhan	-3553
▁lijaun	-3554
▁liyank	-3555
▁lyanan	-3556
▁lyeber	-3557
▁mahina	-3558
▁maidan	-3559
▁meetha	-3560
▁najdik	-3561
▁nuskha	-3562
▁pachas	-3563
▁padani	-3564
▁padhyo	-3565
▁padosi	-3566
▁painch	-3567
▁pathri	-3568
▁patwar	-3569
▁phalak	-3570
▁pinjra	-3571
▁polish	-3572
▁pyajak	-3573
▁rakhya	-3574
▁rangak	-3575
▁rishta	-3576
▁rukali	-3577
▁runchh	-3578
▁saaman	-3579
▁samiti	-3580
▁seelak	-3581
▁senani	-3582
▁shehar	-3583
▁singal	-3584
▁sochni	-3585
▁sochno	-3586
▁sukhal	-3587
▁sunanu	-3588
▁takkur	-3589
▁tareek	-3590
▁thudik	-3591
▁tiffin	-3592
▁tufaan	-3593
▁tumara	-3594
▁update	-3595
▁uthano	-3596
▁vichar	-3597
▁waalak	-3598
▁aamtaur	-3599
▁aankhak	-3600
▁bagalak	-3601
▁bahadur	-3602
▁bananan	-3603
▁bataiye	-3604
▁beechak	-3605
▁bhaanda	-3606
▁bharose	-3607
▁chabaya	-3608
▁chahini	-3609
▁chamach	-3610
▁chappal	-3611
▁cheejen	-3612
▁chhinan	-3613
▁chhutak	-3614
▁dheeraj	-3615
▁dikhani	-3616
▁dikhawa	-3617
▁dosarak	-3618
▁dukanak	-3619
▁ghaadak	-3620
▁ghanton	-3621
▁haathak	-3622
▁imtiaan	-3623
▁intejam	-3624
▁isiliye	-3625
▁janchhi	-3626
▁jankari	-3627
▁jodanak	-3628
▁kanchan	-3629
▁karchan	-3630
▁karchhu	-3631
▁khanchh	-3632
▁khatayi	-3633
▁khelnen	-3634
▁khidkik	-3635
▁khojano	-3636
▁kitabak	-3637
▁kunchan	-3638
▁lekhano	-3639
▁liyanak	-3640
▁lottery	-3641
▁machine	-3642
▁mahatva	-3643
▁mehanat	-3644
▁naashta	-3645
▁nikalun	-3646
▁october	-3647
▁pahuchi	-3648
▁paudhak	-3649
▁phutani	-3650
▁rakhchh	-3651
▁rangeen	-3652
▁sabyank	-3653
▁sanjeev	-3654
▁sankhya	-3655
▁sanskar	-3656
▁saryunk	-3657
▁shuruat	-3658
▁sunanak	-3659
▁tumhari	-3660
▁vichaar	-3661
▁youtube	-3662
▁asambhav	-3663
▁ashirwad	-3664
▁baandare	-3665
▁baithula	-3666
▁belyanak	-3667
▁bhandara	-3668
▁chammach	-3669
▁chholiya	-3670
▁dekhbhal	-3671
▁dikhanan	-3672
▁ekalasan	-3673
▁haalanak	-3674
▁helmetak	-3675
▁istemaal	-3676
▁jaanchho	-3677
▁janamdin	-3678
▁janwarak	-3679
▁kheliber	-3680
▁kunechan	-3681
▁laganchi	-3682
▁lohaghat	-3683
▁mausamak	-3684
▁padanchh	-3685
▁paidawar	-3686
▁pariksha	-3687
▁pariwaar	-3688
▁password	-3689
▁peepalak	-3690
▁rajneeti	-3691
▁ranchhan	-3692
▁saamanak	-3693
▁shararat	-3694
▁shuruwat	-3695
▁swargiya	-3696
▁taareekh	-3697
▁aitvaarak	-3698
▁anushthan	-3699
▁bageshwar	-3700
▁baithiber	-3701
▁chhipkali	-3702
▁chuttiyon	-3703
▁kahnachha	-3704
▁manpasand	-3705
▁naamkaran	-3706
▁pichhaura	-3707
▁prakritik	-3708
▁sankranti	-3709
▁surakshit	-3710
▁chahanchha	-3711
▁connection	-3712
▁ghantaghar	-3713
▁headmaster	-3714
▁naninpanar	-3715
▁paramparik	-3716
▁parmeshwar	-3717
▁pithoragar	-3718
af	-3719
av	-3720
br	-3721
ca	-3722
eb	-3723
gy	-3724
kt	-3725
mp	-3726
od	-3727
su	-3728
yl	-3729
aap	-3730
aga	-3731
arm	-3732
bau	-3733
bir	-3734
cni	-3735
dri	-3736
dui	-3737
dus	-3738
dwi	-3739
ebi	-3740
eki	-3741
fak	-3742
for	-3743
gek	-3744
ght	-3745
gle	-3746
gul	-3747
hei	-3748
hek	-3749
hra	-3750
hwa	-3751
jab	-3752
laf	-3753
lee	-3754
leg	-3755
mol	-3756
nas	-3757
nay	-3758
oda	-3759
osa	-3760
raw	-3761
rot	-3762
sla	-3763
tav	-3764
the	-3765
ton	-3766
uda	-3767
use	-3768
wja	-3769
yaa	-3770
yai	-3771
yee	-3772
yel	-3773
▁by	-3774
▁en	-3775
▁vl	-3776
adak	-3777
adik	-3778
ando	-3779
anik	-3780
asth	-3781
ator	-3782
bani	-3783
baut	-3784
bsit	-3785
chhe	-3786
chho	-3787
chit	-3788
cnic	-3789
dano	-3790
dhil	-3791
edar	-3792
ekha	-3793
elak	-3794
esan	-3795
gand	-3796
gari	-3797
goti	-3798
haal	-3799
hadi	-3800
hana	-3801
hank	-3802
heli	-3803
hiti	-3804
hura	-3805
hwal	-3806
ilak	-3807
joor	-3808
kaye	-3809
khar	-3810
kuch	-3811
lack	-3812
lanu	-3813
maag	-3814
mash	-3815
nana	-3816
nath	-3817
oonk	-3818
pair	-3819
pari	-3820
pati	-3821
peed	-3822
peen	-3823
port	-3824
raun	-3825
shar	-3826
syak	-3827
tage	-3828
thik	-3829
thul	-3830
ulet	-3831
unla	-3832
urak	-3833
uter	-3834
utik	-3835
vice	-3836
wder	-3837
yaan	-3838
yati	-3839
yein	-3840
yula	-3841
▁ani	-3842
▁ank	-3843
▁apu	-3844
▁aul	-3845
▁bik	-3846
▁cre	-3847
▁cup	-3848
▁daa	-3849
▁dap	-3850
▁dat	-3851
▁dig	-3852
▁ehs	-3853
▁fat	-3854
▁gam	-3855
▁gas	-3856
▁gen	-3857
▁gol	-3858
▁goo	-3859
▁haj	-3860
▁her	-3861
▁hid	-3862
▁hue	-3863
▁int	-3864
▁jin	-3865
▁kut	-3866
▁lal	-3867
▁lee	-3868
▁mod	-3869
▁nin	-3870
▁pab	-3871
▁paj	-3872
▁pis	-3873
▁pon	-3874
▁pri	-3875
▁pus	-3876
▁roo	-3877
▁rub	-3878
▁sav	-3879
▁sho	-3880
▁spe	-3881
▁sub	-3882
▁sud	-3883
▁syu	-3884
▁ten	-3885
▁udi	-3886
▁vik	-3887
▁vin	-3888
▁wee	-3889
▁yes	-3890
aanch	-3891
aatar	-3892
aawat	-3893
ading	-3894
agadi	-3895
aniya	-3896
athna	-3897
bakri	-3898
bhaat	-3899
bhyan	-3900
bsite	-3901
chano	-3902
chanu	-3903
cture	-3904
danda	-3905
dhire	-3906
eelak	-3907
eshak	-3908
hango	-3909
karik	-3910
leela	-3911
lergy	-3912
matra	-3913
nimak	-3914
nital	-3915
oonak	-3916
ooter	-3917
paath	-3918
panch	-3919
patti	-3920
ramak	-3921
ritya	-3922
shilo	-3923
shran	-3924
tinan	-3925
waala	-3926
wahak	-3927
yaali	-3928
yadan	-3929
▁aaja	-3930
▁aand	-3931
▁acha	-3932
▁adha	-3933
▁agal	-3934
▁ajib	-3935
▁alsi	-3936
▁arji	-3937
▁bahu	-3938
▁bhin	-3939
▁bira	-3940
▁buda	-3941
▁budh	-3942
▁buti	-3943
▁camp	-3944
▁chap	-3945
▁chow	-3946
▁chus	-3947
▁dalo	-3948
▁dana	-3949
▁dara	-3950
▁dasi	-3951
▁dast	-3952
▁dhwe	-3953
▁doli	-3954
▁dyek	-3955
▁fail	-3956
▁fasi	-3957
▁file	-3958
▁gang	-3959
▁ghur	-3960
▁ghus	-3961
▁haar	-3962
▁hanu	-3963
▁haro	-3964
▁hing	-3965
▁	-3966
a	-3967
h	-3968
i	-3969
n	-3970
k	-3971
e	-3972
r	-3973
l	-3974
u	-3975
o	-3976
t	-3977
b	-3978
m	-3979
d	-3980
c	-3981
s	-3982
y	-3983
p	-3984
g	-3985
j	-3986
.	-3987
w	-3988
,	-3989
?	-3990
f	-3991
v	-3992
-	-3993
'	-3994
!	-3995
0	-3996
