<unk>	0
<s>	0
</s>	0
ha	-0
▁b	-1
▁k	-2
an	-3
ch	-4
ar	-5
▁m	-6
aa	-7
▁ch	-8
▁p	-9
▁s	-10
▁t	-11
▁d	-12
▁l	-13
ak	-14
▁j	-15
un	-16
▁a	-17
hi	-18
▁g	-19
at	-20
ek	-21
▁n	-22
▁chha	-23
ad	-24
▁ha	-25
al	-26
ho	-27
yo	-28
▁bha	-29
ya	-30
he	-31
▁ma	-32
ur	-33
han	-34
▁r	-35
▁w	-36
ai	-37
▁kar	-38
▁ki	-39
er	-40
ag	-41
▁mi	-42
▁tu	-43
as	-44
ab	-45
aan	-46
in	-47
▁aa	-48
▁c	-49
▁bhal	-50
▁ni	-51
▁le	-52
▁h	-53
am	-54
li	-55
▁cha	-56
▁yo	-57
uk	-58
▁tum	-59
hu	-60
har	-61
▁ek	-62
▁bat	-63
ik	-64
▁aur	-65
ee	-66
aat	-67
▁ke	-68
▁lag	-69
▁we	-70
▁u	-71
▁ham	-72
▁ban	-73
▁bati	-74
▁chhe	-75
▁me	-76
▁par	-77
▁to	-78
di	-79
▁bad	-80
▁ho	-81
la	-82
▁hun	-83
ye	-84
ji	-85
▁hi	-86
▁di	-87
▁li	-88
▁bhi	-89
ti	-90
eke	-91
oo	-92
▁kha	-93
▁hao	-94
aal	-95
▁paan	-96
▁ap	-97
▁go	-98
▁na	-99
aam	-100
anch	-101
▁ko	-102
we	-103
ri	-104
yar	-105
▁pad	-106
▁kat	-107
ang	-108
▁ber	-109
▁liji	-110
▁hunch	-111
▁dek	-112
aj	-113
▁ge	-114
▁mer	-115
▁sab	-116
▁chhan	-117
aad	-118
ani	-119
▁hwe	-120
▁paani	-121
ul	-122
le	-123
▁din	-124
▁un	-125
▁meke	-126
ano	-127
▁sak	-128
ke	-129
▁ghar	-130
▁baat	-131
▁kaam	-132
▁bado	-133
▁sa	-134
it	-135
▁bho	-136
ni	-137
▁f	-138
ta	-139
▁jaan	-140
hai	-141
▁kari	-142
een	-143
ali	-144
yu	-145
aun	-146
anu	-147
wa	-148
▁kun	-149
▁myar	-150
ari	-151
▁the	-152
▁ya	-153
▁saa	-154
▁theek	-155
da	-156
▁ab	-157
▁chho	-158
▁chhi	-159
▁kas	-160
▁hamar	-161
▁pai	-162
us	-163
anak	-164
on	-165
▁chhu	-166
▁aaj	-167
▁de	-168
▁apun	-169
hul	-170
▁ba	-171
yun	-172
▁khe	-173
▁sun	-174
ki	-175
▁ka	-176
▁pa	-177
ne	-178
▁man	-179
▁rak	-180
chha	-181
▁pi	-182
▁tumar	-183
hat	-184
▁sw	-185
▁mil	-186
or	-187
yan	-188
▁koi	-189
th	-190
▁ku	-191
▁bi	-192
▁pur	-193
ana	-194
▁lya	-195
▁pe	-196
▁kam	-197
▁tak	-198
▁dya	-199
yal	-200
▁tho	-201
▁janch	-202
si	-203
lo	-204
sh	-205
hin	-206
▁jas	-207
▁hal	-208
▁apan	-209
▁pho	-210
▁aai	-211
▁jar	-212
▁bhot	-213
▁sha	-214
▁san	-215
▁wek	-216
ada	-217
▁pat	-218
ra	-219
dar	-220
▁hai	-221
hak	-222
▁ag	-223
ud	-224
▁ja	-225
▁bak	-226
▁bas	-227
aas	-228
▁katuk	-229
chan	-230
▁sang	-231
▁chain	-232
▁kara	-233
ber	-234
▁se	-235
▁ro	-236
mi	-237
▁thul	-238
▁karan	-239
▁jo	-240
▁kab	-241
agad	-242
▁bai	-243
▁sam	-244
▁ra	-245
no	-246
▁gha	-247
▁badi	-248
▁weke	-249
▁aun	-250
sa	-251
ma	-252
▁jaal	-253
▁gaun	-254
▁i	-255
aag	-256
▁dagad	-257
ja	-258
kar	-259
▁jal	-260
had	-261
ool	-262
▁y	-263
▁lagi	-264
▁baj	-265
▁tab	-266
▁khan	-267
war	-268
▁khu	-269
▁mat	-270
▁khet	-271
▁sween	-272
▁mak	-273
▁wal	-274
oon	-275
▁baad	-276
▁kuch	-277
▁dekhi	-278
cha	-279
▁sch	-280
▁bakhat	-281
▁tar	-282
▁school	-283
up	-284
▁padal	-285
▁jaso	-286
▁hol	-287
ut	-288
chi	-289
aali	-290
▁bar	-291
▁mera	-292
chh	-293
▁rai	-294
▁lijiye	-295
el	-296
aaj	-297
▁che	-298
▁jab	-299
▁lagan	-300
en	-301
es	-302
yak	-303
▁pak	-304
▁make	-305
▁hunchh	-306
▁lo	-307
▁har	-308
▁jada	-309
ukh	-310
▁as	-311
▁ga	-312
▁it	-313
▁diya	-314
▁jarur	-315
hur	-316
▁da	-317
▁unar	-318
▁jan	-319
▁khar	-320
na	-321
ath	-322
bha	-323
▁dik	-324
eet	-325
▁peh	-326
chhan	-327
▁phone	-328
hun	-329
▁pr	-330
▁dar	-331
▁lhi	-332
▁band	-333
se	-334
and	-335
▁si	-336
▁bhe	-337
▁jam	-338
aati	-339
▁chal	-340
▁mo	-341
▁bank	-342
▁saaf	-343
tar	-344
ter	-345
▁byo	-346
yi	-347
lab	-348
▁bhar	-349
▁matlab	-350
ala	-351
▁ta	-352
▁bait	-353
nu	-354
ati	-355
tak	-356
do	-357
are	-358
▁gar	-359
▁khi	-360
▁kath	-361
▁laag	-362
▁v	-363
dan	-364
▁lye	-365
▁agar	-366
▁saal	-367
▁chala	-368
▁meken	-369
▁jao	-370
▁'	-371
her	-372
yon	-373
▁jhai	-374
ol	-375
ank	-376
shi	-377
▁raat	-378
▁janchh	-379
adi	-380
ket	-381
▁dhar	-382
ir	-383
▁wa	-384
huru	-385
▁aab	-386
▁gaan	-387
▁meri	-388
▁unke	-389
▁shuru	-390
hano	-391
▁holi	-392
▁gye	-393
▁sar	-394
▁bhai	-395
▁paisa	-396
▁pehle	-397
▁kharab	-398
dh	-399
aadi	-400
▁bag	-401
▁bya	-402
▁naj	-403
▁chyal	-404
uno	-405
▁pu	-406
▁aar	-407
▁jag	-408
▁diyo	-409
▁mero	-410
te	-411
to	-412
▁aad	-413
▁log	-414
▁rup	-415
▁suk	-416
▁baan	-417
▁bhag	-418
um	-419
yad	-420
▁aal	-421
▁duk	-422
il	-423
ka	-424
▁bh	-425
▁nan	-426
▁dhan	-427
▁puro	-428
▁sabse	-429
ike	-430
▁jai	-431
▁paat	-432
▁walo	-433
▁paanik	-434
ui	-435
ran	-436
▁thodi	-437
▁shahar	-438
▁so	-439
▁abhi	-440
▁chan	-441
▁tuar	-442
kal	-443
kha	-444
▁al	-445
▁chi	-446
▁kap	-447
▁kho	-448
▁sakchha	-449
me	-450
▁ji	-451
▁ut	-452
▁dab	-453
▁dha	-454
▁kya	-455
▁sik	-456
▁bhol	-457
aala	-458
▁der	-459
▁chee	-460
wi	-461
hya	-462
hyu	-463
ing	-464
lai	-465
pan	-466
sha	-467
▁an	-468
▁huni	-469
▁jaun	-470
▁naun	-471
▁bhari	-472
▁kasike	-473
os	-474
ins	-475
▁ghan	-476
▁rakhi	-477
▁hunchha	-478
▁aw	-479
kari	-480
▁aami	-481
▁haal	-482
▁saab	-483
▁suni	-484
bar	-485
▁ti	-486
▁chin	-487
▁khai	-488
▁jaldi	-489
▁lagai	-490
▁mandi	-491
▁yahan	-492
aar	-493
dhi	-494
nak	-495
par	-496
▁mad	-497
▁karu	-498
▁jaali	-499
▁bhains	-500
▁dekhan	-501
▁shayad	-502
ot	-503
ina	-504
▁huno	-505
▁jhad	-506
▁jyun	-507
▁saag	-508
▁than	-509
▁lyo	-510
▁paas	-511
▁najik	-512
▁sanket	-513
ah	-514
lak	-515
▁maj	-516
▁ras	-517
▁naam	-518
▁cheej	-519
▁gaadi	-520
▁hamke	-521
mak	-522
▁are	-523
▁sau	-524
khaat	-525
▁aayo	-526
▁barkhaat	-527
ant	-528
▁uk	-529
▁dus	-530
anchh	-531
▁khel	-532
▁puri	-533
▁wali	-534
▁yaar	-535
▁kilai	-536
▁tumun	-537
▁mandir	-538
chu	-539
wai	-540
▁co	-541
▁su	-542
▁chae	-543
▁laga	-544
▁mili	-545
▁mukh	-546
▁khali	-547
▁dhanya	-548
khi	-549
anan	-550
▁dui	-551
▁chun	-552
▁dekh	-553
▁banai	-554
▁rakha	-555
▁vi	-556
▁lak	-557
▁pahad	-558
oor	-559
wal	-560
▁fir	-561
▁ghu	-562
▁ith	-563
▁pan	-564
▁ruk	-565
▁sanj	-566
▁chali	-567
▁jaano	-568
▁badiya	-569
st	-570
pas	-571
san	-572
▁bo	-573
▁aan	-574
▁nam	-575
▁pas	-576
▁hyun	-577
▁taat	-578
▁tumi	-579
▁halyo	-580
hen	-581
iya	-582
▁in	-583
arak	-584
▁bal	-585
▁bana	-586
▁jasi	-587
▁tara	-588
▁wele	-589
▁kapad	-590
▁khaan	-591
▁sakun	-592
ba	-593
de	-594
tor	-595
yat	-596
▁bu	-597
▁he	-598
chhu	-599
▁kai	-600
▁pha	-601
▁tyo	-602
▁bina	-603
▁tyar	-604
▁aaram	-605
▁rupya	-606
▁tyohar	-607
alo	-608
jli	-609
▁gi	-610
▁bhu	-611
▁bil	-612
▁bus	-613
▁dho	-614
▁char	-615
▁kaaj	-616
▁yaad	-617
▁padan	-618
▁dagadi	-619
▁jaruri	-620
▁sundar	-621
▁hunchhan	-622
las	-623
elle	-624
usam	-625
▁aso	-626
▁fas	-627
▁jee	-628
▁jho	-629
▁byal	-630
▁kabh	-631
▁pato	-632
▁raye	-633
▁sabb	-634
anchha	-635
▁garmi	-636
▁kunan	-637
▁maati	-638
▁sangi	-639
▁bandar	-640
et	-641
udh	-642
▁ak	-643
▁naa	-644
▁nee	-645
▁aani	-646
▁geyi	-647
▁hath	-648
▁pail	-649
▁sahi	-650
▁tume	-651
▁milan	-652
anchhan	-653
ard	-654
hani	-655
▁dev	-656
▁lik	-657
karan	-658
▁aelle	-659
▁jagah	-660
▁thodo	-661
▁karanu	-662
▁mausam	-663
bi	-664
▁dur	-665
▁hawa	-666
▁thor	-667
▁weki	-668
▁chhat	-669
▁dekha	-670
▁janchhan	-671
bh	-672
re	-673
ate	-674
ind	-675
kul	-676
▁be	-677
▁aag	-678
▁bab	-679
▁das	-680
▁hit	-681
▁kit	-682
▁lam	-683
▁ram	-684
▁tuk	-685
▁awaj	-686
▁bata	-687
▁banan	-688
▁bijli	-689
▁karno	-690
▁madad	-691
▁taraf	-692
▁wapas	-693
▁bilkul	-694
▁chinta	-695
▁jameen	-696
▁o	-697
wan	-698
▁aap	-699
▁lai	-700
▁tal	-701
▁honi	-702
▁jaad	-703
▁miki	-704
▁padi	-705
▁piya	-706
▁sach	-707
▁tuke	-708
▁wath	-709
▁cheth	-710
▁dekho	-711
▁fasal	-712
agi	-713
mar	-714
▁up	-715
esha	-716
▁kan	-717
▁kuk	-718
▁rau	-719
▁saf	-720
askar	-721
▁daan	-722
▁jama	-723
▁jara	-724
▁saam	-725
▁kitab	-726
▁gharak	-727
ed	-728
kil	-729
▁ija	-730
▁mus	-731
▁pir	-732
▁poo	-733
▁ran	-734
▁run	-735
▁kaat	-736
▁kati	-737
▁byaan	-738
▁ghaam	-739
▁karni	-740
▁lakad	-741
▁karano	-742
▁kikaran	-743
dik	-744
hir	-745
nan	-746
atar	-747
▁bun	-748
▁mit	-749
▁pee	-750
▁phe	-751
▁shu	-752
▁baas	-753
▁baje	-754
▁geet	-755
▁tayar	-756
▁dukaan	-757
▁hamesha	-758
mat	-759
▁ye	-760
char	-761
▁gad	-762
▁nik	-763
▁rit	-764
▁taa	-765
▁dyak	-766
▁jind	-767
▁nawa	-768
▁karul	-769
▁phool	-770
▁taato	-771
▁banoon	-772
▁lagani	-773
▁jindagi	-774
▁karanak	-775
pe	-776
dha	-777
▁ai	-778
▁la	-779
▁bul	-780
▁gor	-781
▁auno	-782
▁daal	-783
▁dang	-784
▁dudh	-785
▁dwar	-786
▁janu	-787
▁kasi	-788
▁kunu	-789
▁main	-790
▁pher	-791
▁badhai	-792
▁khabar	-793
▁mukhya	-794
▁sweenar	-795
▁chanchhu	-796
ck	-797
ika	-798
▁te	-799
dhan	-800
yunl	-801
▁byu	-802
▁den	-803
▁fai	-804
▁gal	-805
▁his	-806
▁nai	-807
▁pin	-808
▁tel	-809
▁tha	-810
▁aank	-811
▁alag	-812
▁chet	-813
▁dinu	-814
▁kaan	-815
▁maas	-816
▁teen	-817
▁dabal	-818
▁dawai	-819
▁katek	-820
▁shubh	-821
▁jaanch	-822
fi	-823
wo	-824
boo	-825
lik	-826
alak	-827
▁aao	-828
▁bur	-829
▁jad	-830
▁tai	-831
umber	-832
▁ghyu	-833
▁jang	-834
▁jani	-835
▁liyo	-836
▁tuti	-837
▁paanch	-838
▁padali	-839
▁pathar	-840
▁sabbai	-841
▁sambha	-842
ce	-843
kat	-844
pat	-845
ajyu	-846
▁doo	-847
▁jor	-848
▁sad	-849
▁bagh	-850
▁khut	-851
▁kilo	-852
▁nawo	-853
▁baith	-854
▁chhyu	-855
▁photo	-856
▁khaano	-857
▁khanak	-858
▁dhanyav	-859
▁janchha	-860
▁namaskar	-861
uli	-862
▁do	-863
bhag	-864
▁bee	-865
▁dos	-866
▁dwi	-867
▁jha	-868
▁pun	-869
▁aano	-870
▁baar	-871
▁bhet	-872
▁mang	-873
▁mani	-874
▁noon	-875
▁pura	-876
▁wala	-877
▁bajar	-878
▁karun	-879
▁kukur	-880
▁puran	-881
▁dangar	-882
▁number	-883
▁pasand	-884
▁rakhan	-885
▁laganchha	-886
so	-887
rid	-888
▁re	-889
wari	-890
▁for	-891
▁kud	-892
▁lek	-893
▁aapn	-894
▁bhan	-895
▁card	-896
▁ghas	-897
▁kile	-898
▁nawi	-899
▁pari	-900
▁waal	-901
▁aakhi	-902
▁bhyan	-903
▁dajyu	-904
▁jaala	-905
▁nikal	-906
▁rakho	-907
▁tumke	-908
aak	-909
dam	-910
tam	-911
tir	-912
ctor	-913
haar	-914
▁ang	-915
▁ben	-916
▁dil	-917
▁jyu	-918
▁sur	-919
▁chit	-920
▁ituk	-921
▁jald	-922
chchha	-923
▁aunch	-924
▁bahar	-925
▁haath	-926
▁khaas	-927
▁mahin	-928
▁mohan	-929
▁pares	-930
▁wahan	-931
▁baitha	-932
▁laguno	-933
▁maasab	-934
▁sambhali	-935
jak	-936
jan	-937
lan	-938
tik	-939
▁ri	-940
▁st	-941
▁dyo	-942
▁him	-943
▁pal	-944
▁see	-945
▁she	-946
▁uke	-947
▁bani	-948
▁chut	-949
▁geyo	-950
▁ghum	-951
▁hari	-952
▁khid	-953
▁kono	-954
▁paar	-955
▁reet	-956
▁dhari	-957
▁gaanv	-958
▁khano	-959
▁pacha	-960
▁pheri	-961
▁sanch	-962
▁chhiyo	-963
▁dikkat	-964
▁kabhai	-965
▁	-966
a	-967
h	-968
i	-969
n	-970
k	-971
e	-972
r	-973
l	-974
u	-975
o	-976
t	-977
b	-978
m	-979
d	-980
c	-981
s	-982
y	-983
p	-984
g	-985
j	-986
.	-987
w	-988
,	-989
?	-990
f	-991
v	-992
-	-993
'	-994
!	-995
0	-996
