<unk>	0
<s>	0
</s>	0
ha	-0
▁b	-1
▁k	-2
an	-3
ch	-4
ar	-5
▁m	-6
aa	-7
▁ch	-8
▁p	-9
▁s	-10
▁t	-11
▁d	-12
▁l	-13
ak	-14
▁j	-15
un	-16
▁a	-17
hi	-18
▁g	-19
at	-20
ek	-21
▁n	-22
▁chha	-23
ad	-24
▁ha	-25
al	-26
ho	-27
yo	-28
▁bha	-29
ya	-30
he	-31
▁ma	-32
ur	-33
han	-34
▁r	-35
▁w	-36
ai	-37
▁kar	-38
▁ki	-39
er	-40
ag	-41
▁mi	-42
▁tu	-43
as	-44
ab	-45
aan	-46
in	-47
▁aa	-48
▁c	-49
▁bhal	-50
▁ni	-51
▁le	-52
▁h	-53
am	-54
li	-55
▁cha	-56
▁yo	-57
uk	-58
▁tum	-59
hu	-60
har	-61
▁ek	-62
▁bat	-63
ik	-64
▁aur	-65
ee	-66
aat	-67
▁ke	-68
▁lag	-69
▁we	-70
▁u	-71
▁ham	-72
▁ban	-73
▁bati	-74
▁chhe	-75
▁me	-76
▁par	-77
▁to	-78
di	-79
▁bad	-80
▁ho	-81
la	-82
▁hun	-83
ye	-84
ji	-85
▁hi	-86
▁di	-87
▁li	-88
▁bhi	-89
ti	-90
eke	-91
oo	-92
▁kha	-93
▁hao	-94
aal	-95
▁paan	-96
▁ap	-97
▁go	-98
▁na	-99
aam	-100
anch	-101
▁ko	-102
we	-103
ri	-104
yar	-105
▁pad	-106
▁kat	-107
ang	-108
▁ber	-109
▁liji	-110
▁hunch	-111
▁dek	-112
aj	-113
▁ge	-114
▁mer	-115
▁sab	-116
▁chhan	-117
aad	-118
ani	-119
▁hwe	-120
▁paani	-121
ul	-122
le	-123
▁din	-124
▁un	-125
▁meke	-126
ano	-127
▁sak	-128
ke	-129
▁ghar	-130
▁baat	-131
▁kaam	-132
▁bado	-133
▁sa	-134
it	-135
▁bho	-136
ni	-137
▁f	-138
ta	-139
▁jaan	-140
hai	-141
▁kari	-142
een	-143
ali	-144
yu	-145
aun	-146
anu	-147
wa	-148
▁kun	-149
▁myar	-150
ari	-151
▁the	-152
▁ya	-153
▁saa	-154
▁theek	-155
da	-156
▁ab	-157
▁chho	-158
▁chhi	-159
▁kas	-160
▁hamar	-161
▁pai	-162
us	-163
anak	-164
on	-165
▁chhu	-166
▁aaj	-167
▁de	-168
▁apun	-169
hul	-170
▁ba	-171
yun	-172
▁khe	-173
▁sun	-174
ki	-175
▁ka	-176
▁pa	-177
ne	-178
▁man	-179
▁rak	-180
chha	-181
▁pi	-182
▁tumar	-183
hat	-184
▁sw	-185
▁mil	-186
or	-187
yan	-188
▁koi	-189
th	-190
▁ku	-191
▁bi	-192
▁pur	-193
ana	-194
▁lya	-195
▁pe	-196
▁kam	-197
▁tak	-198
▁dya	-199
yal	-200
▁tho	-201
▁janch	-202
si	-203
lo	-204
sh	-205
hin	-206
▁jas	-207
▁hal	-208
▁apan	-209
▁pho	-210
▁aai	-211
▁jar	-212
▁bhot	-213
▁sha	-214
▁san	-215
▁wek	-216
ada	-217
▁pat	-218
ra	-219
dar	-220
▁hai	-221
hak	-222
▁ag	-223
ud	-224
▁ja	-225
▁bak	-226
▁bas	-227
aas	-228
▁katuk	-229
chan	-230
▁sang	-231
▁chain	-232
▁kara	-233
ber	-234
▁se	-235
▁ro	-236
mi	-237
▁thul	-238
▁karan	-239
▁jo	-240
▁kab	-241
agad	-242
▁bai	-243
▁sam	-244
▁ra	-245
no	-246
▁gha	-247
▁badi	-248
▁weke	-249
▁aun	-250
sa	-251
ma	-252
▁jaal	-253
▁gaun	-254
▁i	-255
aag	-256
▁dagad	-257
ja	-258
kar	-259
▁jal	-260
had	-261
ool	-262
▁y	-263
▁lagi	-264
▁baj	-265
▁tab	-266
▁khan	-267
war	-268
▁khu	-269
▁mat	-270
▁khet	-271
▁sween	-272
▁mak	-273
▁wal	-274
oon	-275
▁baad	-276
▁kuch	-277
▁dekhi	-278
cha	-279
▁sch	-280
▁bakhat	-281
▁tar	-282
▁school	-283
up	-284
▁padal	-285
▁jaso	-286
▁hol	-287
ut	-288
chi	-289
aali	-290
▁bar	-291
▁mera	-292
chh	-293
▁rai	-294
▁lijiye	-295
el	-296
aaj	-297
▁che	-298
▁jab	-299
▁lagan	-300
en	-301
es	-302
yak	-303
▁pak	-304
▁make	-305
▁hunchh	-306
▁lo	-307
▁har	-308
▁jada	-309
ukh	-310
▁as	-311
▁ga	-312
▁it	-313
▁diya	-314
▁jarur	-315
hur	-316
▁da	-317
▁unar	-318
▁jan	-319
▁khar	-320
na	-321
ath	-322
bha	-323
▁dik	-324
eet	-325
▁peh	-326
chhan	-327
▁phone	-328
hun	-329
▁pr	-330
▁dar	-331
▁lhi	-332
▁band	-333
se	-334
and	-335
▁si	-336
▁bhe	-337
▁jam	-338
aati	-339
▁chal	-340
▁mo	-341
▁bank	-342
▁saaf	-343
tar	-344
ter	-345
▁byo	-346
yi	-347
lab	-348
▁bhar	-349
▁matlab	-350
ala	-351
▁ta	-352
▁bait	-353
nu	-354
ati	-355
tak	-356
do	-357
are	-358
▁gar	-359
▁khi	-360
▁kath	-361
▁laag	-362
▁v	-363
dan	-364
▁lye	-365
▁agar	-366
▁saal	-367
▁chala	-368
▁meken	-369
▁jao	-370
▁'	-371
her	-372
yon	-373
▁jhai	-374
ol	-375
ank	-376
shi	-377
▁raat	-378
▁janchh	-379
adi	-380
ket	-381
▁dhar	-382
ir	-383
▁wa	-384
huru	-385
▁aab	-386
▁gaan	-387
▁meri	-388
▁unke	-389
▁shuru	-390
hano	-391
▁holi	-392
▁gye	-393
▁sar	-394
▁bhai	-395
▁paisa	-396
▁pehle	-397
▁kharab	-398
dh	-399
aadi	-400
▁bag	-401
▁bya	-402
▁naj	-403
▁chyal	-404
uno	-405
▁pu	-406
▁aar	-407
▁jag	-408
▁diyo	-409
▁mero	-410
te	-411
to	-412
▁aad	-413
▁log	-414
▁rup	-415
▁suk	-416
▁baan	-417
▁bhag	-418
um	-419
yad	-420
▁aal	-421
▁duk	-422
il	-423
ka	-424
▁bh	-425
▁nan	-426
▁dhan	-427
▁puro	-428
▁sabse	-429
ike	-430
▁jai	-431
▁paat	-432
▁walo	-433
▁paanik	-434
ui	-435
ran	-436
▁thodi	-437
▁shahar	-438
▁so	-439
▁abhi	-440
▁chan	-441
▁tuar	-442
kal	-443
kha	-444
▁al	-445
▁chi	-446
▁kap	-447
▁kho	-448
▁sakchha	-449
me	-450
▁ji	-451
▁ut	-452
▁dab	-453
▁dha	-454
▁kya	-455
▁sik	-456
▁bhol	-457
aala	-458
▁der	-459
▁chee	-460
wi	-461
hya	-462
hyu	-463
ing	-464
lai	-465
pan	-466
sha	-467
▁an	-468
▁huni	-469
▁jaun	-470
▁naun	-471
▁bhari	-472
▁kasike	-473
os	-474
ins	-475
▁ghan	-476
▁rakhi	-477
▁hunchha	-478
▁aw	-479
kari	-480
▁aami	-481
▁haal	-482
▁saab	-483
▁suni	-484
bar	-485
▁ti	-486
▁chin	-487
▁khai	-488
▁jaldi	-489
▁lagai	-490
▁mandi	-491
▁yahan	-492
aar	-493
dhi	-494
nak	-495
par	-496
▁mad	-497
▁karu	-498
▁jaali	-499
▁bhains	-500
▁dekhan	-501
▁shayad	-502
ot	-503
ina	-504
▁huno	-505
▁jhad	-506
▁jyun	-507
▁saag	-508
▁than	-509
▁lyo	-510
▁paas	-511
▁najik	-512
▁sanket	-513
ah	-514
lak	-515
▁maj	-516
▁ras	-517
▁naam	-518
▁cheej	-519
▁gaadi	-520
▁hamke	-521
mak	-522
▁are	-523
▁sau	-524
khaat	-525
▁aayo	-526
▁barkhaat	-527
ant	-528
▁uk	-529
▁dus	-530
anchh	-531
▁khel	-532
▁puri	-533
▁wali	-534
▁yaar	-535
▁kilai	-536
▁tumun	-537
▁mandir	-538
chu	-539
wai	-540
▁co	-541
▁su	-542
▁chae	-543
▁laga	-544
▁mili	-545
▁mukh	-546
▁khali	-547
▁dhanya	-548
khi	-549
anan	-550
▁dui	-551
▁chun	-552
▁dekh	-553
▁banai	-554
▁rakha	-555
▁vi	-556
▁lak	-557
▁pahad	-558
oor	-559
wal	-560
▁fir	-561
▁ghu	-562
▁ith	-563
▁pan	-564
▁ruk	-565
▁sanj	-566
▁chali	-567
▁jaano	-568
▁badiya	-569
st	-570
pas	-571
san	-572
▁bo	-573
▁aan	-574
▁nam	-575
▁pas	-576
▁hyun	-577
▁taat	-578
▁tumi	-579
▁halyo	-580
hen	-581
iya	-582
▁in	-583
arak	-584
▁bal	-585
▁bana	-586
▁jasi	-587
▁tara	-588
▁wele	-589
▁kapad	-590
▁khaan	-591
▁sakun	-592
ba	-593
de	-594
tor	-595
yat	-596
▁bu	-597
▁he	-598
chhu	-599
▁kai	-600
▁pha	-601
▁tyo	-602
▁bina	-603
▁tyar	-604
▁aaram	-605
▁rupya	-606
▁tyohar	-607
alo	-608
jli	-609
▁gi	-610
▁bhu	-611
▁bil	-612
▁bus	-613
▁dho	-614
▁char	-615
▁kaaj	-616
▁yaad	-617
▁padan	-618
▁dagadi	-619
▁jaruri	-620
▁sundar	-621
▁hunchhan	-622
las	-623
elle	-624
usam	-625
▁aso	-626
▁fas	-627
▁jee	-628
▁jho	-629
▁byal	-630
▁kabh	-631
▁pato	-632
▁raye	-633
▁sabb	-634
anchha	-635
▁garmi	-636
▁kunan	-637
▁maati	-638
▁sangi	-639
▁bandar	-640
et	-641
udh	-642
▁ak	-643
▁naa	-644
▁nee	-645
▁aani	-646
▁geyi	-647
▁hath	-648
▁pail	-649
▁sahi	-650
▁tume	-651
▁milan	-652
anchhan	-653
ard	-654
hani	-655
▁dev	-656
▁lik	-657
karan	-658
▁aelle	-659
▁jagah	-660
▁thodo	-661
▁karanu	-662
▁mausam	-663
bi	-664
▁dur	-665
▁hawa	-666
▁thor	-667
▁weki	-668
▁chhat	-669
▁dekha	-670
▁janchhan	-671
bh	-672
re	-673
ate	-674
ind	-675
kul	-676
▁be	-677
▁aag	-678
▁bab	-679
▁das	-680
▁hit	-681
▁kit	-682
▁lam	-683
▁ram	-684
▁tuk	-685
▁awaj	-686
▁bata	-687
▁banan	-688
▁bijli	-689
▁karno	-690
▁madad	-691
▁taraf	-692
▁wapas	-693
▁bilkul	-694
▁chinta	-695
▁jameen	-696
▁o	-697
wan	-698
▁aap	-699
▁lai	-700
▁tal	-701
▁honi	-702
▁jaad	-703
▁miki	-704
▁padi	-705
▁piya	-706
▁sach	-707
▁tuke	-708
▁wath	-709
▁cheth	-710
▁dekho	-711
▁fasal	-712
agi	-713
mar	-714
▁up	-715
esha	-716
▁kan	-717
▁kuk	-718
▁rau	-719
▁saf	-720
askar	-721
▁daan	-722
▁jama	-723
▁jara	-724
▁saam	-725
▁kitab	-726
▁gharak	-727
ed	-728
kil	-729
▁ija	-730
▁mus	-731
▁pir	-732
▁poo	-733
▁ran	-734
▁run	-735
▁kaat	-736
▁kati	-737
▁byaan	-738
▁ghaam	-739
▁karni	-740
▁lakad	-741
▁karano	-742
▁kikaran	-743
dik	-744
hir	-745
nan	-746
atar	-747
▁bun	-748
▁mit	-749
▁pee	-750
▁phe	-751
▁shu	-752
▁baas	-753
▁baje	-754
▁geet	-755
▁tayar	-756
▁dukaan	-757
▁hamesha	-758
mat	-759
▁ye	-760
char	-761
▁gad	-762
▁nik	-763
▁rit	-764
▁taa	-765
▁dyak	-766
▁jind	-767
▁nawa	-768
▁karul	-769
▁phool	-770
▁taato	-771
▁banoon	-772
▁lagani	-773
▁jindagi	-774
▁karanak	-775
pe	-776
dha	-777
▁ai	-778
▁la	-779
▁bul	-780
▁gor	-781
▁auno	-782
▁daal	-783
▁dang	-784
▁dudh	-785
▁dwar	-786
▁janu	-787
▁kasi	-788
▁kunu	-789
▁main	-790
▁pher	-791
▁badhai	-792
▁khabar	-793
▁mukhya	-794
▁sweenar	-795
▁chanchhu	-796
ck	-797
ika	-798
▁te	-799
dhan	-800
yunl	-801
▁byu	-802
▁den	-803
▁fai	-804
▁gal	-805
▁his	-806
▁nai	-807
▁pin	-808
▁tel	-809
▁tha	-810
▁aank	-811
▁alag	-812
▁chet	-813
▁dinu	-814
▁kaan	-815
▁maas	-816
▁teen	-817
▁dabal	-818
▁dawai	-819
▁katek	-820
▁shubh	-821
▁jaanch	-822
fi	-823
wo	-824
boo	-825
lik	-826
alak	-827
▁aao	-828
▁bur	-829
▁jad	-830
▁tai	-831
umber	-832
▁ghyu	-833
▁jang	-834
▁jani	-835
▁liyo	-836
▁tuti	-837
▁paanch	-838
▁padali	-839
▁pathar	-840
▁sabbai	-841
▁sambha	-842
ce	-843
kat	-844
pat	-845
ajyu	-846
▁doo	-847
▁jor	-848
▁sad	-849
▁bagh	-850
▁khut	-851
▁kilo	-852
▁nawo	-853
▁baith	-854
▁chhyu	-855
▁photo	-856
▁khaano	-857
▁khanak	-858
▁dhanyav	-859
▁janchha	-860
▁namaskar	-861
uli	-862
▁do	-863
bhag	-864
▁bee	-865
▁dos	-866
▁dwi	-867
▁jha	-868
▁pun	-869
▁aano	-870
▁baar	-871
▁bhet	-872
▁mang	-873
▁mani	-874
▁noon	-875
▁pura	-876
▁wala	-877
▁bajar	-878
▁karun	-879
▁kukur	-880
▁puran	-881
▁dangar	-882
▁number	-883
▁pasand	-884
▁rakhan	-885
▁laganchha	-886
so	-887
rid	-888
▁re	-889
wari	-890
▁for	-891
▁kud	-892
▁lek	-893
▁aapn	-894
▁bhan	-895
▁card	-896
▁ghas	-897
▁kile	-898
▁nawi	-899
▁pari	-900
▁waal	-901
▁aakhi	-902
▁bhyan	-903
▁dajyu	-904
▁jaala	-905
▁nikal	-906
▁rakho	-907
▁tumke	-908
aak	-909
dam	-910
tam	-911
tir	-912
ctor	-913
haar	-914
▁ang	-915
▁ben	-916
▁dil	-917
▁jyu	-918
▁sur	-919
▁chit	-920
▁ituk	-921
▁jald	-922
chchha	-923
▁aunch	-924
▁bahar	-925
▁haath	-926
▁khaas	-927
▁mahin	-928
▁mohan	-929
▁pares	-930
▁wahan	-931
▁baitha	-932
▁laguno	-933
▁maasab	-934
▁sambhali	-935
jak	-936
jan	-937
lan	-938
tik	-939
▁ri	-940
▁st	-941
▁dyo	-942
▁him	-943
▁pal	-944
▁see	-945
▁she	-946
▁uke	-947
▁bani	-948
▁chut	-949
▁geyo	-950
▁ghum	-951
▁hari	-952
▁khid	-953
▁kono	-954
▁paar	-955
▁reet	-956
▁dhari	-957
▁gaanv	-958
▁khano	-959
▁pacha	-960
▁pheri	-961
▁sanch	-962
▁chhiyo	-963
▁dikkat	-964
▁kabhai	-965
▁khushi	-966
▁mithai	-967
▁taiyar	-968
▁schoolak	-969
ge	-970
hn	-971
ata	-972
gar	-973
odi	-974
ula	-975
▁ad	-976
aani	-977
baad	-978
cket	-979
lass	-980
waar	-981
▁aas	-982
▁kak	-983
▁kau	-984
▁lin	-985
▁aali	-986
▁aama	-987
▁form	-988
▁keni	-989
▁maat	-990
▁nana	-991
▁rang	-992
▁agadi	-993
▁kheti	-994
▁laagi	-995
▁lagun	-996
▁baithi	-997
▁laganu	-998
▁tarika	-999
ash	-1000
ela	-1001
kan	-1002
ram	-1003
yuk	-1004
▁ug	-1005
anti	-1006
ikar	-1007
▁aam	-1008
▁hon	-1009
▁kis	-1010
▁lep	-1011
▁maa	-1012
▁nuk	-1013
▁rag	-1014
▁aang	-1015
▁chaa	-1016
▁geyu	-1017
▁maal	-1018
▁pata	-1019
▁phir	-1020
▁samj	-1021
▁badhi	-1022
▁jaana	-1023
▁khaad	-1024
▁paili	-1025
▁samaj	-1026
▁bajaar	-1027
▁ghanta	-1028
▁khetak	-1029
▁achchha	-1030
thi	-1031
▁dh	-1032
agun	-1033
▁bud	-1034
▁dul	-1035
▁gho	-1036
▁gya	-1037
▁paa	-1038
▁pet	-1039
▁raj	-1040
▁sut	-1041
shish	-1042
▁nano	-1043
▁peli	-1044
▁ritu	-1045
▁saan	-1046
▁unle	-1047
▁yeke	-1048
▁batai	-1049
▁bhuli	-1050
▁doodh	-1051
▁fikar	-1052
▁gaunk	-1053
▁thoda	-1054
▁aaraam	-1055
▁bhitar	-1056
▁chheli	-1057
▁dikhan	-1058
▁dyakhi	-1059
▁khatam	-1060
▁lagawa	-1061
▁milali	-1062
▁koshish	-1063
bu	-1064
go	-1065
pp	-1066
ua	-1067
ara	-1068
oni	-1069
sak	-1070
wor	-1071
▁po	-1072
▁sc	-1073
ayat	-1074
▁adh	-1075
▁bol	-1076
▁jat	-1077
▁kaa	-1078
▁roj	-1079
▁aaye	-1080
▁babu	-1081
▁chah	-1082
▁daud	-1083
▁dhun	-1084
▁diha	-1085
▁kamj	-1086
▁nati	-1087
▁raun	-1088
▁taal	-1089
▁awaaj	-1090
▁chhod	-1091
▁garam	-1092
▁kahin	-1093
▁karyo	-1094
▁khata	-1095
▁mathi	-1096
▁pakka	-1097
▁sakch	-1098
▁bachan	-1099
▁bhitir	-1100
▁janwar	-1101
▁jaroor	-1102
▁karana	-1103
▁khidki	-1104
▁majboo	-1105
▁muskil	-1106
▁ticket	-1107
▁sikayat	-1108
▁dhanyabaad	-1109
▁dhanyavaad	-1110
..	-1111
bo	-1112
gn	-1113
sar	-1114
tin	-1115
unl	-1116
▁um	-1117
adio	-1118
chak	-1119
lawa	-1120
mari	-1121
stri	-1122
umas	-1123
waal	-1124
wani	-1125
▁com	-1126
▁gud	-1127
▁jye	-1128
▁jyo	-1129
hanak	-1130
hyaan	-1131
▁agil	-1132
▁byok	-1133
▁hita	-1134
▁kaag	-1135
▁kuma	-1136
▁lhin	-1137
▁mele	-1138
▁sada	-1139
▁soch	-1140
▁suna	-1141
▁bakri	-1142
▁bheed	-1143
▁chhin	-1144
▁class	-1145
▁haldi	-1146
▁kasan	-1147
▁milal	-1148
▁radio	-1149
▁sakan	-1150
▁sukhi	-1151
▁sunan	-1152
▁aajkal	-1153
▁chhayi	-1154
▁dhyaan	-1155
▁bhagwan	-1156
▁gachhan	-1157
▁majboot	-1158
▁hunchhin	-1159
vi	-1160
dak	-1161
esh	-1162
hil	-1163
hyo	-1164
tic	-1165
▁at	-1166
jaar	-1167
▁aji	-1168
▁dak	-1169
▁gai	-1170
▁han	-1171
▁kee	-1172
▁kir	-1173
▁kri	-1174
▁tur	-1175
aatin	-1176
▁aana	-1177
▁baal	-1178
▁bare	-1179
▁gaad	-1180
▁gham	-1181
▁nani	-1182
▁plas	-1183
▁yaso	-1184
▁yath	-1185
▁badal	-1186
▁banar	-1187
▁bhali	-1188
▁bheji	-1189
▁dhaan	-1190
▁dhara	-1191
▁khush	-1192
▁pahun	-1193
▁sukha	-1194
▁aanchh	-1195
▁bhiter	-1196
▁chaini	-1197
▁ghanti	-1198
▁harela	-1199
▁kaagaj	-1200
▁kathin	-1201
▁raatak	-1202
▁hunchho	-1203
▁lagbhag	-1204
▁lagchha	-1205
▁sarkari	-1206
pa	-1207
ro	-1208
ub	-1209
▁e	-1210
sis	-1211
ver	-1212
▁dy	-1213
▁mu	-1214
▁ud	-1215
yala	-1216
▁lad	-1217
▁pit	-1218
▁unk	-1219
▁aunl	-1220
▁bhat	-1221
▁byan	-1222
▁cham	-1223
▁deni	-1224
▁dhul	-1225
▁didi	-1226
▁kami	-1227
▁lhen	-1228
▁meet	-1229
▁raal	-1230
▁shan	-1231
▁sing	-1232
▁upar	-1233
▁wema	-1234
naatin	-1235
▁bachh	-1236
▁chuna	-1237
▁dinch	-1238
▁dusar	-1239
▁ekdam	-1240
▁faida	-1241
▁ghaad	-1242
▁halla	-1243
▁hunal	-1244
▁jaunl	-1245
▁maang	-1246
▁milai	-1247
▁sakda	-1248
▁bananu	-1249
▁chahan	-1250
▁chalan	-1251
▁chutti	-1252
▁mankhi	-1253
▁mistri	-1254
▁nuksan	-1255
▁padano	-1256
▁thandi	-1257
▁thando	-1258
▁turant	-1259
▁kariber	-1260
▁pachadi	-1261
▁mandirak	-1262
gi	-1263
oi	-1264
asi	-1265
ato	-1266
bak	-1267
cho	-1268
ine	-1269
lme	-1270
ook	-1271
▁aj	-1272
▁ij	-1273
atak	-1274
chai	-1275
work	-1276
▁app	-1277
▁dee	-1278
▁gil	-1279
▁gut	-1280
▁haf	-1281
▁jod	-1282
▁mas	-1283
▁min	-1284
▁res	-1285
▁tej	-1286
▁yan	-1287
▁yek	-1288
▁chup	-1289
▁daaj	-1290
▁door	-1291
▁jyoo	-1292
▁kaal	-1293
▁kran	-1294
▁lyao	-1295
▁majo	-1296
▁mank	-1297
▁nayi	-1298
▁puna	-1299
▁puno	-1300
▁rukh	-1301
▁shar	-1302
▁batao	-1303
▁batul	-1304
▁bhagw	-1305
▁dukan	-1306
▁galat	-1307
▁helme	-1308
▁jhola	-1309
▁kamra	-1310
▁karal	-1311
▁karne	-1312
▁tukad	-1313
▁chhiya	-1314
▁himmat	-1315
▁khatar	-1316
▁padhai	-1317
▁pancha	-1318
▁sabyan	-1319
▁sheher	-1320
▁aakhiri	-1321
▁baandhi	-1322
▁chalano	-1323
▁dekhano	-1324
▁jarurat	-1325
▁karchha	-1326
▁plastic	-1327
lu	-1328
der	-1329
dhe	-1330
ent	-1331
tan	-1332
wer	-1333
▁ar	-1334
▁ly	-1335
▁ait	-1336
▁bek	-1337
▁bis	-1338
▁chu	-1339
▁dri	-1340
▁gau	-1341
▁jaw	-1342
▁kal	-1343
▁kur	-1344
▁kwe	-1345
▁mai	-1346
▁tam	-1347
adhan	-1348
ampar	-1349
ation	-1350
dwani	-1351
paani	-1352
yonak	-1353
▁auni	-1354
▁chak	-1355
▁chip	-1356
▁daam	-1357
▁dher	-1358
▁jaag	-1359
▁kani	-1360
▁khil	-1361
▁khoj	-1362
▁khul	-1363
▁kuno	-1364
▁laal	-1365
▁lago	-1366
▁lami	-1367
▁mela	-1368
▁milo	-1369
▁pank	-1370
▁phal	-1371
▁waan	-1372
anchhi	-1373
▁baari	-1374
▁beech	-1375
▁bunan	-1376
▁chidi	-1377
▁daaju	-1378
▁dabba	-1379
▁devta	-1380
▁dhyan	-1381
▁dinak	-1382
▁diwal	-1383
▁dyunl	-1384
▁goruk	-1385
▁lyunl	-1386
▁motor	-1387
▁padyo	-1388
▁pariv	-1389
▁sidhe	-1390
▁swaad	-1391
▁chhiyu	-1392
▁hitanu	-1393
▁jaunla	-1394
▁karala	-1395
▁lagano	-1396
▁sikhan	-1397
▁sochan	-1398
▁adhkari	-1399
▁chaumas	-1400
▁jaanchh	-1401
▁shaanti	-1402
▁haldwani	-1403
▁parampar	-1404
ok	-1405
pi	-1406
pu	-1407
va	-1408
dit	-1409
ekh	-1410
ffi	-1411
jal	-1412
man	-1413
mor	-1414
mti	-1415
pai	-1416
rak	-1417
ulo	-1418
van	-1419
was	-1420
▁jy	-1421
asya	-1422
ctar	-1423
hang	-1424
paat	-1425
reen	-1426
▁gae	-1427
▁gan	-1428
▁gun	-1429
▁lij	-1430
▁nar	-1431
▁shi	-1432
▁tan	-1433
ateek	-1434
yanak	-1435
▁aalu	-1436
▁bair	-1437
▁bhav	-1438
▁bhuk	-1439
▁chur	-1440
▁delo	-1441
▁diye	-1442
▁dyol	-1443
▁dyun	-1444
▁goru	-1445
▁ilak	-1446
▁jagg	-1447
▁jodi	-1448
▁kabi	-1449
▁kaso	-1450
▁lyon	-1451
▁rakh	-1452
▁runu	-1453
▁suti	-1454
▁tuta	-1455
▁umar	-1456
▁wehi	-1457
▁aankh	-1458
▁balad	-1459
▁balti	-1460
▁bimar	-1461
▁byanh	-1462
▁chaan	-1463
▁dulha	-1464
▁ghaas	-1465
▁haali	-1466
▁hafta	-1467
▁jaada	-1468
▁jaani	-1469
▁karai	-1470
▁khanu	-1471
▁najar	-1472
▁pehli	-1473
▁piran	-1474
▁safal	-1475
▁sanjh	-1476
▁takat	-1477
▁waali	-1478
▁banaye	-1479
▁chhanu	-1480
▁dactar	-1481
▁dihaal	-1482
▁jaanak	-1483
▁lagaya	-1484
▁maatik	-1485
▁ragada	-1486
▁screen	-1487
▁thanda	-1488
▁dikhano	-1489
▁kumaoni	-1490
▁mankhin	-1491
▁prateek	-1492
▁pareshani	-1493
ga	-1494
ko	-1495
eli	-1496
eri	-1497
ure	-1498
ush	-1499
▁fa	-1500
▁ju	-1501
▁ub	-1502
▁ul	-1503
agri	-1504
atin	-1505
bile	-1506
shna	-1507
ulak	-1508
wali	-1509
▁anu	-1510
▁hap	-1511
▁lat	-1512
▁mar	-1513
▁nal	-1514
▁net	-1515
▁nyo	-1516
▁sai	-1517
▁sim	-1518
▁tap	-1519
ffice	-1520
▁bhej	-1521
▁dukh	-1522
▁dusr	-1523
▁ithe	-1524
▁jeep	-1525
▁maar	-1526
▁mari	-1527
▁nawe	-1528
▁pair	-1529
▁puja	-1530
▁rain	-1531
▁saat	-1532
▁sign	-1533
▁todi	-1534
▁yahi	-1535
chanak	-1536
▁aadmi	-1537
▁baare	-1538
▁bhalu	-1539
▁chaar	-1540
▁chhut	-1541
▁dikat	-1542
▁gaank	-1543
▁hissa	-1544
▁jaiya	-1545
▁kapda	-1546
▁lagno	-1547
▁pakdi	-1548
▁pichh	-1549
▁raati	-1550
▁saari	-1551
▁tilik	-1552
▁waala	-1553
▁chhodi	-1554
▁jangal	-1555
▁kariya	-1556
▁manukh	-1557
▁mobile	-1558
▁neemak	-1559
▁office	-1560
▁padhan	-1561
▁pandit	-1562
▁sadani	-1563
▁sakana	-1564
▁ghoshna	-1565
▁network	-1566
▁sakanch	-1567
▁tarkari	-1568
▁karchhan	-1569
be	-1570
ff	-1571
aab	-1572
aav	-1573
hit	-1574
jar	-1575
net	-1576
ori	-1577
sma	-1578
uka	-1579
ura	-1580
waj	-1581
▁je	-1582
aada	-1583
asan	-1584
mora	-1585
onak	-1586
tery	-1587
unch	-1588
▁and	-1589
▁asi	-1590
▁baa	-1591
▁dai	-1592
▁kad	-1593
▁mek	-1594
▁mud	-1595
▁oon	-1596
▁pya	-1597
▁aala	-1598
▁anaj	-1599
▁asli	-1600
▁chot	-1601
▁dari	-1602
▁desi	-1603
▁jano	-1604
▁khas	-1605
▁pand	-1606
▁pass	-1607
▁paud	-1608
▁pich	-1609
▁sank	-1610
▁tank	-1611
▁time	-1612
▁yasi	-1613
ternet	-1614
▁aadho	-1615
▁angre	-1616
▁bachi	-1617
▁batti	-1618
▁chahi	-1619
▁cheli	-1620
▁chiyo	-1621
▁deepu	-1622
▁dhaki	-1623
▁gutuk	-1624
▁jawab	-1625
▁kaali	-1626
▁karch	-1627
▁khaya	-1628
▁lagal	-1629
▁lagch	-1630
▁phati	-1631
▁sacho	-1632
▁sagun	-1633
▁sarka	-1634
▁sochi	-1635
▁taaji	-1636
▁bharos	-1637
▁chithi	-1638
▁doctor	-1639
▁driver	-1640
▁helmet	-1641
▁jyaada	-1642
▁jyeber	-1643
▁likhan	-1644
▁nikali	-1645
▁paatak	-1646
▁sabban	-1647
▁sarkar	-1648
▁sawaal	-1649
▁shaant	-1650
▁shanti	-1651
▁signal	-1652
▁baandar	-1653
▁jaanchu	-1654
▁lagatar	-1655
▁najikak	-1656
▁padhano	-1657
▁parivar	-1658
▁puchhan	-1659
▁rakhiya	-1660
▁saanchi	-1661
▁aanchhan	-1662
▁internet	-1663
00	-1664
ht	-1665
bhi	-1666
dai	-1667
erv	-1668
gha	-1669
hut	-1670
ita	-1671
pur	-1672
▁on	-1673
atik	-1674
atra	-1675
baar	-1676
ikhe	-1677
sapp	-1678
▁atm	-1679
▁fil	-1680
▁hin	-1681
▁muk	-1682
▁mur	-1683
▁nim	-1684
▁nir	-1685
▁rok	-1686
▁sas	-1687
▁ule	-1688
▁asar	-1689
▁bhul	-1690
▁dada	-1691
▁dela	-1692
▁frid	-1693
▁hali	-1694
▁holo	-1695
▁jhag	-1696
▁kaad	-1697
▁kahi	-1698
▁kira	-1699
▁laun	-1700
▁lyan	-1701
▁maan	-1702
▁mana	-1703
▁mehn	-1704
▁nayo	-1705
▁paha	-1706
▁taar	-1707
▁what	-1708
▁yema	-1709
▁aanch	-1710
▁badha	-1711
▁badon	-1712
▁banoi	-1713
▁bhaat	-1714
▁bhale	-1715
▁bhyal	-1716
▁bhyar	-1717
▁bwari	-1718
▁dilli	-1719
▁dinan	-1720
▁gagri	-1721
▁gichi	-1722
▁khani	-1723
▁kosis	-1724
▁layak	-1725
▁manin	-1726
▁pachh	-1727
▁pooja	-1728
▁rahan	-1729
▁safed	-1730
▁surak	-1731
▁tanki	-1732
▁thaki	-1733
▁tower	-1734
▁uthan	-1735
▁almora	-1736
▁bachai	-1737
▁basant	-1738
▁bechan	-1739
▁bimari	-1740
▁compan	-1741
▁gharar	-1742
▁janjal	-1743
▁jhadak	-1744
▁kaatan	-1745
▁pakaan	-1746
▁raunak	-1747
▁reserv	-1748
▁sungar	-1749
▁tumhar	-1750
▁aadhaar	-1751
▁baithan	-1752
▁chyalak	-1753
▁pardhan	-1754
▁ranikhe	-1755
▁samasya	-1756
▁pareshan	-1757
▁tyoharak	-1758
▁whatsapp	-1759
▁khatarnak	-1760
▁parampara	-1761
▁barkhaatak	-1762
hs	-1763
ku	-1764
ll	-1765
mo	-1766
bat	-1767
bho	-1768
buk	-1769
dal	-1770
des	-1771
eed	-1772
ees	-1773
gun	-1774
hik	-1775
kab	-1776
kri	-1777
mid	-1778
ono	-1779
pak	-1780
rat	-1781
tha	-1782
uri	-1783
wak	-1784
▁gu	-1785
amak	-1786
amal	-1787
bhal	-1788
chhi	-1789
eend	-1790
khat	-1791
thar	-1792
ukri	-1793
vaar	-1794
▁aat	-1795
▁bel	-1796
▁bir	-1797
▁con	-1798
▁dhi	-1799
▁eko	-1800
▁gyo	-1801
▁has	-1802
▁hat	-1803
▁ist	-1804
▁jut	-1805
▁len	-1806
▁mee	-1807
▁mun	-1808
▁nak	-1809
▁phi	-1810
▁rao	-1811
▁sal	-1812
▁tut	-1813
▁yoi	-1814
echan	-1815
▁adda	-1816
▁aiya	-1817
▁baki	-1818
▁buri	-1819
▁denu	-1820
▁dyul	-1821
▁ghug	-1822
▁goli	-1823
▁hame	-1824
▁honu	-1825
▁jeet	-1826
▁kehn	-1827
▁khol	-1828
▁naak	-1829
▁need	-1830
▁paal	-1831
▁pahu	-1832
▁pisi	-1833
▁ruka	-1834
▁ruki	-1835
▁saas	-1836
▁sabi	-1837
▁sans	-1838
▁seat	-1839
▁thai	-1840
▁thak	-1841
▁vide	-1842
midwar	-1843
riddhi	-1844
▁aksar	-1845
▁bagan	-1846
▁bajyu	-1847
▁bekar	-1848
▁bhoot	-1849
▁byoli	-1850
▁chaba	-1851
▁chauk	-1852
▁chhya	-1853
▁chodi	-1854
▁ghant	-1855
▁haala	-1856
▁jodan	-1857
▁kabhi	-1858
▁karna	-1859
▁karya	-1860
▁khayo	-1861
▁khuli	-1862
▁laago	-1863
▁ladai	-1864
▁lagyo	-1865
▁logon	-1866
▁lyaan	-1867
▁mauka	-1868
▁natin	-1869
▁neend	-1870
▁rassi	-1871
▁rituk	-1872
▁riwaj	-1873
▁saman	-1874
▁sikha	-1875
▁singh	-1876
▁taalo	-1877
▁tabai	-1878
▁aakhir	-1879
▁baatak	-1880
▁daktar	-1881
▁gadher	-1882
▁hajaar	-1883
▁jaagar	-1884
▁kamjor	-1885
▁karula	-1886
▁kathak	-1887
▁khelan	-1888
▁laagal	-1889
▁lagana	-1890
▁meethi	-1891
▁naukri	-1892
▁pakodi	-1893
▁rupyak	-1894
▁saamne	-1895
▁samajh	-1896
▁sandes	-1897
▁sawari	-1898
▁sukhan	-1899
▁baithak	-1900
▁chahano	-1901
▁chandan	-1902
▁company	-1903
▁dinchan	-1904
▁istamal	-1905
▁kamjori	-1906
▁manchhi	-1907
▁pahadak	-1908
▁pichhne	-1909
▁shahare	-1910
▁ranikhet	-1911
▁ummidwar	-1912
▁bhagwanak	-1913
▁panchayat	-1914
ans	-1915
fal	-1916
hna	-1917
ore	-1918
ote	-1919
rit	-1920
uni	-1921
wat	-1922
▁et	-1923
▁kh	-1924
▁ru	-1925
▁sy	-1926
▁yi	-1927
bhav	-1928
book	-1929
heer	-1930
lock	-1931
ooni	-1932
unak	-1933
yari	-1934
▁aak	-1935
▁aps	-1936
▁dal	-1937
▁fau	-1938
▁gup	-1939
▁jik	-1940
▁kin	-1941
▁luk	-1942
▁pag	-1943
▁ped	-1944
▁pra	-1945
▁ses	-1946
▁tin	-1947
bhaag	-1948
chaar	-1949
▁aane	-1950
▁apni	-1951
▁bada	-1952
▁bhau	-1953
▁bhun	-1954
▁chor	-1955
▁deen	-1956
▁dost	-1957
▁etuk	-1958
▁gair	-1959
▁gauk	-1960
▁ghun	-1961
▁giri	-1962
▁haan	-1963
▁hono	-1964
▁hune	-1965
▁imti	-1966
▁jala	-1967
▁jhun	-1968
▁lhya	-1969
▁maaf	-1970
▁nyot	-1971
▁pain	-1972
▁pooj	-1973
▁prak	-1974
▁rati	-1975
▁sukh	-1976
▁tare	-1977
▁aayun	-1978
▁baanj	-1979
▁banak	-1980
▁banau	-1981
▁bhaji	-1982
▁bulai	-1983
▁chila	-1984
▁daant	-1985
▁dhaar	-1986
▁dosti	-1987
▁gobar	-1988
▁hapta	-1989
▁holan	-1990
▁jaalo	-1991
▁kasak	-1992
▁khana	-1993
▁lekin	-1994
▁likhi	-1995
▁madua	-1996
▁meeth	-1997
▁mehen	-1998
▁pakad	-1999
▁pakki	-2000
▁pehil	-2001
▁saadi	-2002
▁saara	-2003
▁taati	-2004
▁tapuk	-2005
▁video	-2006
▁yatra	-2007
▁baatar	-2008
▁banala	-2009
▁chamak	-2010
▁chhoot	-2011
▁chunav	-2012
▁dekhai	-2013
▁haldik	-2014
▁jaipur	-2015
▁jhadar	-2016
▁kardan	-2017
▁karnan	-2018
▁khaali	-2019
▁kiraya	-2020
▁mehnat	-2021
▁puchan	-2022
▁saikil	-2023
▁sanchi	-2024
▁apsagun	-2025
▁banoonu	-2026
▁chadhan	-2027
▁lakadak	-2028
▁milanch	-2029
▁nikalan	-2030
▁runchha	-2031
▁samjhan	-2032
▁taiyari	-2033
▁kehnchhan	-2034
▁samriddhi	-2035
▁reservation	-2036
ay	-2037
du	-2038
em	-2039
ey	-2040
ft	-2041
aja	-2042
all	-2043
eeb	-2044
era	-2045
ess	-2046
gak	-2047
kam	-2048
mas	-2049
pya	-2050
rah	-2051
sme	-2052
ten	-2053
win	-2054
yen	-2055
▁ne	-2056
▁uj	-2057
aaji	-2058
adar	-2059
agar	-2060
anda	-2061
bhol	-2062
line	-2063
mach	-2064
oond	-2065
shan	-2066
shta	-2067
yaas	-2068
▁dei	-2069
▁dub	-2070
▁eki	-2071
▁gaa	-2072
▁hil	-2073
▁jaa	-2074
▁kul	-2075
▁kwa	-2076
▁liy	-2077
▁mel	-2078
▁pos	-2079
▁pro	-2080
▁rot	-2081
▁sen	-2082
▁sya	-2083
▁too	-2084
▁van	-2085
▁waj	-2086
kamna	-2087
patal	-2088
unter	-2089
▁bent	-2090
▁bola	-2091
▁boli	-2092
▁bore	-2093
▁bubu	-2094
▁chad	-2095
▁chat	-2096
▁chul	-2097
▁comp	-2098
▁dahi	-2099
▁dhon	-2100
▁film	-2101
▁golu	-2102
▁goth	-2103
▁haha	-2104
▁inar	-2105
▁jana	-2106
▁kele	-2107
▁lang	-2108
▁lyai	-2109
▁pinj	-2110
▁pipe	-2111
▁rano	-2112
▁raya	-2113
▁roth	-2114
▁saav	-2115
▁suno	-2116
▁tabi	-2117
▁tato	-2118
▁udas	-2119
▁unak	-2120
▁unse	-2121
▁weko	-2122
eshwar	-2123
▁abhil	-2124
▁baand	-2125
▁bacha	-2126
▁banal	-2127
▁bhaag	-2128
▁bhado	-2129
▁bhook	-2130
▁block	-2131
▁chalo	-2132
▁chhip	-2133
▁chini	-2134
▁chuni	-2135
▁ghadi	-2136
▁halki	-2137
▁hoshi	-2138
▁ilaka	-2139
▁janan	-2140
▁jhund	-2141
▁kaath	-2142
▁kakdi	-2143
▁kanoo	-2144
▁karte	-2145
▁katha	-2146
▁keeda	-2147
▁khank	-2148
▁khula	-2149
▁kisan	-2150
▁laeen	-2151
▁liyan	-2152
▁lohak	-2153
▁lyaye	-2154
▁maani	-2155
▁minut	-2156
▁nanot	-2157
▁natar	-2158
▁padhi	-2159
▁palla	-2160
▁pirul	-2161
▁ragat	-2162
▁ranch	-2163
▁ropai	-2164
▁sayad	-2165
▁sehat	-2166
▁sutan	-2167
▁sutye	-2168
▁swani	-2169
▁aangan	-2170
▁aangul	-2171
▁badali	-2172
▁bhaiji	-2173
▁bhanda	-2174
▁bijlik	-2175
▁bunanu	-2176
▁cheeni	-2177
▁chelik	-2178
▁fridge	-2179
▁gaunak	-2180
▁khaata	-2181
▁kripya	-2182
▁milano	-2183
▁online	-2184
▁paidal	-2185
▁pairan	-2186
▁pandey	-2187
▁pichla	-2188
▁prakri	-2189
▁purani	-2190
▁ranchh	-2191
▁tumari	-2192
▁aanchho	-2193
▁aitvaar	-2194
▁battery	-2195
▁bhandar	-2196
▁bharyun	-2197
▁byaanak	-2198
▁chahiyo	-2199
▁chakkar	-2200
▁chhutti	-2201
▁counter	-2202
▁hunchhi	-2203
▁jangali	-2204
▁pahadan	-2205
▁patthar	-2206
▁vibhaag	-2207
▁bandaron	-2208
▁jameenak	-2209
▁laagunch	-2210
▁maangano	-2211
▁passbook	-2212
▁dhanyavad	-2213
ct	-2214
gh	-2215
je	-2216
ru	-2217
ty	-2218
age	-2219
ain	-2220
ale	-2221
aso	-2222
bad	-2223
cti	-2224
dea	-2225
dra	-2226
dur	-2227
hon	-2228
kai	-2229
onk	-2230
ood	-2231
ort	-2232
pin	-2233
sht	-2234
spe	-2235
tem	-2236
uak	-2237
uti	-2238
wad	-2239
wet	-2240
yam	-2241
yud	-2242
▁am	-2243
▁fi	-2244
▁gh	-2245
....	-2246
aagh	-2247
agat	-2248
aker	-2249
aste	-2250
ater	-2251
bhar	-2252
chap	-2253
desh	-2254
hthi	-2255
hula	-2256
kabi	-2257
kaji	-2258
kani	-2259
laya	-2260
mati	-2261
onch	-2262
pani	-2263
shak	-2264
shay	-2265
well	-2266
▁akh	-2267
▁bau	-2268
▁boi	-2269
▁boj	-2270
▁cam	-2271
▁gee	-2272
▁gir	-2273
▁gyu	-2274
▁jun	-2275
▁jur	-2276
▁laa	-2277
▁nas	-2278
▁oho	-2279
▁pen	-2280
▁pul	-2281
▁sit	-2282
▁sui	-2283
▁ter	-2284
▁tuf	-2285
▁wer	-2286
▁yoj	-2287
batti	-2288
hatke	-2289
terak	-2290
▁aage	-2291
▁aalo	-2292
▁agla	-2293
▁assi	-2294
▁baba	-2295
▁badh	-2296
▁bate	-2297
▁bech	-2298
▁bees	-2299
▁bhoj	-2300
▁bhut	-2301
▁bura	-2302
▁chya	-2303
▁daad	-2304
▁dedh	-2305
▁devi	-2306
▁deya	-2307
▁dhol	-2308
▁dwin	-2309
▁dyav	-2310
▁ekal	-2311
▁ekla	-2312
▁galo	-2313
▁gein	-2314
▁gwal	-2315
▁gyan	-2316
▁gyun	-2317
▁hala	-2318
▁hola	-2319
▁idea	-2320
▁itli	-2321
▁jami	-2322
▁jhol	-2323
▁kalo	-2324
▁khao	-2325
▁lamo	-2326
▁lija	-2327
▁mehs	-2328
▁mein	-2329
▁mira	-2330
▁poli	-2331
▁pras	-2332
▁prem	-2333
▁pyon	-2334
▁rwet	-2335
▁saha	-2336
▁seel	-2337
▁shiv	-2338
▁subo	-2339
▁sunn	-2340
▁swar	-2341
▁taaj	-2342
▁thad	-2343
▁tule	-2344
▁ukal	-2345
▁unhe	-2346
▁waso	-2347
▁aadat	-2348
▁aaluk	-2349
▁aatak	-2350
▁aipan	-2351
▁ajeeb	-2352
▁apune	-2353
▁baadi	-2354
▁badli	-2355
▁baira	-2356
▁banyo	-2357
▁bench	-2358
▁bhagi	-2359
▁bhatt	-2360
▁bidai	-2361
▁bulan	-2362
▁chaak	-2363
▁dhung	-2364
▁diyan	-2365
▁dusri	-2366
▁galti	-2367
▁ghyuk	-2368
▁haang	-2369
▁halko	-2370
▁hamak	-2371
▁hindi	-2372
▁jaane	-2373
▁jalan	-2374
▁jeeti	-2375
▁jhadu	-2376
▁kaati	-2377
▁karak	-2378
▁kheli	-2379
▁kursi	-2380
▁manai	-2381
▁party	-2382
▁press	-2383
▁raali	-2384
▁sasur	-2385
▁taaja	-2386
▁tumak	-2387
▁ubali	-2388
▁wepar	-2389
▁aakash	-2390
▁aankhi	-2391
▁bachha	-2392
▁badhan	-2393
▁banawa	-2394
▁banayo	-2395
▁baraat	-2396
▁bhalai	-2397
▁chalai	-2398
▁chatni	-2399
▁chhaya	-2400
▁dekhno	-2401
▁gaanar	-2402
▁ghughu	-2403
▁ghuman	-2404
▁haalnu	-2405
▁haalun	-2406
▁jeevan	-2407
▁jhagda	-2408
▁karchh	-2409
▁kharch	-2410
▁kikaji	-2411
▁kudrat	-2412
▁mangal	-2413
▁milani	-2414
▁nanpan	-2415
▁pahadi	-2416
▁pankha	-2417
▁parchi	-2418
▁phonak	-2419
▁pichha	-2420
▁pyonak	-2421
▁raksha	-2422
▁ramesh	-2423
▁rupiya	-2424
▁sakanu	-2425
▁sakdan	-2426
▁sanjak	-2427
▁siment	-2428
▁vibhag	-2429
▁achanak	-2430
▁aitwaar	-2431
▁angreji	-2432
▁asardar	-2433
▁baithun	-2434
▁banoonk	-2435
▁chadhai	-2436
▁cheejak	-2437
▁chidiya	-2438
▁chunaav	-2439
▁daskhat	-2440
▁kharcho	-2441
▁khelana	-2442
▁khushik	-2443
▁miliber	-2444
▁namaste	-2445
▁pradhan	-2446
▁purohit	-2447
▁safalta	-2448
▁sangeet	-2449
▁tamatar	-2450
▁baanjhak	-2451
▁bakhatar	-2452
▁borewell	-2453
▁chiththi	-2454
▁chupchap	-2455
▁dekhanak	-2456
▁sarkaari	-2457
▁shaharak	-2458
▁suraksha	-2459
▁mankhinak	-2460
▁sakanchhan	-2461
py	-2462
ue	-2463
awa	-2464
bai	-2465
gad	-2466
hap	-2467
hor	-2468
hri	-2469
huk	-2470
ini	-2471
int	-2472
ler	-2473
nat	-2474
oun	-2475
pal	-2476
rik	-2477
sit	-2478
ule	-2479
vik	-2480
▁ae	-2481
▁du	-2482
▁hy	-2483
▁pl	-2484
▁ty	-2485
arat	-2486
atri	-2487
ayan	-2488
chki	-2489
diya	-2490
ekhi	-2491
ffee	-2492
ghat	-2493
gram	-2494
heri	-2495
hyar	-2496
peti	-2497
shni	-2498
stem	-2499
tiha	-2500
tiya	-2501
yaar	-2502
▁abh	-2503
▁asa	-2504
▁bim	-2505
▁bin	-2506
▁dam	-2507
▁dun	-2508
▁gap	-2509
▁gul	-2510
▁hyu	-2511
▁kil	-2512
▁pyo	-2513
▁ser	-2514
▁sir	-2515
▁sup	-2516
▁sus	-2517
▁swe	-2518
▁syo	-2519
▁tir	-2520
▁tra	-2521
▁uki	-2522
▁vig	-2523
aanak	-2524
achar	-2525
admas	-2526
chana	-2527
ction	-2528
panak	-2529
shali	-2530
▁aadu	-2531
▁aeli	-2532
▁agli	-2533
▁arth	-2534
▁asal	-2535
▁bach	-2536
▁bagi	-2537
▁banu	-2538
▁bhad	-2539
▁bori	-2540
▁bula	-2541
▁chik	-2542
▁copy	-2543
▁daag	-2544
▁daat	-2545
▁dand	-2546
▁dini	-2547
▁dino	-2548
▁fali	-2549
▁garv	-2550
▁gayo	-2551
▁gili	-2552
▁gilo	-2553
▁gobi	-2554
▁gool	-2555
▁hans	-2556
▁heri	-2557
▁hiti	-2558
▁itlo	-2559
▁jain	-2560
▁jhan	-2561
▁jurm	-2562
▁kach	-2563
▁kala	-2564
▁khin	-2565
▁liya	-2566
▁mach	-2567
▁muli	-2568
▁note	-2569
▁pado	-2570
▁paki	-2571
▁peed	-2572
▁peer	-2573
▁phen	-2574
▁plan	-2575
▁pyar	-2576
▁raja	-2577
▁raji	-2578
▁rate	-2579
▁ruwa	-2580
▁saki	-2581
▁sauk	-2582
▁swad	-2583
▁taav	-2584
▁toli	-2585
▁wasi	-2586
hangor	-2587
yakram	-2588
▁aanak	-2589
▁aasha	-2590
▁aghin	-2591
▁alawa	-2592
▁anaaj	-2593
▁angan	-2594
▁antar	-2595
▁apuni	-2596
▁baati	-2597
▁banun	-2598
▁batun	-2599
▁bechi	-2600
▁bharo	-2601
▁bihan	-2602
▁byast	-2603
▁chait	-2604
▁chhui	-2605
▁chuno	-2606
▁daana	-2607
▁dikha	-2608
▁diyun	-2609
▁doori	-2610
▁dyala	-2611
▁geeta	-2612
▁gilli	-2613
▁haule	-2614
▁hitan	-2615
▁itiha	-2616
▁jadar	-2617
▁janam	-2618
▁jatan	-2619
▁jatti	-2620
▁jaula	-2621
▁jisme	-2622
▁jorak	-2623
▁kaafi	-2624
▁kaana	-2625
▁kaash	-2626
▁kamal	-2627
▁kauva	-2628
▁khari	-2629
▁khich	-2630
▁khoji	-2631
▁khola	-2632
▁khusi	-2633
▁kinar	-2634
▁kirmo	-2635
▁lamba	-2636
▁laung	-2637
▁lyanu	-2638
▁lyaun	-2639
▁maala	-2640
▁maari	-2641
▁manan	-2642
▁milyo	-2643
▁murti	-2644
▁naati	-2645
▁nalak	-2646
▁nanin	-2647
▁nauna	-2648
▁nimbu	-2649
▁paida	-2650
▁pairi	-2651
▁parik	-2652
▁patal	-2653
▁patli	-2654
▁paudh	-2655
▁peela	-2656
▁peeth	-2657
▁pyala	-2658
▁saamp	-2659
▁saans	-2660
▁sachi	-2661
▁sahar	-2662
▁sunao	-2663
▁tooti	-2664
▁wajah	-2665
▁wekai	-2666
▁almari	-2667
▁baarer	-2668
▁baitho	-2669
▁banaan	-2670
▁bhagya	-2671
▁bharan	-2672
▁bhejan	-2673
▁bolano	-2674
▁byalak	-2675
▁chinha	-2676
▁chyala	-2677
▁coffee	-2678
▁dawaik	-2679
▁dekhin	-2680
▁dekhyo	-2681
▁dinchh	-2682
▁diwali	-2683
▁dulhan	-2684
▁gaayak	-2685
▁garmir	-2686
▁gilaas	-2687
▁hahaha	-2688
▁harish	-2689
▁hichki	-2690
▁jaivik	-2691
▁jangli	-2692
▁jannan	-2693
▁jhatke	-2694
▁kahani	-2695
▁karani	-2696
▁khetik	-2697
▁lagoon	-2698
▁lapeti	-2699
▁lhyayo	-2700
▁liyanu	-2701
▁lyayun	-2702
▁mahang	-2703
▁manino	-2704
▁minute	-2705
▁paanir	-2706
▁prasad	-2707
▁roshni	-2708
▁sangai	-2709
▁saryuk	-2710
▁seedha	-2711
▁seekhi	-2712
▁swagat	-2713
▁tayari	-2714
▁aspatal	-2715
▁bananak	-2716
▁batulai	-2717
▁batulan	-2718
▁bunanak	-2719
▁chabawa	-2720
▁chahani	-2721
▁dhaanak	-2722
▁dinchha	-2723
▁dusarak	-2724
▁ghaamar	-2725
▁gwaldam	-2726
▁headmas	-2727
▁laganch	-2728
▁mahinat	-2729
▁padanch	-2730
▁pariwar	-2731
▁program	-2732
▁rasayan	-2733
▁sandesh	-2734
▁sanskri	-2735
▁sweater	-2736
▁gadherak	-2737
▁hoshiyar	-2738
▁janchhin	-2739
▁laganchh	-2740
▁pressure	-2741
▁shaharar	-2742
▁chahanchu	-2743
▁jaanchhan	-2744
▁samriddhik	-2745
ap	-2746
dr	-2747
ry	-2748
aah	-2749
aay	-2750
aik	-2751
aro	-2752
ayo	-2753
ddh	-2754
din	-2755
eej	-2756
elu	-2757
hal	-2758
hnu	-2759
jam	-2760
jat	-2761
jau	-2762
jyu	-2763
kik	-2764
mer	-2765
mik	-2766
nen	-2767
oik	-2768
ona	-2769
pho	-2770
rch	-2771
sai	-2772
sal	-2773
unn	-2774
way	-2775
▁au	-2776
▁bl	-2777
▁br	-2778
▁oh	-2779
▁sp	-2780
▁tv	-2781
ager	-2782
ahar	-2783
andi	-2784
aran	-2785
bara	-2786
bhat	-2787
brid	-2788
chat	-2789
chil	-2790
dana	-2791
danu	-2792
eeti	-2793
hari	-2794
hini	-2795
hkil	-2796
huri	-2797
jaan	-2798
mand	-2799
ppal	-2800
shap	-2801
shit	-2802
shya	-2803
ting	-2804
yaaj	-2805
yang	-2806
▁air	-2807
▁bot	-2808
▁buk	-2809
▁cho	-2810
▁fal	-2811
▁gur	-2812
▁jim	-2813
▁jit	-2814
▁jwe	-2815
▁laj	-2816
▁mae	-2817
▁mal	-2818
▁mom	-2819
▁nau	-2820
▁sek	-2821
▁sum	-2822
▁thu	-2823
▁twe	-2824
▁upi	-2825
▁yak	-2826
▁yei	-2827
andak	-2828
ariya	-2829
athak	-2830
chaal	-2831
chhin	-2832
dhaan	-2833
dhaar	-2834
shwar	-2835
taaji	-2836
udspe	-2837
warak	-2838
warik	-2839
▁aadi	-2840
▁aath	-2841
▁aaya	-2842
▁atki	-2843
▁aunu	-2844
▁baji	-2845
▁balu	-2846
▁bhig	-2847
▁boju	-2848
▁call	-2849
▁dali	-2850
▁dhak	-2851
▁duno	-2852
▁ekli	-2853
▁fauj	-2854
▁gari	-2855
▁gaya	-2856
▁gila	-2857
▁hara	-2858
▁hone	-2859
▁ijak	-2860
▁indr	-2861
▁inte	-2862
▁jaam	-2863
▁jaat	-2864
▁jadi	-2865
▁jali	-2866
▁jaya	-2867
▁jaye	-2868
▁jhoo	-2869
▁jiti	-2870
▁juta	-2871
▁kaka	-2872
▁kare	-2873
▁khal	-2874
▁khud	-2875
▁kini	-2876
▁laak	-2877
▁leni	-2878
▁ligo	-2879
▁list	-2880
▁loha	-2881
▁loon	-2882
▁mait	-2883
▁mano	-2884
▁meru	-2885
▁moch	-2886
▁muft	-2887
▁naan	-2888
▁nare	-2889
▁nari	-2890
▁naul	-2891
▁neel	-2892
▁neev	-2893
▁nuks	-2894
▁ooni	-2895
▁pack	-2896
▁paij	-2897
▁panu	-2898
▁peep	-2899
▁piye	-2900
▁puji	-2901
▁pyai	-2902
▁ramu	-2903
▁side	-2904
▁suji	-2905
▁sust	-2906
▁taap	-2907
▁taki	-2908
▁tang	-2909
▁tent	-2910
▁thop	-2911
▁unme	-2912
▁utha	-2913
▁uthi	-2914
▁wani	-2915
aadilo	-2916
charge	-2917
ductor	-2918
ounder	-2919
wastha	-2920
▁aadha	-2921
▁aamak	-2922
▁aarti	-2923
▁aasan	-2924
▁aasis	-2925
▁baagh	-2926
▁baaki	-2927
▁bajai	-2928
▁basan	-2929
▁bhato	-2930
▁bigha	-2931
▁binti	-2932
▁biral	-2933
▁blood	-2934
▁chaal	-2935
▁chahe	-2936
▁check	-2937
▁cheta	-2938
▁chhal	-2939
▁chhar	-2940
▁chhed	-2941
▁daali	-2942
▁dabbo	-2943
▁daran	-2944
▁dhaal	-2945
▁dhare	-2946
▁dheer	-2947
▁dhilo	-2948
▁dhoya	-2949
▁dikhi	-2950
▁dinar	-2951
▁diunl	-2952
▁diwai	-2953
▁faati	-2954
▁gahat	-2955
▁ganda	-2956
▁gudak	-2957
▁halan	-2958
▁hansi	-2959
▁honak	-2960
▁hunan	-2961
▁ijjat	-2962
▁istem	-2963
▁jaber	-2964
▁jahan	-2965
▁jalai	-2966
▁janne	-2967
▁jawan	-2968
▁jutta	-2969
▁kaala	-2970
▁karao	-2971
▁karja	-2972
▁katan	-2973
▁khada	-2974
▁khawa	-2975
▁kholi	-2976
▁khuta	-2977
▁khwar	-2978
▁kripa	-2979
▁kunen	-2980
▁kweek	-2981
▁lambi	-2982
▁lekhi	-2983
▁lyaya	-2984
▁maafi	-2985
▁mahat	-2986
▁march	-2987
▁meter	-2988
▁naach	-2989
▁niyam	-2990
▁paaki	-2991
▁padch	-2992
▁panna	-2993
▁parat	-2994
▁petak	-2995
▁pinak	-2996
▁prati	-2997
▁puchh	-2998
▁rasoi	-2999
▁ratik	-3000
▁ratri	-3001
▁rayen	-3002
▁sabak	-3003
▁safar	-3004
▁sahab	-3005
▁sapat	-3006
▁sardi	-3007
▁sawal	-3008
▁swadi	-3009
▁taajo	-3010
▁taata	-3011
▁tarak	-3012
▁telak	-3013
▁thaan	-3014
▁thado	-3015
▁utari	-3016
▁uthai	-3017
▁uttar	-3018
▁yojna	-3019
▁aujaar	-3020
▁bachat	-3021
▁bahini	-3022
▁bataye	-3023
▁bharak	-3024
▁bhetan	-3025
▁bhutta	-3026
▁bulana	-3027
▁bulawa	-3028
▁burans	-3029
▁chaanl	-3030
▁chabhi	-3031
▁charai	-3032
▁churan	-3033
▁darana	-3034
▁darono	-3035
▁dekhun	-3036
▁design	-3037
▁dhonak	-3038
▁dikhai	-3039
▁dobara	-3040
▁duniya	-3041
▁dyakha	-3042
▁haalni	-3043
▁hybrid	-3044
▁jaalan	-3045
▁jeetan	-3046
▁kachra	-3047
▁karali	-3048
▁karawa	-3049
▁khetar	-3050
▁khojan	-3051
▁khujli	-3052
▁krishi	-3053
▁kumaon	-3054
▁langur	-3055
▁likhai	-3056
▁maanan	-3057
▁maduak	-3058
▁mainak	-3059
▁mangai	-3060
▁mannat	-3061
▁mehsus	-3062
▁mirach	-3063
▁najaro	-3064
▁nambar	-3065
▁nimbuk	-3066
▁paakal	-3067
▁pachan	-3068
▁pachhn	-3069
▁pachil	-3070
▁paisak	-3071
▁pakdan	-3072
▁phikar	-3073
▁pithor	-3074
▁rakhul	-3075
▁rasoik	-3076
▁saathi	-3077
▁sakano	-3078
▁sakchu	-3079
▁samjhi	-3080
▁sunano	-3081
▁udhaar	-3082
adhanush	-3083
▁abhyaas	-3084
▁andhyar	-3085
▁anubhav	-3086
▁aunchha	-3087
▁bachhan	-3088
▁bajarak	-3089
▁bajyang	-3090
▁banonch	-3091
▁batanak	-3092
▁chhatak	-3093
▁chhodan	-3094
▁daraati	-3095
▁daranti	-3096
▁dyakhan	-3097
▁gharelu	-3098
▁himmati	-3099
▁hunchhe	-3100
▁jagahar	-3101
▁jhangor	-3102
▁jurmana	-3103
▁katanak	-3104
▁katukak	-3105
▁khichan	-3106
▁khilawa	-3107
▁laagalo	-3108
▁laganak	-3109
▁laganan	-3110
▁loudspe	-3111
▁manager	-3112
▁mangano	-3113
▁mushkil	-3114
▁nirbhar	-3115
▁rakhanu	-3116
▁sakanan	-3117
▁sakchhi	-3118
▁samajhi	-3119
▁sochanu	-3120
▁station	-3121
▁tabiyat	-3122
▁tareekh	-3123
▁tractor	-3124
▁tyoharo	-3125
▁baithanu	-3126
▁bhagwaan	-3127
▁chaukhat	-3128
▁companyk	-3129
▁dinchhan	-3130
▁khaaskar	-3131
▁naninpan	-3132
▁panchami	-3133
▁patharak	-3134
▁rakhwali	-3135
▁recharge	-3136
▁swaadilo	-3137
▁byawastha	-3138
▁chhodiber	-3139
▁conductor	-3140
▁karyakram	-3141
▁plasticak	-3142
▁saavdhaan	-3143
▁compounder	-3144
▁shubhkamna	-3145
▁loudspeaker	-3146
▁indradhanush	-3147
ci	-3148
co	-3149
hr	-3150
jo	-3151
ly	-3152
ss	-3153
tu	-3154
yc	-3155
ach	-3156
aki	-3157
bab	-3158
ban	-3159
bas	-3160
cto	-3161
dul	-3162
eef	-3163
eer	-3164
eev	-3165
iti	-3166
jai	-3167
jhi	-3168
kti	-3169
kur	-3170
lar	-3171
lau	-3172
lav	-3173
lhi	-3174
lsi	-3175
mal	-3176
may	-3177
oot	-3178
pha	-3179
pun	-3180
sam	-3181
sav	-3182
tal	-3183
tel	-3184
ube	-3185
vas	-3186
vit	-3187
yek	-3188
yog	-3189
▁af	-3190
▁lh	-3191
ance	-3192
arth	-3193
daar	-3194
date	-3195
erak	-3196
ffin	-3197
gaad	-3198
giya	-3199
huli	-3200
ital	-3201
iyak	-3202
janu	-3203
kali	-3204
liya	-3205
liye	-3206
ooli	-3207
pann	-3208
rati	-3209
riya	-3210
roup	-3211
shin	-3212
shir	-3213
sion	-3214
taur	-3215
uhik	-3216
urse	-3217
wala	-3218
word	-3219
yalo	-3220
ycle	-3221
yete	-3222
yunk	-3223
▁aya	-3224
▁ayu	-3225
▁bwa	-3226
▁dhe	-3227
▁dud	-3228
▁dwe	-3229
▁gaj	-3230
▁gat	-3231
▁ghi	-3232
▁gus	-3233
▁had	-3234
▁hey	-3235
▁isi	-3236
▁jaj	-3237
▁jya	-3238
▁ken	-3239
▁kon	-3240
▁las	-3241
▁lok	-3242
▁lot	-3243
▁lut	-3244
▁may	-3245
▁mor	-3246
▁nus	-3247
▁nya	-3248
▁pap	-3249
▁pot	-3250
▁pud	-3251
▁saj	-3252
▁sat	-3253
▁sel	-3254
▁set	-3255
▁sil	-3256
▁sin	-3257
▁som	-3258
▁tik	-3259
▁tit	-3260
▁tor	-3261
▁uth	-3262
▁uun	-3263
▁vol	-3264
▁wah	-3265
▁wei	-3266
aamak	-3267
aasta	-3268
aghar	-3269
akhan	-3270
board	-3271
hadur	-3272
hanat	-3273
haran	-3274
manak	-3275
neeti	-3276
paksh	-3277
ranti	-3278
utube	-3279
▁aato	-3280
▁aein	-3281
▁apna	-3282
▁asam	-3283
▁ayun	-3284
▁baaj	-3285
▁bars	-3286
▁book	-3287
▁busy	-3288
▁chyo	-3289
▁daak	-3290
▁data	-3291
▁dhad	-3292
▁dhil	-3293
▁dhoo	-3294
▁ekai	-3295
▁eklo	-3296
▁feri	-3297
▁geli	-3298
▁ghau	-3299
▁ghut	-3300
▁gulo	-3301
▁hall	-3302
▁hand	-3303
▁hilo	-3304
▁hyuk	-3305
▁isma	-3306
▁jadu	-3307
▁jate	-3308
▁kaas	-3309
▁kail	-3310
▁kaki	-3311
▁kale	-3312
▁karo	-3313
▁khit	-3314
▁khur	-3315
▁kola	-3316
▁ladi	-3317
▁laki	-3318
▁lenu	-3319
▁lhyo	-3320
▁lino	-3321
▁luki	-3322
▁lyun	-3323
▁maha	-3324
▁maun	-3325
▁mota	-3326
▁moti	-3327
▁naur	-3328
▁naya	-3329
▁octo	-3330
▁pach	-3331
▁padh	-3332
▁phai	-3333
▁phut	-3334
▁pigh	-3335
▁prad	-3336
▁puch	-3337
▁pudi	-3338
▁puni	-3339
▁purk	-3340
▁rail	-3341
▁ranu	-3342
▁rayu	-3343
▁reti	-3344
▁saap	-3345
▁saja	-3346
▁saun	-3347
▁seen	-3348
▁sidi	-3349
▁suki	-3350
▁sumo	-3351
▁syal	-3352
▁tali	-3353
▁team	-3354
▁thun	-3355
▁topi	-3356
▁udan	-3357
▁ulti	-3358
▁umen	-3359
▁unma	-3360
▁upay	-3361
▁utar	-3362
▁waah	-3363
▁weak	-3364
▁week	-3365
▁yesi	-3366
areekh	-3367
haniya	-3368
hirwad	-3369
paatak	-3370
pasand	-3371
shthan	-3372
▁aadak	-3373
▁aagak	-3374
▁aapuk	-3375
▁afsar	-3376
▁andaj	-3377
▁aunak	-3378
▁baali	-3379
▁babak	-3380
▁barat	-3381
▁bardi	-3382
▁batan	-3383
▁becha	-3384
▁bhand	-3385
▁bhavi	-3386
▁bhuni	-3387
▁bidhi	-3388
▁bisri	-3389
▁board	-3390
▁bokal	-3391
▁boond	-3392
▁botal	-3393
▁brush	-3394
▁bubuk	-3395
▁chabi	-3396
▁chalu	-3397
▁chara	-3398
▁charg	-3399
▁chhee	-3400
▁chuti	-3401
▁chyun	-3402
▁conne	-3403
▁dabai	-3404
▁danda	-3405
▁delhi	-3406
▁denak	-3407
▁didik	-3408
▁dosar	-3409
▁dyali	-3410
▁gawak	-3411
▁geyan	-3412
▁geyon	-3413
▁gilas	-3414
▁glass	-3415
▁goond	-3416
▁group	-3417
▁gudai	-3418
▁gupat	-3419
▁gyein	-3420
▁hajar	-3421
▁hotel	-3422
▁hunak	-3423
▁jaagi	-3424
▁janen	-3425
▁jodai	-3426
▁kadak	-3427
▁kahna	-3428
▁kamar	-3429
▁kamij	-3430
▁kamre	-3431
▁karol	-3432
▁kasik	-3433
▁katta	-3434
▁khane	-3435
▁khulo	-3436
▁kudal	-3437
▁kyari	-3438
▁lasan	-3439
▁lathi	-3440
▁lenak	-3441
▁lijan	-3442
▁liter	-3443
▁logan	-3444
▁lyana	-3445
▁lyola	-3446
▁madat	-3447
▁mahen	-3448
▁makan	-3449
▁matra	-3450
▁mehar	-3451
▁mirch	-3452
▁naali	-3453
▁naram	-3454
▁nauni	-3455
▁nidar	-3456
▁nurse	-3457
▁padha	-3458
▁pados	-3459
▁parme	-3460
▁parsi	-3461
▁parso	-3462
▁patak	-3463
▁patar	-3464
▁pavit	-3465
▁plate	-3466
▁power	-3467
▁pyaaj	-3468
▁raula	-3469
▁raunl	-3470
▁rojak	-3471
▁rokan	-3472
▁ropan	-3473
▁rukal	-3474
▁sadak	-3475
▁sakad	-3476
▁sakai	-3477
▁sakal	-3478
▁sakni	-3479
▁saknu	-3480
▁saral	-3481
▁suraj	-3482
▁syahi	-3483
▁syano	-3484
▁table	-3485
▁takak	-3486
▁tarah	-3487
▁todan	-3488
▁tukda	-3489
▁tulsi	-3490
▁tutal	-3491
▁uganu	-3492
▁unpar	-3493
▁utsav	-3494
▁waalo	-3495
▁walak	-3496
▁aashir	-3497
▁anhaar	-3498
▁aunchh	-3499
▁baadal	-3500
▁baatan	-3501
▁baaton	-3502
▁badlav	-3503
▁baghak	-3504
▁baghni	-3505
▁banano	-3506
▁banaya	-3507
▁bankak	-3508
▁batunl	-3509
▁bhasha	-3510
▁bhatoj	-3511
▁bhigai	-3512
▁bhulul	-3513
▁bishay	-3514
▁buloon	-3515
▁bwaari	-3516
▁chachi	-3517
▁chadhi	-3518
▁chahun	-3519
▁charge	-3520
▁chasma	-3521
▁chhaan	-3522
▁chhana	-3523
▁chorik	-3524
▁chunan	-3525
▁churai	-3526
▁chyete	-3527
▁dekhla	-3528
▁dekhnu	-3529
▁devtak	-3530
▁devtan	-3531
▁dharak	-3532
▁dharyo	-3533
▁dukhak	-3534
▁dukhan	-3535
▁dwarak	-3536
▁haalan	-3537
▁jajman	-3538
▁jalaun	-3539
▁jhooth	-3540
▁kaamar	-3541
▁kandak	-3542
▁karank	-3543
▁karchu	-3544
▁karnak	-3545
▁karuno	-3546
▁keemti	-3547
▁khaunl	-3548
▁khojnu	-3549
▁khutar	-3550
▁kismat	-3551
▁lagali	-3552
▁lekhan	-3553
▁lijaun	-3554
▁liyank	-3555
▁lyanan	-3556
▁lyeber	-3557
▁mahina	-3558
▁maidan	-3559
▁meetha	-3560
▁najdik	-3561
▁nuskha	-3562
▁pachas	-3563
▁padani	-3564
▁padhyo	-3565
▁padosi	-3566
▁painch	-3567
▁pathri	-3568
▁patwar	-3569
▁phalak	-3570
▁pinjra	-3571
▁polish	-3572
▁pyajak	-3573
▁rakhya	-3574
▁rangak	-3575
▁rishta	-3576
▁rukali	-3577
▁runchh	-3578
▁saaman	-3579
▁samiti	-3580
▁seelak	-3581
▁senani	-3582
▁shehar	-3583
▁singal	-3584
▁sochni	-3585
▁sochno	-3586
▁sukhal	-3587
▁sunanu	-3588
▁takkur	-3589
▁tareek	-3590
▁thudik	-3591
▁tiffin	-3592
▁tufaan	-3593
▁tumara	-3594
▁update	-3595
▁uthano	-3596
▁vichar	-3597
▁waalak	-3598
▁aamtaur	-3599
▁aankhak	-3600
▁bagalak	-3601
▁bahadur	-3602
▁bananan	-3603
▁bataiye	-3604
▁beechak	-3605
▁bhaanda	-3606
▁bharose	-3607
▁chabaya	-3608
▁chahini	-3609
▁chamach	-3610
▁chappal	-3611
▁cheejen	-3612
▁chhinan	-3613
▁chhutak	-3614
▁dheeraj	-3615
▁dikhani	-3616
▁dikhawa	-3617
▁dosarak	-3618
▁dukanak	-3619
▁ghaadak	-3620
▁ghanton	-3621
▁haathak	-3622
▁imtiaan	-3623
▁intejam	-3624
▁isiliye	-3625
▁janchhi	-3626
▁jankari	-3627
▁jodanak	-3628
▁kanchan	-3629
▁karchan	-3630
▁karchhu	-3631
▁khanchh	-3632
▁khatayi	-3633
▁khelnen	-3634
▁khidkik	-3635
▁khojano	-3636
▁kitabak	-3637
▁kunchan	-3638
▁lekhano	-3639
▁liyanak	-3640
▁lottery	-3641
▁machine	-3642
▁mahatva	-3643
▁mehanat	-3644
▁naashta	-3645
▁nikalun	-3646
▁october	-3647
▁pahuchi	-3648
▁paudhak	-3649
▁phutani	-3650
▁rakhchh	-3651
▁rangeen	-3652
▁sabyank	-3653
▁sanjeev	-3654
▁sankhya	-3655
▁sanskar	-3656
▁saryunk	-3657
▁shuruat	-3658
▁sunanak	-3659
▁tumhari	-3660
▁vichaar	-3661
▁youtube	-3662
▁asambhav	-3663
▁ashirwad	-3664
▁baandare	-3665
▁baithula	-3666
▁belyanak	-3667
▁bhandara	-3668
▁chammach	-3669
▁chholiya	-3670
▁dekhbhal	-3671
▁dikhanan	-3672
▁ekalasan	-3673
▁haalanak	-3674
▁helmetak	-3675
▁istemaal	-3676
▁jaanchho	-3677
▁janamdin	-3678
▁janwarak	-3679
▁kheliber	-3680
▁kunechan	-3681
▁laganchi	-3682
▁lohaghat	-3683
▁mausamak	-3684
▁padanchh	-3685
▁paidawar	-3686
▁pariksha	-3687
▁pariwaar	-3688
▁password	-3689
▁peepalak	-3690
▁rajneeti	-3691
▁ranchhan	-3692
▁saamanak	-3693
▁shararat	-3694
▁shuruwat	-3695
▁swargiya	-3696
▁taareekh	-3697
▁aitvaarak	-3698
▁anushthan	-3699
▁bageshwar	-3700
▁baithiber	-3701
▁chhipkali	-3702
▁chuttiyon	-3703
▁kahnachha	-3704
▁manpasand	-3705
▁naamkaran	-3706
▁pichhaura	-3707
▁prakritik	-3708
▁sankranti	-3709
▁surakshit	-3710
▁chahanchha	-3711
▁connection	-3712
▁ghantaghar	-3713
▁headmaster	-3714
▁naninpanar	-3715
▁paramparik	-3716
▁parmeshwar	-3717
▁pithoragar	-3718
af	-3719
av	-3720
br	-3721
ca	-3722
eb	-3723
gy	-3724
kt	-3725
mp	-3726
od	-3727
su	-3728
yl	-3729
aap	-3730
aga	-3731
arm	-3732
bau	-3733
bir	-3734
cni	-3735
dri	-3736
dui	-3737
dus	-3738
dwi	-3739
ebi	-3740
eki	-3741
fak	-3742
for	-3743
gek	-3744
ght	-3745
gle	-3746
gul	-3747
hei	-3748
hek	-3749
hra	-3750
hwa	-3751
jab	-3752
laf	-3753
lee	-3754
leg	-3755
mol	-3756
nas	-3757
nay	-3758
oda	-3759
osa	-3760
raw	-3761
rot	-3762
sla	-3763
tav	-3764
the	-3765
ton	-3766
uda	-3767
use	-3768
wja	-3769
yaa	-3770
yai	-3771
yee	-3772
yel	-3773
▁by	-3774
▁en	-3775
▁vl	-3776
adak	-3777
adik	-3778
ando	-3779
anik	-3780
asth	-3781
ator	-3782
bani	-3783
baut	-3784
bsit	-3785
chhe	-3786
chho	-3787
chit	-3788
cnic	-3789
dano	-3790
dhil	-3791
edar	-3792
ekha	-3793
elak	-3794
esan	-3795
gand	-3796
gari	-3797
goti	-3798
haal	-3799
hadi	-3800
hana	-3801
hank	-3802
heli	-3803
hiti	-3804
hura	-3805
hwal	-3806
ilak	-3807
joor	-3808
kaye	-3809
khar	-3810
kuch	-3811
lack	-3812
lanu	-3813
maag	-3814
mash	-3815
nana	-3816
nath	-3817
oonk	-3818
pair	-3819
pari	-3820
pati	-3821
peed	-3822
peen	-3823
port	-3824
raun	-3825
shar	-3826
syak	-3827
tage	-3828
thik	-3829
thul	-3830
ulet	-3831
unla	-3832
urak	-3833
uter	-3834
utik	-3835
vice	-3836
wder	-3837
yaan	-3838
yati	-3839
yein	-3840
yula	-3841
▁ani	-3842
▁ank	-3843
▁apu	-3844
▁aul	-3845
▁bik	-3846
▁cre	-3847
▁cup	-3848
▁daa	-3849
▁dap	-3850
▁dat	-3851
▁dig	-3852
▁ehs	-3853
▁fat	-3854
▁gam	-3855
▁gas	-3856
▁gen	-3857
▁gol	-3858
▁goo	-3859
▁haj	-3860
▁her	-3861
▁hid	-3862
▁hue	-3863
▁int	-3864
▁jin	-3865
▁kut	-3866
▁lal	-3867
▁lee	-3868
▁mod	-3869
▁nin	-3870
▁pab	-3871
▁paj	-3872
▁pis	-3873
▁pon	-3874
▁pri	-3875
▁pus	-3876
▁roo	-3877
▁rub	-3878
▁sav	-3879
▁sho	-3880
▁spe	-3881
▁sub	-3882
▁sud	-3883
▁syu	-3884
▁ten	-3885
▁udi	-3886
▁vik	-3887
▁vin	-3888
▁wee	-3889
▁yes	-3890
aanch	-3891
aatar	-3892
aawat	-3893
ading	-3894
agadi	-3895
aniya	-3896
athna	-3897
bakri	-3898
bhaat	-3899
bhyan	-3900
bsite	-3901
chano	-3902
chanu	-3903
cture	-3904
danda	-3905
dhire	-3906
eelak	-3907
eshak	-3908
hango	-3909
karik	-3910
leela	-3911
lergy	-3912
matra	-3913
nimak	-3914
nital	-3915
oonak	-3916
ooter	-3917
paath	-3918
panch	-3919
patti	-3920
ramak	-3921
ritya	-3922
shilo	-3923
shran	-3924
tinan	-3925
waala	-3926
wahak	-3927
yaali	-3928
yadan	-3929
▁aaja	-3930
▁aand	-3931
▁acha	-3932
▁adha	-3933
▁agal	-3934
▁ajib	-3935
▁alsi	-3936
▁arji	-3937
▁bahu	-3938
▁bhin	-3939
▁bira	-3940
▁buda	-3941
▁budh	-3942
▁buti	-3943
▁camp	-3944
▁chap	-3945
▁chow	-3946
▁chus	-3947
▁dalo	-3948
▁dana	-3949
▁dara	-3950
▁dasi	-3951
▁dast	-3952
▁dhwe	-3953
▁doli	-3954
▁dyek	-3955
▁fail	-3956
▁fasi	-3957
▁file	-3958
▁gang	-3959
▁ghur	-3960
▁ghus	-3961
▁haar	-3962
▁hanu	-3963
▁haro	-3964
▁hing	-3965
▁home	-3966
▁hoth	-3967
▁hunl	-3968
▁inke	-3969
▁itla	-3970
▁jath	-3971
▁jeev	-3972
▁jema	-3973
▁jeth	-3974
▁jiya	-3975
▁jonk	-3976
▁jwai	-3977
▁kaho	-3978
▁kana	-3979
▁kano	-3980
▁kela	-3981
▁khad	-3982
▁khat	-3983
▁khuj	-3984
▁khus	-3985
▁kudo	-3986
▁kuna	-3987
▁kune	-3988
▁leli	-3989
▁line	-3990
▁lyaa	-3991
▁maad	-3992
▁mail	-3993
▁maja	-3994
▁mali	-3995
▁mand	-3996
▁modi	-3997
▁mukt	-3998
▁naaw	-3999
▁nakh	-4000
▁nata	-4001
▁nhei	-4002
▁nich	-4003
▁nikl	-4004
▁nind	-4005
▁pala	-4006
▁paun	-4007
▁phis	-4008
▁phur	-4009
▁pila	-4010
▁ping	-4011
▁pino	-4012
▁pinu	-4013
▁port	-4014
▁post	-4015
▁prer	-4016
▁puje	-4017
▁pump	-4018
▁raay	-4019
▁rani	-4020
▁raul	-4021
▁road	-4022
▁roki	-4023
▁rono	-4024
▁runo	-4025
▁saad	-4026
▁sadi	-4027
▁sako	-4028
▁sari	-4029
▁sewa	-4030
▁sida	-4031
▁siti	-4032
▁stor	-4033
▁sulo	-4034
▁sung	-4035
▁tees	-4036
▁tele	-4037
▁teri	-4038
▁tero	-4039
▁tika	-4040
▁tyre	-4041
▁uchi	-4042
▁ulta	-4043
▁ulto	-4044
▁unuk	-4045
▁upai	-4046
▁usma	-4047
▁vote	-4048
▁ward	-4049
▁wesi	-4050
aanchu	-4051
akhand	-4052
chalau	-4053
chhanu	-4054
hakari	-4055
itauli	-4056
kabhai	-4057
shaali	-4058
takala	-4059
waarak	-4060
yshali	-4061
▁aaina	-4062
▁aajak	-4063
▁aalan	-4064
▁aaloo	-4065
▁aanda	-4066
▁aatma	-4067
▁airyu	-4068
▁ajwai	-4069
▁amrit	-4070
▁anari	-4071
▁anmol	-4072
▁anoot	-4073
▁anunn	-4074
▁aunli	-4075
▁baani	-4076
▁baant	-4077
▁babuk	-4078
▁bahut	-4079
▁banul	-4080
▁bawal	-4081
▁besan	-4082
▁bhada	-4083
▁bhakt	-4084
▁bhala	-4085
▁bhunk	-4086
▁bimla	-4087
▁black	-4088
▁bolan	-4089
▁bujhi	-4090
▁byoon	-4091
▁chhap	-4092
▁chudi	-4093
▁daadi	-4094
▁daino	-4095
▁delan	-4096
▁dhaag	-4097
▁dheel	-4098
▁dhire	-4099
▁dhono	-4100
▁dhulo	-4101
▁dinon	-4102
▁diwas	-4103
▁dubai	-4104
▁dukhi	-4105
▁dwaar	-4106
▁faltu	-4107
▁gandi	-4108
▁gaura	-4109
▁gayab	-4110
▁gehun	-4111
▁geyun	-4112
▁ghann	-4113
▁gheri	-4114
▁ghusi	-4115
▁giran	-4116
▁gopal	-4117
▁gumas	-4118
▁haini	-4119
▁halwa	-4120
▁hamuk	-4121
▁harai	-4122
▁harik	-4123
▁hidan	-4124
▁himal	-4125
▁hisab	-4126
▁hunni	-4127
▁jaanu	-4128
▁jaeli	-4129
▁jalni	-4130
▁jaman	-4131
▁jatra	-4132
▁jatuk	-4133
▁jaunu	-4134
▁jhaad	-4135
▁jhoot	-4136
▁jimme	-4137
▁junla	-4138
▁kadha	-4139
▁kafal	-4140
▁kalam	-4141
▁karik	-4142
▁karla	-4143
▁karto	-4144
▁kaske	-4145
▁kauwa	-4146
▁khaal	-4147
▁khadi	-4148
▁khado	-4149
▁kheer	-4150
▁khili	-4151
▁khiti	-4152
▁kirai	-4153
▁kirpa	-4154
▁lagnu	-4155
▁laksh	-4156
▁leber	-4157
▁lukan	-4158
▁lwaar	-4159
▁lyeyu	-4160
▁maali	-4161
▁macha	-4162
▁maeti	-4163
▁maila	-4164
▁mailo	-4165
▁majak	-4166
▁makdi	-4167
▁masan	-4168
▁matar	-4169
▁melar	-4170
▁mitho	-4171
▁mooli	-4172
▁muhur	-4173
▁mulet	-4174
▁naami	-4175
▁nanda	-4176
▁naraj	-4177
▁nasan	-4178
▁natak	-4179
▁naula	-4180
▁paati	-4181
▁pahar	-4182
▁pakan	-4183
▁palak	-4184
▁palan	-4185
▁paper	-4186
▁parch	-4187
▁paros	-4188
▁pashu	-4189
▁patik	-4190
▁patti	-4191
▁pehlo	-4192
▁pidhi	-4193
▁pigha	-4194
▁pitar	-4195
▁pyono	-4196
▁rajai	-4197
▁ranan	-4198
▁reset	-4199
▁risai	-4200
▁rukan	-4201
▁rukni	-4202
▁saaro	-4203
▁saasu	-4204
▁saath	-4205
▁sabji	-4206
▁sabun	-4207
▁sakht	-4208
▁samay	-4209
▁sikka	-4210
▁sthap	-4211
▁sukho	-4212
▁sunai	-4213
▁sunul	-4214
▁supin	-4215
▁syani	-4216
▁tabhi	-4217
▁talla	-4218
▁tinak	-4219
▁tudai	-4220
▁tufan	-4221
▁tujai	-4222
▁tumal	-4223
▁tyaar	-4224
▁ubaal	-4225
▁uchha	-4226
▁uncha	-4227
▁upjau	-4228
▁uthul	-4229
▁weeke	-4230
anchhin	-4231
tenance	-4232
▁aadhar	-4233
▁aadrak	-4234
▁aalook	-4235
▁aaluak	-4236
▁aanand	-4237
▁aankho	-4238
▁akhbar	-4239
▁akheer	-4240
▁akshar	-4241
▁anjaan	-4242
▁asafal	-4243
▁asiyai	-4244
▁bagane	-4245
▁baisak	-4246
▁bajanu	-4247
▁bandhi	-4248
▁bechni	-4249
▁bekaar	-4250
▁belyan	-4251
▁bhagan	-4252
▁bhakar	-4253
▁bharai	-4254
▁bhatak	-4255
▁bhetul	-4256
▁bimmar	-4257
▁biswas	-4258
▁budhap	-4259
▁camera	-4260
▁chakku	-4261
▁chalal	-4262
▁chalau	-4263
▁chamki	-4264
▁charan	-4265
▁chhala	-4266
▁chhanv	-4267
▁chhati	-4268
▁chikan	-4269
▁chunak	-4270
▁chutki	-4271
▁dabawa	-4272
▁dabbak	-4273
▁dakiya	-4274
▁darani	-4275
▁deemak	-4276
▁dekhte	-4277
▁dekhul	-4278
▁dhokha	-4279
▁dhunan	-4280
▁dihadi	-4281
▁dimaag	-4282
▁dudhak	-4283
▁dwinon	-4284
▁dyavta	-4285
▁ehsaas	-4286
▁faisla	-4287
▁gaadhu	-4288
▁garara	-4289
▁gardan	-4290
▁geeton	-4291
▁google	-4292
▁gulaab	-4293
▁haalat	-4294
▁halwai	-4295
▁hilaya	-4296
▁hisaab	-4297
▁hisyud	-4298
▁hitano	-4299
▁hunali	-4300
▁ilakak	-4301
▁itihas	-4302
▁jaunlo	-4303
▁jholak	-4304
▁jyunar	-4305
▁kaafal	-4306
▁kaamak	-4307
▁kaanan	-4308
▁kaatne	-4309
▁kakdik	-4310
▁kapoor	-4311
▁kariye	-4312
▁kendra	-4313
▁khanan	-4314
▁khilaf	-4315
▁khisan	-4316
▁kholan	-4317
▁khulal	-4318
▁khutan	-4319
▁khutta	-4320
▁kismak	-4321
▁laagyo	-4322
▁lagane	-4323
▁lagaye	-4324
▁lagayo	-4325
▁laguni	-4326
▁lagunk	-4327
▁lhyoon	-4328
▁lijato	-4329
▁maangi	-4330
▁maathu	-4331
▁majuri	-4332
▁makoda	-4333
▁manana	-4334
▁manish	-4335
▁milalo	-4336
▁milane	-4337
▁milawa	-4338
▁milula	-4339
▁mittik	-4340
▁naamak	-4341
▁naasta	-4342
▁natija	-4343
▁naunak	-4344
▁naurat	-4345
▁nirnay	-4346
▁noonak	-4347
▁nritya	-4348
▁paahun	-4349
▁paheri	-4350
▁paileg	-4351
▁paltan	-4352
▁paneer	-4353
▁patang	-4354
▁paudha	-4355
▁phelak	-4356
▁phenki	-4357
▁picnic	-4358
▁police	-4359
▁powder	-4360
▁prarth	-4361
▁prayog	-4362
▁pudina	-4363
▁raanch	-4364
▁rakhal	-4365
▁rasyek	-4366
▁repair	-4367
▁report	-4368
▁retire	-4369
▁rubber	-4370
▁saalon	-4371
▁saamna	-4372
▁sahara	-4373
▁saharo	-4374
▁sakane	-4375
▁sallak	-4376
▁samaan	-4377
▁samosa	-4378
▁shagun	-4379
▁shakti	-4380
▁sharam	-4381
▁shared	-4382
▁sharma	-4383
▁sugand	-4384
▁sukhai	-4385
▁sunana	-4386
▁swanik	-4387
▁swasth	-4388
▁taamak	-4389
▁talwar	-4390
▁tankik	-4391
▁tareef	-4392
▁thaaki	-4393
▁tirsal	-4394
▁uphaar	-4395
▁upraun	-4396
▁uthanu	-4397
▁uunchi	-4398
▁vigyan	-4399
▁vishay	-4400
▁waanak	-4401
........	-4402
▁aanchhi	-4403
▁akhbaar	-4404
▁akramak	-4405
▁allergy	-4406
▁apnapan	-4407
▁aunchan	-4408
▁baandha	-4409
▁bachhak	-4410
▁bachhyo	-4411
▁badalan	-4412
▁badhali	-4413
▁bandhan	-4414
▁bhangak	-4415
▁bhukano	-4416
▁bukhaar	-4417
▁byanhak	-4418
▁chalani	-4419
▁chalaun	-4420
▁chalayo	-4421
▁chandra	-4422
▁cheejan	-4423
▁chhanan	-4424
▁chhanar	-4425
▁chhiplo	-4426
▁chidana	-4427
▁chipkai	-4428
▁daantak	-4429
▁dabalan	-4430
▁dakshin	-4431
▁dalidri	-4432
▁darshan	-4433
▁dekhank	-4434
▁dekhanu	-4435
▁dhakkan	-4436
▁dhaniya	-4437
▁dinchhe	-4438
▁dwinonk	-4439
▁ekmatra	-4440
▁fasalak	-4441
▁fridgek	-4442
▁garhwal	-4443
▁ghantak	-4444
▁haliber	-4445
▁hunchan	-4446
▁intjaar	-4447
▁jannana	-4448
▁joshilo	-4449
▁kapadak	-4450
▁kapadar	-4451
▁karanan	-4452
▁kasiber	-4453
▁kharabi	-4454
▁khaskar	-4455
▁khichdi	-4456
▁kisamak	-4457
▁kisanak	-4458
▁kudrati	-4459
▁laagali	-4460
▁likhiya	-4461
▁majedar	-4462
▁maninch	-4463
▁mehengi	-4464
▁mehengo	-4465
▁mishran	-4466
▁nanotuk	-4467
▁naregak	-4468
▁nariyal	-4469
▁padchha	-4470
▁padhanu	-4471
▁palayan	-4472
▁pankhak	-4473
▁parsidh	-4474
▁patwari	-4475
▁pavitar	-4476
▁prathna	-4477
▁radioak	-4478
▁reading	-4479
▁sabkuch	-4480
▁sabunak	-4481
▁sadasya	-4482
▁sambhal	-4483
▁sampann	-4484
▁sarkaar	-4485
▁sasural	-4486
▁sawarik	-4487
▁scooter	-4488
▁service	-4489
▁setting	-4490
▁sididar	-4491
▁sikhala	-4492
▁sikhano	-4493
▁steelak	-4494
▁tension	-4495
▁thandak	-4496
▁torchak	-4497
▁uthanak	-4498
▁voltage	-4499
▁website	-4500
▁aangulak	-4501
▁achaanak	-4502
▁adhakari	-4503
▁adhbatti	-4504
▁bachanak	-4505
▁badhanak	-4506
▁bakhatak	-4507
▁banoonan	-4508
▁basantak	-4509
▁bhaganak	-4510
▁bhandaar	-4511
▁chalanch	-4512
▁charging	-4513
▁chetauni	-4514
▁churkani	-4515
▁daatulak	-4516
▁dekhaano	-4517
▁dihaalak	-4518
▁dukandar	-4519
▁ganchhan	-4520
▁ghughute	-4521
▁gyechhin	-4522
▁homework	-4523
▁jaankari	-4524
▁janwaron	-4525
▁jaroorat	-4526
▁karchhin	-4527
▁lagoonan	-4528
▁linchhan	-4529
▁linterak	-4530
▁mandirar	-4531
▁mombatti	-4532
▁naachana	-4533
▁nainital	-4534
▁nuksanak	-4535
▁pahunchi	-4536
▁pairanan	-4537
▁ramleela	-4538
▁ranechan	-4539
▁sajaawat	-4540
▁sangiyon	-4541
▁sarpanch	-4542
▁sasuraal	-4543
▁screenak	-4544
▁sheherak	-4545
▁tamaatar	-4546
▁tarkarik	-4547
▁aashirwad	-4548
▁bhaitauli	-4549
▁buloonchu	-4550
▁chuttiyan	-4551
▁garampani	-4552
▁hariyaali	-4553
▁jaanchhya	-4554
▁jaanwarak	-4555
▁jageshwar	-4556
▁manokamna	-4557
▁meharbani	-4558
▁paharpani	-4559
▁parivarak	-4560
▁pradhanak	-4561
▁puchhanak	-4562
▁pustakala	-4563
▁rasayanik	-4564
▁sawariyan	-4565
▁thaanadar	-4566
▁tractorak	-4567
▁bhagyshali	-4568
▁blackboard	-4569
▁daranchhan	-4570
▁sanskritik	-4571
▁bharosemand	-4572
▁maintenance	-4573
▁pithoragarh	-4574
▁uttarakhand	-4575
ps	-4576
ary	-4577
bur	-4578
cen	-4579
cro	-4580
fan	-4581
ila	-4582
kum	-4583
kut	-4584
lay	-4585
lto	-4586
mba	-4587
otp	-4588
pum	-4589
sir	-4590
sok	-4591
uet	-4592
ung	-4593
▁id	-4594
▁or	-4595
▁os	-4596
alth	-4597
amra	-4598
anar	-4599
bag	-4600
dki	-4601
gan	-4602
▁hu	-4603
abhi	-4604
addi	-4605
arua	-4606
asil	-4607
baap	-4608
baba	-4609
babu	-4610
badi	-4611
bagh	-4612
beti	-4613
buli	-4614
cian	-4615
cker	-4616
cola	-4617
ctri	-4618
dern	-4619
ding	-4620
gula	-4621
gyal	-4622
haya	-4623
heno	-4624
hera	-4625
hion	-4626
hnai	-4627
hrad	-4628
huki	-4629
hyal	-4630
hyas	-4631
illy	-4632
itol	-4633
iver	-4634
juli	-4635
jwal	-4636
kana	-4637
kath	-4638
king	-4639
lete	-4640
maar	-4641
meed	-4642
naak	-4643
olgi	-4644
onar	-4645
ooth	-4646
payo	-4647
phir	-4648
pump	-4649
rama	-4650
rans	-4651
rasi	-4652
raye	-4653
ribe	-4654
ruck	-4655
sahi	-4656
shab	-4657
sham	-4658
skan	-4659
suli	-4660
taak	-4661
taan	-4662
tami	-4663
tank	-4664
tawa	-4665
thak	-4666
umak	-4667
usto	-4668
vate	-4669
vida	-4670
waaj	-4671
wadi	-4672
ware	-4673
wath	-4674
yani	-4675
yate	-4676
▁amr	-4677
▁big	-4678
▁but	-4679
▁cap	-4680
▁col	-4681
▁dry	-4682
▁ele	-4683
▁eng	-4684
▁esi	-4685
▁fay	-4686
▁hui	-4687
▁huk	-4688
▁ins	-4689
▁jau	-4690
▁jet	-4691
▁jio	-4692
▁jma	-4693
▁kum	-4694
▁kup	-4695
▁mol	-4696
▁nao	-4697
▁new	-4698
▁otp	-4699
hia	-4700
hni	-4701
ity	-4702
kis	-4703
lel	-4704
lyo	-4705
wah	-4706
▁fe	-4707
▁fr	-4708
aini	-4709
haul	-4710
kara	-4711
lali	-4712
oona	-4713
rame	-4714
rata	-4715
shte	-4716
sity	-4717
uluk	-4718
waur	-4719
▁ful	-4720
▁lha	-4721
▁puj	-4722
▁ret	-4723
▁sap	-4724
▁sis	-4725
▁sof	-4726
▁spr	-4727
▁suj	-4728
▁tay	-4729
▁til	-4730
▁top	-4731
▁twi	-4732
▁vit	-4733
aabak	-4734
aadar	-4735
aahit	-4736
adars	-4737
aelle	-4738
agado	-4739
aipan	-4740
ality	-4741
ansak	-4742
asing	-4743
baaji	-4744
bhati	-4745
cchar	-4746
cense	-4747
chaan	-4748
chang	-4749
chani	-4750
chint	-4751
chori	-4752
cribe	-4753
cycle	-4754
daari	-4755
danak	-4756
dayak	-4757
dhata	-4758
diyon	-4759
hakak	-4760
hatak	-4761
heeri	-4762
henga	-4763
honak	-4764
inema	-4765
ingad	-4766
irbir	-4767
janak	-4768
jatra	-4769
kidar	-4770
kumar	-4771
malik	-4772
oilak	-4773
oorik	-4774
oothi	-4775
paste	-4776
phone	-4777
ratri	-4778
ripha	-4779
shtik	-4780
shyak	-4781
tanak	-4782
tauli	-4783
tavya	-4784
urier	-4785
uuhik	-4786
varan	-4787
vatik	-4788
waale	-4789
wanda	-4790
watak	-4791
yaapp	-4792
yanbe	-4793
▁aanw	-4794
▁aija	-4795
▁ajik	-4796
▁anya	-4797
▁asad	-4798
▁baai	-4799
fri	-4800
une	-4801
▁th	-4802
agaj	-4803
ajat	-4804
chri	-4805
guna	-4806
hair	-4807
haut	-4808
hiya	-4809
hodi	-4810
inak	-4811
maat	-4812
mika	-4813
oori	-4814
pali	-4815
▁cal	-4816
▁chh	-4817
▁git	-4818
▁ice	-4819
angak	-4820
omika	-4821
▁apuk	-4822
▁baak	-4823
▁bali	-4824
▁bawe	-4825
▁bema	-4826
▁bhui	-4827
▁bita	-4828
▁budi	-4829
▁bulb	-4830
▁buli	-4831
▁byol	-4832
▁care	-4833
▁chil	-4834
▁chim	-4835
▁chuk	-4836
▁coca	-4837
▁daar	-4838
▁dama	-4839
▁darj	-4840
▁dawa	-4841
▁debi	-4842
▁dhap	-4843
▁dire	-4844
▁diun	-4845
▁dohr	-4846
▁dori	-4847
▁draw	-4848
▁dubi	-4849
▁dush	-4850
▁ekta	-4851
▁feat	-4852
▁fees	-4853
▁free	-4854
▁gaab	-4855
▁gani	-4856
▁ghod	-4857
▁gidh	-4858
▁gram	-4859
▁gupt	-4860
▁gyar	-4861
▁hili	-4862
▁hill	-4863
▁hira	-4864
▁iman	-4865
▁jaul	-4866
▁jeen	-4867
▁jike	-4868
▁jile	-4869
▁joda	-4870
▁junl	-4871
▁jwar	-4872
▁kabj	-4873
▁kada	-4874
▁kadu	-4875
▁kaik	-4876
▁kank	-4877
▁kaun	-4878
▁keet	-4879
▁khaw	-4880
▁khop	-4881
▁kila	-4882
▁kism	-4883
▁kuke	-4884
▁kuni	-4885
▁kuwa	-4886
▁lakh	-4887
▁lala	-4888
▁lati	-4889
▁lela	-4890
▁lena	-4891
▁lene	-4892
▁lhai	-4893
▁libr	-4894
▁likh	-4895
▁linu	-4896
▁lyal	-4897
▁maay	-4898
▁majb	-4899
baj	-4900
len	-4901
ola	-4902
▁us	-4903
aath	-4904
anam	-4905
baig	-4906
ghar	-4907
hala	-4908
kaar	-4909
rant	-4910
than	-4911
utai	-4912
▁hoi	-4913
▁juk	-4914
aadho	-4915
adaar	-4916
chhak	-4917
dagad	-4918
hadak	-4919
meter	-4920
ukhar	-4921
vidha	-4922
▁chai	-4923
▁guna	-4924
▁mama	-4925
▁maps	-4926
▁masi	-4927
▁maus	-4928
▁meen	-4929
▁meja	-4930
▁mess	-4931
▁momo	-4932
▁much	-4933
▁naap	-4934
▁naav	-4935
▁nach	-4936
▁nami	-4937
▁nath	-4938
▁neem	-4939
▁neta	-4940
▁paad	-4941
▁paak	-4942
▁paap	-4943
▁pant	-4944
▁patj	-4945
▁phar	-4946
▁phul	-4947
▁pith	-4948
▁piyo	-4949
▁poos	-4950
▁prav	-4951
▁pyaj	-4952
▁raak	-4953
▁rach	-4954
▁rayo	-4955
▁roji	-4956
▁roka	-4957
▁roni	-4958
▁roop	-4959
▁roti	-4960
▁rupi	-4961
▁saga	-4962
▁sama	-4963
▁samm	-4964
▁sani	-4965
▁sant	-4966
▁saur	-4967
▁sawa	-4968
▁seka	-4969
▁sher	-4970
▁shib	-4971
▁siri	-4972
▁sofa	-4973
▁soft	-4974
▁sona	-4975
▁srot	-4976
▁stha	-4977
▁subs	-4978
▁suto	-4979
▁suye	-4980
▁swat	-4981
▁syuk	-4982
▁taja	-4983
▁talo	-4984
▁tape	-4985
▁taro	-4986
▁tawa	-4987
▁thuk	-4988
▁tube	-4989
▁type	-4990
▁ubal	-4991
▁ufan	-4992
▁ugai	-4993
▁ugan	-4994
▁ukan	-4995
▁umas	-4996
▁uspe	-4997
▁utlo	-4998
▁weka	-4999
yr	-5000
hav	-5001
nai	-5002
oos	-5003
pit	-5004
yin	-5005
▁cm	-5006
▁ur	-5007
▁wi	-5008
asur	-5009
baat	-5010
bhad	-5011
urit	-5012
wayo	-5013
yaro	-5014
▁aei	-5015
▁jak	-5016
▁lip	-5017
▁phu	-5018
▁unn	-5019
▁uts	-5020
▁wak	-5021
abhav	-5022
adari	-5023
alook	-5024
ammat	-5025
asyak	-5026
bhatt	-5027
wajak	-5028
▁bhen	-5029
▁brah	-5030
▁buro	-5031
▁code	-5032
▁delu	-5033
▁hida	-5034
▁judi	-5035
▁karn	-5036
▁kasa	-5037
▁laat	-5038
▁lage	-5039
▁maet	-5040
▁moon	-5041
▁nhan	-5042
▁wese	-5043
▁yani	-5044
▁yasa	-5045
▁yehi	-5046
aadhan	-5047
aathna	-5048
anchhu	-5049
arigar	-5050
asiddh	-5051
bastha	-5052
betime	-5053
bhattk	-5054
bholak	-5055
dhanda	-5056
dusrak	-5057
former	-5058
hradun	-5059
ikarak	-5060
jalebi	-5061
kharik	-5062
kyaapp	-5063
lakhia	-5064
maathu	-5065
nashak	-5066
pichha	-5067
schint	-5068
takhat	-5069
uality	-5070
udkani	-5071
vastha	-5072
▁aabha	-5073
▁aakar	-5074
▁aalas	-5075
▁aanan	-5076
▁aansu	-5077
▁aapas	-5078
▁aasir	-5079
▁aasro	-5080
▁abhik	-5081
▁aiber	-5082
▁akash	-5083
▁alarm	-5084
▁alook	-5085
▁anand	-5086
▁andak	-5087
▁apuke	-5088
▁arthi	-5089
▁asaad	-5090
▁aunlo	-5091
▁baasi	-5092
▁baato	-5093
▁badam	-5094
▁bagai	-5095
▁bagal	-5096
▁bagni	-5097
▁banne	-5098
▁banno	-5099
gu	-5100
kh	-5101
alu	-5102
bal	-5103
hee	-5104
hej	-5105
hot	-5106
lun	-5107
mad	-5108
rek	-5109
▁dj	-5110
▁no	-5111
alan	-5112
besi	-5113
daan	-5114
gadi	-5115
inan	-5116
tkan	-5117
waas	-5118
yata	-5119
▁ati	-5120
▁dep	-5121
▁dhu	-5122
▁lho	-5123
▁tas	-5124
eenik	-5125
kanak	-5126
miyal	-5127
▁adhi	-5128
▁admi	-5129
▁bhaj	-5130
▁bhit	-5131
▁ghen	-5132
▁guru	-5133
▁hidi	-5134
▁lhoo	-5135
▁sera	-5136
▁shuk	-5137
▁taan	-5138
eespat	-5139
▁aansi	-5140
▁banon	-5141
▁barah	-5142
▁batta	-5143
▁batto	-5144
▁batua	-5145
▁berak	-5146
▁bhaar	-5147
▁bhaav	-5148
▁bhaga	-5149
▁bhara	-5150
▁bhati	-5151
▁bhent	-5152
▁bhesh	-5153
▁bhiji	-5154
▁bhura	-5155
▁bhuri	-5156
▁birau	-5157
▁bulao	-5158
▁bulik	-5159
▁chani	-5160
▁chanu	-5161
▁charo	-5162
▁charu	-5163
▁chemi	-5164
▁chhun	-5165
▁ching	-5166
▁chusa	-5167
▁chutt	-5168
▁chyud	-5169
▁coach	-5170
▁cream	-5171
▁custo	-5172
▁cycle	-5173
▁daala	-5174
▁dairy	-5175
▁damru	-5176
▁darar	-5177
▁dasha	-5178
▁datun	-5179
▁dauda	-5180
▁dawak	-5181
▁dayal	-5182
▁deenk	-5183
▁denan	-5184
▁deoni	-5185
▁devik	-5186
▁dhaga	-5187
▁dhoop	-5188
▁dhund	-5189
▁diggi	-5190
▁dinen	-5191
▁dinul	-5192
▁dublo	-5193
▁dyalo	-5194
▁dyula	-5195
▁faadi	-5196
▁faide	-5197
▁fauji	-5198
▁fiber	-5199
sp	-5200
000	-5201
aaf	-5202
aai	-5203
ade	-5204
ami	-5205
gat	-5206
kad	-5207
und	-5208
jhan	-5209
paas	-5210
saar	-5211
▁chy	-5212
▁nav	-5213
▁rye	-5214
▁sul	-5215
ingak	-5216
▁aayi	-5217
▁anan	-5218
▁auri	-5219
▁hadd	-5220
▁hoin	-5221
▁kali	-5222
▁kisi	-5223
▁lunl	-5224
▁muud	-5225
▁nyol	-5226
▁phad	-5227
▁soup	-5228
▁taur	-5229
atarak	-5230
sionak	-5231
▁bataa	-5232
▁bhuti	-5233
▁ediya	-5234
▁frame	-5235
▁gaana	-5236
▁gaani	-5237
▁gaano	-5238
▁gadda	-5239
▁gajab	-5240
▁gajar	-5241
▁galar	-5242
▁galik	-5243
▁ganan	-5244
▁gando	-5245
▁ganga	-5246
▁gehri	-5247
▁genda	-5248
▁ghain	-5249
▁ghara	-5250
▁ghare	-5251
▁ghodo	-5252
▁gobhi	-5253
▁gujar	-5254
▁gussa	-5255
▁gutka	-5256
▁haija	-5257
▁halka	-5258
▁hatai	-5259
▁hathi	-5260
▁herai	-5261
▁hilan	-5262
▁hisse	-5263
▁hitul	-5264
▁hitun	-5265
▁huluk	-5266
▁inspe	-5267
▁jaank	-5268
▁jadan	-5269
▁jalsa	-5270
▁jamai	-5271
▁janak	-5272
▁janal	-5273
▁jannu	-5274
▁jarak	-5275
▁jasan	-5276
▁jeans	-5277
▁jhoda	-5278
▁jholi	-5279
▁jituk	-5280
▁jiyan	-5281
▁jukam	-5282
▁kaaka	-5283
▁kaaki	-5284
▁kaalo	-5285
▁kabja	-5286
▁kacha	-5287
▁kachi	-5288
▁kagaj	-5289
▁kahyo	-5290
▁kaiki	-5291
▁kakar	-5292
▁kamai	-5293
▁kaman	-5294
▁kanik	-5295
▁kardi	-5296
▁katai	-5297
▁katno	-5298
▁kelak	-5299
byo	-5300
▁khaai	-5301
▁khala	-5302
▁khaye	-5303
▁khodi	-5304
▁khoja	-5305
▁khyal	-5306
▁kimat	-5307
▁kipar	-5308
▁kisam	-5309
▁kissa	-5310
▁konar	-5311
▁kucho	-5312
▁kufri	-5313
▁kunch	-5314
▁kyama	-5315
▁laabh	-5316
▁laani	-5317
▁laash	-5318
▁ladan	-5319
▁lagao	-5320
▁lagau	-5321
▁lagel	-5322
▁lagol	-5323
▁lakid	-5324
▁lasun	-5325
▁laula	-5326
▁launk	-5327
▁leesa	-5328
▁lhyai	-5329
▁lhyun	-5330
▁likha	-5331
▁lipai	-5332
▁lipan	-5333
▁liyen	-5334
▁lohar	-5335
▁lutto	-5336
▁maagh	-5337
▁maare	-5338
▁maeli	-5339
▁maelo	-5340
▁maina	-5341
▁makar	-5342
▁manch	-5343
▁marun	-5344
▁masur	-5345
▁match	-5346
▁melak	-5347
▁micro	-5348
▁milya	-5349
▁morak	-5350
▁murga	-5351
▁naari	-5352
▁nachi	-5353
▁nakad	-5354
▁nakal	-5355
▁nanhi	-5356
▁nipat	-5357
▁nisan	-5358
▁nithi	-5359
▁order	-5360
▁paadi	-5361
▁paaka	-5362
▁paayo	-5363
▁padne	-5364
▁padni	-5365
▁pagal	-5366
▁pagli	-5367
▁paidi	-5368
▁pajeb	-5369
▁pankh	-5370
▁pasin	-5371
▁patai	-5372
▁patlo	-5373
▁peeli	-5374
▁pelii	-5375
▁phadi	-5376
▁phank	-5377
▁piber	-5378
▁pirak	-5379
▁piyan	-5380
▁piyun	-5381
▁poode	-5382
▁print	-5383
▁pucha	-5384
▁pujak	-5385
▁punyu	-5386
▁pyaas	-5387
▁pyari	-5388
▁pyaro	-5389
▁pyoli	-5390
▁rakam	-5391
▁rakch	-5392
▁ranak	-5393
▁rasak	-5394
▁rasyo	-5395
▁rayan	-5396
▁relak	-5397
▁rokun	-5398
▁runan	-5399
▁rupia	-5400
▁saban	-5401
▁sabha	-5402
▁sadhe	-5403
▁safai	-5404
▁sakul	-5405
▁sakyu	-5406
▁sallo	-5407
▁sanjo	-5408
▁sasto	-5409
▁sauda	-5410
▁shyal	-5411
▁sidhi	-5412
▁sikho	-5413
▁siran	-5414
▁situl	-5415
▁socha	-5416
▁speed	-5417
▁store	-5418
▁sugar	-5419
▁sujan	-5420
▁swale	-5421
▁syala	-5422
▁taang	-5423
▁talab	-5424
▁talak	-5425
▁tapan	-5426
▁tarai	-5427
▁taron	-5428
▁thaal	-5429
▁thada	-5430
▁thail	-5431
▁thair	-5432
▁thand	-5433
▁theen	-5434
▁theke	-5435
▁thung	-5436
▁tikki	-5437
▁tithi	-5438
▁tokri	-5439
▁tooth	-5440
▁trans	-5441
▁truck	-5442
▁udanu	-5443
▁udhar	-5444
▁ujaad	-5445
▁ujyal	-5446
▁ukkal	-5447
▁unchi	-5448
▁uphar	-5449
▁upwas	-5450
▁uthne	-5451
▁uunch	-5452
▁vitam	-5453
▁wakai	-5454
antrata	-5455
aratmak	-5456
dakhadi	-5457
harshak	-5458
hayaunn	-5459
maskari	-5460
shtedar	-5461
unchhan	-5462
▁aachri	-5463
▁aanwlo	-5464
▁aapdak	-5465
▁aasani	-5466
▁aatank	-5467
▁aatmak	-5468
▁abhaar	-5469
▁abhyas	-5470
▁agadik	-5471
▁airadi	-5472
▁airaye	-5473
▁ajwain	-5474
▁alvida	-5475
▁amrood	-5476
▁andajn	-5477
▁aunchu	-5478
▁awajak	-5479
▁baakik	-5480
▁baarik	-5481
▁bachau	-5482
▁badhal	-5483
▁bahute	-5484
▁bajani	-5485
▁bakbak	-5486
▁banani	-5487
▁banjar	-5488
▁banuno	-5489
▁barfak	-5490
▁bargad	-5491
▁batala	-5492
▁batanu	-5493
▁bataya	-5494
▁batayo	-5495
▁battik	-5496
▁bhaagi	-5497
▁bhagat	-5498
▁bhajan	-5499
▁bharne	-5500
▁bharnu	-5501
▁bharul	-5502
▁bharyo	-5503
▁bhasam	-5504
▁bhavuk	-5505
▁bhulun	-5506
▁bhutir	-5507
▁bichar	-5508
▁bigaad	-5509
▁bisham	-5510
▁biskut	-5511
▁bolana	-5512
▁bolanu	-5513
▁bugyal	-5514
▁bukhar	-5515
▁bulaye	-5516
▁button	-5517
▁bwarik	-5518
▁byolik	-5519
▁chaand	-5520
▁chaino	-5521
▁chalni	-5522
▁chalte	-5523
▁chalti	-5524
▁chamdi	-5525
▁chamma	-5526
▁chanda	-5527
▁chanfi	-5528
▁chawal	-5529
▁chikni	-5530
▁chipal	-5531
▁chipki	-5532
▁chyono	-5533
▁daalak	-5534
▁darawa	-5535
▁daroni	-5536
▁daudan	-5537
▁dekhao	-5538
▁dekhen	-5539
▁dekhna	-5540
▁dekhni	-5541
▁dekhya	-5542
▁delete	-5543
▁dhanda	-5544
▁dhandh	-5545
▁dharan	-5546
▁dharil	-5547
▁dharti	-5548
▁dhundh	-5549
▁dikhao	-5550
▁doston	-5551
▁dukhno	-5552
▁dusron	-5553
▁duster	-5554
▁faidak	-5555
▁foilak	-5556
▁gaanak	-5557
▁gaderi	-5558
▁garmik	-5559
▁gattak	-5560
▁ghaata	-5561
▁ghaati	-5562
▁gharat	-5563
▁gharua	-5564
▁ghumai	-5565
▁ghurad	-5566
▁ghusno	-5567
▁ghutuk	-5568
▁girish	-5569
▁gothak	-5570
▁gudiya	-5571
▁guplel	-5572
▁haasil	-5573
▁haftak	-5574
▁hamari	-5575
▁handle	-5576
▁haptak	-5577
▁hariya	-5578
▁hathak	-5579
▁health	-5580
▁herige	-5581
▁hilani	-5582
▁hweber	-5583
▁hyunak	-5584
▁ijajat	-5585
▁jacket	-5586
▁jalaan	-5587
▁jalala	-5588
▁jaldik	-5589
▁jamana	-5590
▁jeetak	-5591
▁jhaadi	-5592
▁jhadan	-5593
▁jhagad	-5594
▁jodanu	-5595
▁judiya	-5596
▁jugaad	-5597
▁jyunak	-5598
▁kaalaf	-5599
▁kaatik	-5600
▁kameej	-5601
▁kamrak	-5602
▁kanchh	-5603
▁karaan	-5604
▁karalo	-5605
▁karjak	-5606
▁karnen	-5607
▁karuli	-5608
▁karuni	-5609
▁kattan	-5610
▁kautik	-5611
▁kauvan	-5612
▁keedak	-5613
▁khaanu	-5614
▁khaati	-5615
▁khaato	-5616
▁khamba	-5617
▁khansi	-5618
▁kharee	-5619
▁khatir	-5620
▁khaula	-5621
▁khayen	-5622
▁kheera	-5623
▁khelte	-5624
▁khetan	-5625
▁khichi	-5626
▁khilal	-5627
▁khulni	-5628
▁khulyo	-5629
▁khutak	-5630
▁kileki	-5631
▁kirmod	-5632
▁kudaal	-5633
▁kudano	-5634
▁kulhad	-5635
▁kumaun	-5636
▁kunchh	-5637
▁laagan	-5638
▁laakad	-5639
▁ladana	-5640
▁lagola	-5641
▁lagunl	-5642
▁lalten	-5643
▁latkan	-5644
▁lhaana	-5645
▁lijala	-5646
▁lijaul	-5647
▁likhyo	-5648
▁liyate	-5649
▁lukhak	-5650
▁lyauno	-5651
▁maalum	-5652
▁maarni	-5653
▁maasak	-5654
▁maayne	-5655
▁mainon	-5656
▁majdur	-5657
▁malish	-5658
▁manala	-5659
▁masalo	-5660
▁master	-5661
▁milaya	-5662
▁modern	-5663
▁munshi	-5664
▁naabhi	-5665
▁naraaj	-5666
▁naulak	-5667
▁nhanak	-5668
▁nikala	-5669
▁paalar	-5670
▁paanak	-5671
▁paatar	-5672
▁pachak	-5673
▁padhul	-5674
▁padigo	-5675
▁pahaad	-5676
▁pahada	-5677
▁pailag	-5678
▁pairul	-5679
▁pakadi	-5680
▁pakwan	-5681
▁pandra	-5682
▁pankho	-5683
▁parali	-5684
▁pataal	-5685
▁pathal	-5686
▁pensan	-5687
▁peshab	-5688
▁phagun	-5689
▁phaili	-5690
▁pharsi	-5691
▁phedul	-5692
▁phurti	-5693
▁pighli	-5694
▁pingul	-5695
▁pirane	-5696
▁pishan	-5697
▁pithya	-5698
▁poshan	-5699
▁poster	-5700
▁pranam	-5701
▁pratik	-5702
▁prerna	-5703
▁puchhi	-5704
▁puchye	-5705
▁punjab	-5706
▁purkha	-5707
▁raatuk	-5708
▁ragadi	-5709
▁rakhyo	-5710
▁raseed	-5711
▁rukaye	-5712
▁saagak	-5713
▁saalak	-5714
▁saalan	-5715
▁sakala	-5716
▁sakani	-5717
▁sakiyu	-5718
▁saknan	-5719
▁samjha	-5720
▁sangat	-5721
▁sankal	-5722
▁sankur	-5723
▁sarsok	-5724
▁seedhi	-5725
▁sharir	-5726
▁shibau	-5727
▁shobha	-5728
▁shuddh	-5729
▁sikhai	-5730
▁sikhal	-5731
▁sikhnu	-5732
▁sochnu	-5733
▁somwar	-5734
▁sthiti	-5735
▁suhano	-5736
▁sunita	-5737
▁sutyed	-5738
▁swaani	-5739
▁swadil	-5740
▁taajgi	-5741
▁tairan	-5742
▁takkar	-5743
▁tameej	-5744
▁tankha	-5745
▁teenak	-5746
▁thaali	-5747
▁thaila	-5748
▁thaili	-5749
▁thakan	-5750
▁thakur	-5751
▁todana	-5752
▁tumare	-5753
▁tyaron	-5754
▁udanen	-5755
▁ugoonk	-5756
▁ujjwal	-5757
▁ukalar	-5758
▁ummeed	-5759
▁unchai	-5760
▁univer	-5761
▁uparak	-5762
▁uparik	-5763
▁upchar	-5764
▁uthalo	-5765
▁uthana	-5766
▁vikaas	-5767
▁waalan	-5768
▁weeder	-5769
ctrician	-5770
khatarua	-5771
naatinak	-5772
riphalak	-5773
▁akheeri	-5774
▁anganak	-5775
▁ankurit	-5776
▁awaajak	-5777
▁baansak	-5778
▁bachhda	-5779
▁badalne	-5780
▁badhawa	-5781
▁badhiya	-5782
▁badmash	-5783
▁bagicho	-5784
▁baharak	-5785
▁baisakh	-5786
▁baithai	-5787
▁bajanak	-5788
▁bajarar	-5789
▁banaana	-5790
▁bananen	-5791
▁bandaro	-5792
▁baraton	-5793
▁bechain	-5794
▁bechani	-5795
▁bhaiyon	-5796
▁bharosa	-5797
▁bhautai	-5798
▁bhinjyu	-5799
▁bhotiya	-5800
▁bhuniyo	-5801
▁bhuttak	-5802
▁bidhata	-5803
▁bihanak	-5804
▁booking	-5805
▁chaitak	-5806
▁chalaak	-5807
▁chalaan	-5808
▁chalane	-5809
▁chalanu	-5810
▁chalaye	-5811
▁chamgad	-5812
▁chandik	-5813
▁charcha	-5814
▁cheenik	-5815
▁chhadan	-5816
▁chheeni	-5817
▁chhidki	-5818
▁chhodni	-5819
▁chhuune	-5820
▁chintak	-5821
▁chipali	-5822
▁chirbir	-5823
▁chitrak	-5824
▁chyalon	-5825
▁classak	-5826
▁courier	-5827
▁dagadak	-5828
▁daranch	-5829
▁dekhana	-5830
▁dekhino	-5831
▁dekhula	-5832
▁dharanu	-5833
▁dhariya	-5834
▁dhariye	-5835
▁dikhana	-5836
▁dikhanu	-5837
▁dinanar	-5838
▁dinchhu	-5839
▁diwalar	-5840
▁diwalon	-5841
▁drishya	-5842
▁dulhain	-5843
▁dyavtak	-5844
▁dyekhan	-5845
▁fashion	-5846
▁feature	-5847
▁gaabhin	-5848
▁gahatak	-5849
▁ganchha	-5850
▁gapshap	-5851
▁garibak	-5852
▁gawahak	-5853
▁ghumana	-5854
▁ghumano	-5855
▁giloyak	-5856
▁haalanu	-5857
▁hajarak	-5858
▁hanuman	-5859
▁haptaak	-5860
▁hissaar	-5861
▁hitanak	-5862
▁ichchha	-5863
▁imandar	-5864
▁jaancha	-5865
▁jadatar	-5866
▁janchhu	-5867
▁jawanan	-5868
▁jhootho	-5869
▁jodiber	-5870
▁kaanana	-5871
▁kaanuno	-5872
▁kabaddi	-5873
▁karalan	-5874
▁karooni	-5875
▁kasikai	-5876
▁khaadak	-5877
▁khelich	-5878
▁khilaaf	-5879
▁khilona	-5880
▁khincha	-5881
▁khiskan	-5882
▁khojanu	-5883
▁khujani	-5884
▁khulano	-5885
▁khurdur	-5886
▁kirayak	-5887
▁kirmoda	-5888
▁konchha	-5889
▁kunchhi	-5890
▁kurdano	-5891
▁laachar	-5892
▁laagala	-5893
▁laaguno	-5894
▁laalten	-5895
▁lagoonu	-5896
▁lagunak	-5897
▁lakidak	-5898
▁lakshmi	-5899
▁lasunak	-5900
▁latkaye	-5901
▁lehenga	-5902
▁lhaiber	-5903
▁license	-5904
▁lijaunu	-5905
▁lipanak	-5906
▁lyanchh	-5907
▁maachho	-5908
▁maahaul	-5909
▁maalish	-5910
▁maaluak	-5911
▁maanjan	-5912
▁machhar	-5913
▁mahango	-5914
▁mahenat	-5915
▁mangayo	-5916
▁maninan	-5917
▁manjoor	-5918
▁mankhik	-5919
▁masalak	-5920
▁meeting	-5921
▁mehenga	-5922
▁mehnati	-5923
▁mehsoos	-5924
▁message	-5925
▁milanak	-5926
▁muhurat	-5927
▁mukhaut	-5928
▁mulethi	-5929
▁mungari	-5930
▁nachana	-5931
▁namoona	-5932
▁nanatik	-5933
▁natijak	-5934
▁ninadar	-5935
▁padanan	-5936
▁padhana	-5937
▁padosak	-5938
▁pahunch	-5939
▁pakaana	-5940
▁pandrah	-5941
▁pansuli	-5942
▁parchik	-5943
▁patakha	-5944
▁paudhan	-5945
▁peesyak	-5946
▁phenkan	-5947
▁phisali	-5948
▁pichhil	-5949
▁pighlai	-5950
▁piranan	-5951
▁pisiber	-5952
▁pitaron	-5953
▁plumber	-5954
▁poshtik	-5955
▁pradars	-5956
▁private	-5957
▁radioar	-5958
▁railing	-5959
▁rakshak	-5960
▁ranchho	-5961
▁reserve	-5962
▁rukawat	-5963
▁rupiyak	-5964
▁sagawal	-5965
▁sakinan	-5966
▁samjhai	-5967
▁sammank	-5968
▁sanjhak	-5969
▁sansaar	-5970
▁santush	-5971
▁saubhag	-5972
▁section	-5973
▁shahari	-5974
▁shantik	-5975
▁sikhaye	-5976
▁sikhayo	-5977
▁somvaar	-5978
▁speaker	-5979
▁sugandh	-5980
▁sukhana	-5981
▁sukhano	-5982
▁sunanar	-5983
▁sunchha	-5984
▁suvidha	-5985
▁swabhav	-5986
▁swadilo	-5987
▁tankhwa	-5988
▁tarahak	-5989
▁tarakki	-5990
▁utarala	-5991
▁vinamra	-5992
pichhaura	-5993
▁aadmiyan	-5994
▁adkharik	-5995
▁angoothi	-5996
▁asafalta	-5997
▁aunchhan	-5998
▁baandhan	-5999
▁baantala	-6000
▁bachayel	-6001
▁bajaarak	-6002
▁bajaiber	-6003
▁banchhan	-6004
▁bandarya	-6005
▁banoiber	-6006
▁barasing	-6007
▁bareilly	-6008
▁barsatak	-6009
▁bechanan	-6010
▁bemausam	-6011
▁bhejanak	-6012
▁bhoomika	-6013
▁bhumiyal	-6014
▁bichhanu	-6015
▁bunchhan	-6016
▁chaalaan	-6017
▁chadhanu	-6018
▁chahunch	-6019
▁chaprasi	-6020
▁chhantan	-6021
▁chhinani	-6022
▁chhitkan	-6023
▁chhodana	-6024
▁chidiyan	-6025
▁chidiyon	-6026
▁chudkani	-6027
▁chunauti	-6028
▁computer	-6029
▁customer	-6030
▁dakshina	-6031
▁dangarak	-6032
▁darwajak	-6033
▁dehradun	-6034
▁dekhinan	-6035
▁devtanak	-6036
▁director	-6037
▁dukhanan	-6038
▁dyavtank	-6039
▁gaadiyon	-6040
▁gadherar	-6041
▁ganchhin	-6042
▁garmiyak	-6043
▁ghamandi	-6044
▁ghughuti	-6045
▁ghumanak	-6046
▁handpump	-6047
▁haspatal	-6048
▁hiljatra	-6049
▁hisaabak	-6050
▁itihasak	-6051
▁jaanchha	-6052
▁jagariya	-6053
▁jimadari	-6054
▁kaagajak	-6055
▁kaarigar	-6056
▁kanchhan	-6057
▁kartavya	-6058
▁khacchar	-6059
▁kharidan	-6060
▁khatarua	-6061
▁khelanak	-6062
▁khilanan	-6063
▁kholanak	-6064
▁lyanchha	-6065
▁maanjanu	-6066
▁maanyata	-6067
▁mahamari	-6068
▁marammat	-6069
▁matlabak	-6070
▁mausamar	-6071
▁milaiber	-6072
▁mirachak	-6073
▁naamwali	-6074
▁naanatin	-6075
▁nanpanak	-6076
▁nischint	-6077
▁paanchak	-6078
▁pachason	-6079
▁painting	-6080
▁palangak	-6081
▁panchang	-6082
▁parvatik	-6083
▁patharar	-6084
▁pighalto	-6085
▁poonimak	-6086
▁praathna	-6087
▁prakriti	-6088
▁prakriya	-6089
▁prarthna	-6090
▁prasiddh	-6091
▁puchhano	-6092
▁puchhanu	-6093
▁puncture	-6094
▁railgadi	-6095
▁rajkumar	-6096
▁rakhanch	-6097
▁ranchhin	-6098
▁saamagri	-6099
▁saamuhik	-6100
▁saavdhan	-6101
▁sabjiyan	-6102
▁sadasyak	-6103
▁sakchhan	-6104
▁samachar	-6105
▁samajhan	-6106
▁samjhana	-6107
▁sampatti	-6108
▁sangrant	-6109
▁savadhan	-6110
▁software	-6111
▁sthaniya	-6112
▁sunahala	-6113
▁sundarta	-6114
▁swaniyon	-6115
▁tufaanar	-6116
▁utsaahit	-6117
▁vigyanak	-6118
▁aanandmay	-6119
▁aasirbaad	-6120
▁asahaniya	-6121
▁baithunlo	-6122
▁banaanchu	-6123
▁bhavishya	-6124
▁bireespat	-6125
▁budhyadan	-6126
▁byabastha	-6127
▁chalanchh	-6128
▁chhanchar	-6129
▁chheliyon	-6130
▁chhutkara	-6131
▁chithiyon	-6132
▁chowkidar	-6133
▁dangariya	-6134
▁dastakhat	-6135
▁dekhanchu	-6136
▁dikhanchh	-6137
▁garhwalak	-6138
▁imtiaanak	-6139
▁jaldbaaji	-6140
▁jhangorak	-6141
▁khichunla	-6142
▁khidkiyan	-6143
▁khushiyon	-6144
▁kilometer	-6145
▁mahenatak	-6146
▁milanchha	-6147
▁nikalanak	-6148
▁pahuchano	-6149
▁pahunchai	-6150
▁pahunchan	-6151
▁paidawaar	-6152
▁parikrama	-6153
▁parivarik	-6154
▁patjhadak	-6155
▁pensionak	-6156
▁pichyanbe	-6157
▁praveshak	-6158
▁purkhonak	-6159
▁rishtedar	-6160
▁saadharan	-6161
▁saamuuhik	-6162
▁samaadhan	-6163
▁samajhano	-6164
▁samjhanch	-6165
▁sthaaniya	-6166
▁subscribe	-6167
▁tamatarak	-6168
▁thekedaar	-6169
▁bhavishyak	-6170
▁chahanchhu	-6171
▁chahunchhu	-6172
▁ghughutiya	-6173
▁janamdinak	-6174
▁jimmedaari	-6175
▁keetnashak	-6176
▁khadakhadi	-6177
▁khatarnaak	-6178
▁microphone	-6179
▁milanchhan	-6180
▁motorcycle	-6181
▁pahuchanak	-6182
▁pratikriya	-6183
▁pustakalay	-6184
▁shaharonar	-6185
▁toothpaste	-6186
▁ummeedwaar	-6187
▁ummidwarak	-6188
▁university	-6189
▁bhagyashali	-6190
▁chahanchhan	-6191
▁electrician	-6192
▁laaganchhan	-6193
▁panchayatak	-6194
▁pradarshani	-6195
▁sambhaliber	-6196
▁sangharshak	-6197
▁swatantrata	-6198
▁transformer	-6199
▁headmasterak	-6200
▁shaktishaali	-6201
▁shubhkamnayein	-6202
afe	-6203
cco	-6204
jjo	-6205
nku	-6206
0000	-6207
abbe	-6208
afir	-6209
bade	-6210
ball	-6211
buro	-6212
cial	-6213
dale	-6214
duni	-6215
ebru	-6216
forg	-6217
fund	-6218
gaud	-6219
ghee	-6220
ghor	-6221
ghro	-6222
ject	-6223
kler	-6224
kosh	-6225
kuda	-6226
kura	-6227
leef	-6228
lini	-6229
main	-6230
mory	-6231
mtal	-6232
mung	-6233
naja	-6234
ount	-6235
paai	-6236
pier	-6237
ptem	-6238
skri	-6239
suha	-6240
tapu	-6241
upht	-6242
uwak	-6243
ways	-6244
yaav	-6245
yuri	-6246
▁fru	-6247
▁guj	-6248
▁lhy	-6249
▁nov	-6250
▁ruw	-6251
▁ull	-6252
▁ure	-6253
▁yud	-6254
agrik	-6255
ajaya	-6256
amrit	-6257
ansai	-6258
anvas	-6259
armai	-6260
arpit	-6261
ayani	-6262
bahut	-6263
banik	-6264
begar	-6265
berry	-6266
bhang	-6267
bhura	-6268
byaan	-6269
ccoli	-6270
cooli	-6271
count	-6272
eejar	-6273
ekhye	-6274
ently	-6275
eriod	-6276
ffler	-6277
ghtak	-6278
ghuri	-6279
ghway	-6280
girah	-6281
gulak	-6282
gunan	-6283
hauti	-6284
hnawa	-6285
hthin	-6286
hyaro	-6287
ikund	-6288
jaber	-6289
light	-6290
linic	-6291
louse	-6292
lyonu	-6293
madin	-6294
murak	-6295
phola	-6296
phood	-6297
pinak	-6298
pisan	-6299
dolu	-6300
halu	-6301
luet	-6302
ment	-6303
pion	-6304
topi	-6305
entre	-6306
shwas	-6307
sirik	-6308
soori	-6309
splay	-6310
sturi	-6311
tenna	-6312
theek	-6313
uawja	-6314
ukaya	-6315
ukhon	-6316
ungus	-6317
uraha	-6318
urain	-6319
vanaj	-6320
vance	-6321
wayin	-6322
yagul	-6323
yamit	-6324
▁anil	-6325
▁anum	-6326
▁bojh	-6327
▁bpha	-6328
▁cafe	-6329
▁calc	-6330
▁cone	-6331
▁daah	-6332
▁datt	-6333
▁dyen	-6334
▁enak	-6335
▁fuka	-6336
▁full	-6337
▁game	-6338
▁gann	-6339
▁gast	-6340
▁grah	-6341
▁guji	-6342
▁gung	-6343
▁gunv	-6344
▁hasu	-6345
▁hway	-6346
▁jink	-6347
▁keki	-6348
▁kilm	-6349
▁kulg	-6350
▁kurs	-6351
▁leep	-6352
▁mask	-6353
▁mass	-6354
▁miss	-6355
▁mrit	-6356
▁muki	-6357
▁mung	-6358
▁naga	-6359
▁negi	-6360
▁nijo	-6361
▁nyaa	-6362
▁nyav	-6363
▁olgi	-6364
▁penc	-6365
▁prac	-6366
▁push	-6367
▁rall	-6368
▁rudi	-6369
▁ruwu	-6370
▁sain	-6371
▁saso	-6372
▁shik	-6373
▁shra	-6374
▁sird	-6375
▁sita	-6376
▁sulj	-6377
▁supo	-6378
▁thek	-6379
▁thik	-6380
▁tito	-6381
▁took	-6382
▁urea	-6383
▁urja	-6384
▁usme	-6385
▁viko	-6386
▁volv	-6387
▁yeki	-6388
baarak	-6389
badhar	-6390
bajyun	-6391
batsar	-6392
bhatke	-6393
burans	-6394
chitra	-6395
daandi	-6396
dedaar	-6397
dhajjo	-6398
erator	-6399
▁em	-6400
ckro	-6401
ebak	-6402
giri	-6403
lunk	-6404
▁ajg	-6405
baith	-6406
bakro	-6407
ember	-6408
ineer	-6409
▁ajab	-6410
▁alub	-6411
▁cook	-6412
▁emai	-6413
▁gain	-6414
▁keed	-6415
▁look	-6416
▁mudi	-6417
▁udyo	-6418
asatak	-6419
forgot	-6420
ggulak	-6421
gharat	-6422
hairya	-6423
hatthe	-6424
hchana	-6425
hithai	-6426
hukaya	-6427
huliar	-6428
ingadu	-6429
inkler	-6430
isturi	-6431
kanuni	-6432
kapali	-6433
kargha	-6434
kismat	-6435
lajuli	-6436
nayein	-6437
oongha	-6438
phirai	-6439
ritiya	-6440
shanti	-6441
tameej	-6442
ticker	-6443
ukhara	-6444
ulator	-6445
wjawan	-6446
▁aakho	-6447
▁aayin	-6448
▁adaar	-6449
▁adrak	-6450
▁ajgar	-6451
▁ajman	-6452
▁amdan	-6453
▁anyay	-6454
▁apnai	-6455
▁arhar	-6456
▁arpan	-6457
▁asadh	-6458
▁atank	-6459
▁baaja	-6460
▁bhaap	-6461
▁bhitr	-6462
▁bhulo	-6463
▁bindi	-6464
▁bluet	-6465
▁bojuk	-6466
▁bonak	-6467
▁boric	-6468
▁brahm	-6469
▁byaaj	-6470
▁byaak	-6471
▁byaal	-6472
▁byava	-6473
▁calci	-6474
▁chakr	-6475
▁chimn	-6476
▁chono	-6477
▁chook	-6478
▁choto	-6479
▁chumi	-6480
▁churd	-6481
▁chusi	-6482
▁chyur	-6483
▁clock	-6484
▁colle	-6485
▁colon	-6486
▁cupak	-6487
▁daadu	-6488
▁daain	-6489
▁daaki	-6490
▁daaru	-6491
▁dahej	-6492
▁depos	-6493
▁dhili	-6494
▁dhith	-6495
▁dhoom	-6496
▁dhuwa	-6497
▁drill	-6498
▁dryer	-6499
...	-6500
gje	-6501
araf	-6502
devi	-6503
rekh	-6504
▁edi	-6505
gjeer	-6506
lerak	-6507
pping	-6508
▁bavi	-6509
▁hudi	-6510
▁inbo	-6511
▁jyor	-6512
▁jyot	-6513
▁kavi	-6514
▁scan	-6515
arayan	-6516
krishi	-6517
ppalak	-6518
▁aayel	-6519
▁bolna	-6520
▁bolul	-6521
▁dhune	-6522
▁dhuno	-6523
▁dubke	-6524
▁dubuk	-6525
▁dudar	-6526
▁dunok	-6527
▁dusht	-6528
▁fayde	-6529
▁febru	-6530
▁fruit	-6531
▁fyaas	-6532
▁gaaro	-6533
▁gaayo	-6534
▁gagar	-6535
▁ganth	-6536
▁ghaav	-6537
▁ghabr	-6538
▁ghera	-6539
▁giras	-6540
▁guddi	-6541
▁gulab	-6542
▁gupha	-6543
▁gusul	-6544
▁gutke	-6545
▁guton	-6546
▁gyani	-6547
▁gyunk	-6548
▁haara	-6549
▁hasoo	-6550
▁hatan	-6551
▁heera	-6552
▁hidte	-6553
▁hudil	-6554
▁ilake	-6555
▁janaf	-6556
▁jeeto	-6557
▁jibad	-6558
▁joint	-6559
▁jooth	-6560
▁junga	-6561
▁jurab	-6562
▁jutai	-6563
▁jutan	-6564
▁jyoti	-6565
▁kaduk	-6566
▁kalja	-6567
▁kampa	-6568
▁kasht	-6569
▁kauni	-6570
▁khadk	-6571
▁khadu	-6572
▁khurd	-6573
▁kilmo	-6574
▁kilmu	-6575
▁kulad	-6576
▁kurta	-6577
▁kutku	-6578
▁laakh	-6579
▁ladul	-6580
▁lagyr	-6581
▁lambo	-6582
▁langd	-6583
▁laund	-6584
▁lhyon	-6585
▁light	-6586
▁lipul	-6587
▁lutan	-6588
▁lyala	-6589
▁lyali	-6590
▁maiti	-6591
▁malai	-6592
▁malik	-6593
▁manok	-6594
▁meelo	-6595
▁meena	-6596
▁model	-6597
▁moong	-6598
▁motib	-6599
buj	-6600
buti	-6601
▁ugr	-6602
gaani	-6603
garik	-6604
kanji	-6605
lifak	-6606
▁budg	-6607
▁budo	-6608
▁byuk	-6609
▁cash	-6610
▁dhyo	-6611
▁ghol	-6612
▁jyuk	-6613
▁link	-6614
▁nyay	-6615
kalash	-6616
natmak	-6617
▁akela	-6618
▁buddh	-6619
▁danti	-6620
▁gethi	-6621
▁ghodi	-6622
▁haris	-6623
▁hidne	-6624
▁honla	-6625
▁hwayr	-6626
▁jikar	-6627
▁kauwo	-6628
▁laggo	-6629
▁leela	-6630
▁linen	-6631
▁methi	-6632
▁mudak	-6633
▁mudan	-6634
▁mukut	-6635
▁munaf	-6636
▁mupht	-6637
▁murgi	-6638
▁naapi	-6639
▁nabbe	-6640
▁nagar	-6641
▁naren	-6642
▁nasal	-6643
▁naulo	-6644
▁nepal	-6645
▁nibhi	-6646
▁ninad	-6647
▁nipun	-6648
▁nyaul	-6649
▁nyole	-6650
▁osara	-6651
▁paadh	-6652
▁paako	-6653
▁pahil	-6654
▁painl	-6655
▁pakko	-6656
▁panje	-6657
▁paush	-6658
▁pedon	-6659
▁phiko	-6660
▁phisl	-6661
▁phuki	-6662
▁phuli	-6663
▁pitan	-6664
▁point	-6665
▁postc	-6666
▁potai	-6667
▁potli	-6668
▁prach	-6669
▁priya	-6670
▁profi	-6671
▁pulam	-6672
▁pulti	-6673
▁pyonu	-6674
▁raaji	-6675
▁raani	-6676
▁rajya	-6677
▁rekha	-6678
▁rukhk	-6679
▁saank	-6680
▁saavd	-6681
▁sagar	-6682
▁salad	-6683
▁salla	-6684
▁sapna	-6685
▁sasti	-6686
▁saton	-6687
▁saunf	-6688
▁score	-6689
▁sebak	-6690
▁seron	-6691
▁sheet	-6692
▁shrap	-6693
▁silen	-6694
▁sitan	-6695
▁sodak	-6696
▁straw	-6697
▁sutna	-6698
▁swain	-6699
mtik	-6700
▁rec	-6701
▁sty	-6702
sonak	-6703
▁angu	-6704
▁dair	-6705
▁lekh	-6706
▁risa	-6707
andash	-6708
khalan	-6709
lapani	-6710
ranjan	-6711
▁benak	-6712
▁bhanj	-6713
▁daaka	-6714
▁fatan	-6715
▁gamla	-6716
▁ghask	-6717
▁kudak	-6718
▁kwari	-6719
▁kweer	-6720
▁manga	-6721
▁palnu	-6722
▁palti	-6723
▁rishi	-6724
▁stool	-6725
▁styli	-6726
▁suryo	-6727
▁syaan	-6728
▁tapki	-6729
▁taslo	-6730
▁teekh	-6731
▁tehni	-6732
▁tikau	-6733
▁tiras	-6734
▁tirch	-6735
▁titar	-6736
▁todul	-6737
▁tyrek	-6738
▁ugyee	-6739
▁ukhal	-6740
▁uljhi	-6741
▁ulluk	-6742
▁uncho	-6743
▁urjak	-6744
▁uthnu	-6745
▁uttam	-6746
▁vinaa	-6747
▁wajan	-6748
▁yesko	-6749
▁yesle	-6750
▁yesme	-6751
▁yuddh	-6752
acharya	-6753
armaish	-6754
banasur	-6755
bhangak	-6756
bhuraye	-6757
chaitol	-6758
ckroach	-6759
ctionak	-6760
darnath	-6761
duniyar	-6762
gulgula	-6763
heshwar	-6764
hilhaal	-6765
hitiber	-6766
huliarg	-6767
hutanak	-6768
ingadak	-6769
inishin	-6770
jhangor	-6771
juliber	-6772
malikak	-6773
ootball	-6774
paathak	-6775
rahakak	-6776
rekking	-6777
roccoli	-6778
skhalan	-6779
skritik	-6780
tinanak	-6781
unbhati	-6782
yagulan	-6783
yakaran	-6784
yavaran	-6785
ylapani	-6786
▁aadmik	-6787
▁aasman	-6788
▁aatasi	-6789
▁achaar	-6790
▁adhpak	-6791
▁adhuri	-6792
▁ajguti	-6793
▁akaran	-6794
▁akhrot	-6795
▁anarth	-6796
▁anguth	-6797
▁ankaal	-6798
▁anubha	-6799
khut	-6800
mlik	-6801
ubat	-6802
▁ugo	-6803
dajyu	-6804
likka	-6805
patha	-6806
patta	-6807
udaay	-6808
▁fuli	-6809
▁layo	-6810
▁lift	-6811
▁lock	-6812
▁naik	-6813
▁riss	-6814
▁seed	-6815
▁uuni	-6816
dhanan	-6817
pathar	-6818
pattar	-6819
▁aglik	-6820
▁daalu	-6821
▁daraw	-6822
▁dhuek	-6823
▁failo	-6824
▁imlik	-6825
▁jadai	-6826
▁jangh	-6827
▁jhanj	-6828
▁kalak	-6829
▁pinen	-6830
▁sadan	-6831
▁sinan	-6832
udaayik	-6833
▁anusha	-6834
▁apnaya	-6835
▁arthik	-6836
▁bachao	-6837
▁bachav	-6838
▁bachho	-6839
▁badhau	-6840
▁badhni	-6841
▁badlar	-6842
▁badlun	-6843
▁bajayo	-6844
▁banayr	-6845
▁bavist	-6846
▁bechno	-6847
▁bechul	-6848
▁beejam	-6849
▁bekari	-6850
▁belcha	-6851
▁belyak	-6852
▁bhaddo	-6853
▁bhadon	-6854
▁bhanji	-6855
▁bhatti	-6856
▁bhavya	-6857
▁bhejne	-6858
▁bhejni	-6859
▁bhigun	-6860
▁bhukho	-6861
▁bhulai	-6862
▁bhulni	-6863
▁bhunti	-6864
▁bhuvan	-6865
▁bhyaar	-6866
▁bidhan	-6867
▁bigada	-6868
▁bigaud	-6869
▁bighak	-6870
▁birale	-6871
▁biralo	-6872
▁bitaye	-6873
▁bolnan	-6874
▁bphaap	-6875
▁branch	-6876
▁budget	-6877
▁bulanu	-6878
▁buraik	-6879
▁bushot	-6880
▁canvas	-6881
▁cardak	-6882
▁centre	-6883
▁chahni	-6884
▁chakki	-6885
▁champa	-6886
▁changa	-6887
▁chango	-6888
▁chasak	-6889
▁chatta	-6890
▁chauki	-6891
▁chemic	-6892
▁cheton	-6893
▁chhyak	-6894
▁chhyat	-6895
▁chihna	-6896
▁chimta	-6897
▁chinga	-6898
▁chitai	-6899
hmat	-6900
mart	-6901
rain	-6902
▁lap	-6903
atark	-6904
hiryo	-6905
marat	-6906
nanda	-6907
stapu	-6908
utara	-6909
▁muso	-6910
▁peel	-6911
▁rane	-6912
▁runi	-6913
▁safe	-6914
▁shud	-6915
▁siva	-6916
▁thum	-6917
▁yele	-6918
butara	-6919
charak	-6920
eshaan	-6921
gnment	-6922
hangad	-6923
tachar	-6924
yboard	-6925
▁bhape	-6926
▁budge	-6927
▁bulon	-6928
▁chole	-6929
▁gaddh	-6930
▁himat	-6931
▁kaata	-6932
▁kinan	-6933
▁kukar	-6934
▁kukud	-6935
▁lapet	-6936
▁maida	-6937
▁mitti	-6938
▁muski	-6939
▁peeti	-6940
▁poori	-6941
▁ranul	-6942
▁ranyo	-6943
▁seenk	-6944
▁smart	-6945
▁terah	-6946
▁train	-6947
jhangad	-6948
▁baasno	-6949
▁bhukhi	-6950
▁chimat	-6951
▁choles	-6952
▁cinema	-6953
▁clinic	-6954
▁colony	-6955
▁credit	-6956
▁daagar	-6957
▁daalun	-6958
▁daanti	-6959
▁daaruk	-6960
▁daatul	-6961
▁dalano	-6962
▁daldal	-6963
▁dandon	-6964
▁dewala	-6965
▁dhaaro	-6966
▁dhulan	-6967
▁dikhni	-6968
▁dillik	-6969
▁dinesh	-6970
▁dubano	-6971
▁duguna	-6972
▁dweber	-6973
▁dwinan	-6974
▁ebhati	-6975
▁fafund	-6976
▁faujak	-6977
▁forwar	-6978
▁fulani	-6979
▁fungus	-6980
▁gaadak	-6981
▁gachhe	-6982
▁gadbad	-6983
▁gaddak	-6984
▁gagrik	-6985
▁gainti	-6986
▁galtik	-6987
▁ganiya	-6988
▁geetak	-6989
▁ghiryo	-6990
▁ghitak	-6991
▁ghuggu	-6992
▁ghumna	-6993
▁ghusni	-6994
▁gingad	-6995
▁girana	-6996
▁giranu	-6997
▁githyo	-6998
▁gobara	-6999
bhw	-7000
bro	-7001
▁om	-7002
▁op	-7003
hubh	-7004
sail	-7005
▁bef	-7006
▁gre	-7007
▁odh	-7008
bihan	-7009
eline	-7010
indur	-7011
older	-7012
▁akas	-7013
▁asoj	-7014
▁babo	-7015
▁beta	-7016
▁lamp	-7017
▁luni	-7018
▁naab	-7019
▁opti	-7020
▁susp	-7021
▁usni	-7022
bhwati	-7023
chhari	-7024
▁aagar	-7025
▁achar	-7026
▁akaal	-7027
▁akadi	-7028
▁akkal	-7029
▁aksha	-7030
▁befik	-7031
▁byalo	-7032
▁dasan	-7033
▁daswa	-7034
▁devak	-7035
▁dhoye	-7036
▁diwan	-7037
▁greas	-7038
▁hitya	-7039
▁kitik	-7040
▁kubro	-7041
▁neelo	-7042
▁odhni	-7043
▁ramak	-7044
▁ramli	-7045
▁ramna	-7046
▁ramto	-7047
▁ramuk	-7048
▁sahyo	-7049
▁thoro	-7050
aseline	-7051
▁akasak	-7052
▁ashubh	-7053
▁banate	-7054
▁barsat	-7055
▁batulo	-7056
▁bhawan	-7057
▁charna	-7058
▁folder	-7059
▁goljyu	-7060
▁gothar	-7061
▁grease	-7062
▁gujiya	-7063
▁gundhi	-7064
▁gunvat	-7065
▁gyarvi	-7066
▁gyarwa	-7067
▁gyunak	-7068
▁hansde	-7069
▁hariyo	-7070
▁hasank	-7071
▁hasanu	-7072
▁hathik	-7073
▁heater	-7074
▁herano	-7075
▁hilane	-7076
▁hilnan	-7077
▁hisalu	-7078
▁hissar	-7079
▁hitana	-7080
▁hunain	-7081
▁ilakar	-7082
▁imarat	-7083
▁itaraf	-7084
▁jaaber	-7085
▁jaadak	-7086
▁jahari	-7087
▁jaikat	-7088
▁jakhan	-7089
▁jalawa	-7090
▁jariya	-7091
▁jawaab	-7092
▁jawani	-7093
▁jethon	-7094
▁jhalar	-7095
▁jharan	-7096
▁jhodak	-7097
▁jotaan	-7098
▁judiyo	-7099
bach	-7100
walo	-7101
▁doc	-7102
▁gic	-7103
▁vim	-7104
▁viv	-7105
hekno	-7106
inaca	-7107
khich	-7108
punya	-7109
yatar	-7110
▁bale	-7111
▁buil	-7112
▁dhoi	-7113
▁fire	-7114
▁inme	-7115
▁kans	-7116
▁murg	-7117
▁phaw	-7118
▁riya	-7119
▁tale	-7120
▁udai	-7121
binaca	-7122
inchit	-7123
▁banyl	-7124
▁bisre	-7125
▁burai	-7126
▁buwai	-7127
▁dhonu	-7128
▁docum	-7129
▁farak	-7130
▁ghuma	-7131
▁ghumi	-7132
▁kewal	-7133
▁lyalo	-7134
▁namun	-7135
▁panda	-7136
▁phaad	-7137
▁phasi	-7138
▁rukne	-7139
▁sonak	-7140
▁ugayo	-7141
▁vidhi	-7142
▁vimla	-7143
▁vivek	-7144
angarak	-7145
chalaya	-7146
khatano	-7147
manchak	-7148
▁baalak	-7149
▁bhajyu	-7150
▁bhuter	-7151
▁chalis	-7152
▁daadak	-7153
▁daliya	-7154
▁dudhar	-7155
▁kaajal	-7156
▁kaalak	-7157
▁kaampi	-7158
▁kaandh	-7159
▁kabbad	-7160
▁kachho	-7161
▁kakhai	-7162
▁kalash	-7163
▁kalijo	-7164
▁kalyan	-7165
▁kammal	-7166
▁kammar	-7167
▁kanich	-7168
▁kankhu	-7169
▁kanpat	-7170
▁karale	-7171
▁kataik	-7172
▁katnan	-7173
▁katori	-7174
▁kauwan	-7175
▁khaalo	-7176
▁khaduk	-7177
▁khasra	-7178
▁khatra	-7179
▁khilan	-7180
▁khilau	-7181
▁khinch	-7182
▁khitun	-7183
▁khodai	-7184
▁kholar	-7185
▁khopad	-7186
▁khusbu	-7187
▁khusik	-7188
▁khusya	-7189
▁kinare	-7190
▁kudale	-7191
▁kuddik	-7192
▁kudlak	-7193
▁kukrak	-7194
▁kukudo	-7195
▁kukuri	-7196
▁kulgur	-7197
▁kuraal	-7198
▁kurdan	-7199
bot	-7200
ctc	-7201
kot	-7202
emak	-7203
hnak	-7204
otan	-7205
park	-7206
parv	-7207
rctc	-7208
▁ukk	-7209
taano	-7210
waiya	-7211
yamak	-7212
yopun	-7213
▁coil	-7214
▁gado	-7215
▁gant	-7216
▁hwai	-7217
▁suth	-7218
▁ukhi	-7219
bhaant	-7220
▁askot	-7221
▁depot	-7222
▁hisso	-7223
▁irctc	-7224
▁lyonu	-7225
▁mamak	-7226
▁nimak	-7227
▁oonan	-7228
▁salon	-7229
▁sithi	-7230
▁siwai	-7231
▁terai	-7232
▁ukaal	-7233
▁utnak	-7234
parvati	-7235
ptember	-7236
yopunyo	-7237
▁byapar	-7238
▁chakhi	-7239
▁cheejo	-7240
▁chikna	-7241
▁dillar	-7242
▁dusare	-7243
▁jhadon	-7244
▁jhaduk	-7245
▁kaaran	-7246
▁karulo	-7247
▁khelul	-7248
▁kursik	-7249
▁kuthar	-7250
▁laakdi	-7251
▁lagalo	-7252
▁lakhan	-7253
▁lalchi	-7254
▁langot	-7255
▁launar	-7256
▁lekhyo	-7257
▁lenter	-7258
▁lhyaya	-7259
▁lhyuni	-7260
▁lijaan	-7261
▁lijawa	-7262
▁likhnu	-7263
▁likhul	-7264
▁likhun	-7265
▁likhwa	-7266
▁likhya	-7267
▁lipanu	-7268
▁liyani	-7269
▁locker	-7270
▁lyanen	-7271
▁lyaunu	-7272
▁maalak	-7273
▁maalik	-7274
▁maarnu	-7275
▁maatak	-7276
▁mahaan	-7277
▁mahaul	-7278
▁majkha	-7279
▁makhik	-7280
▁mandua	-7281
▁marula	-7282
▁mashak	-7283
▁masoor	-7284
▁maunak	-7285
▁minton	-7286
▁mombat	-7287
▁mrityu	-7288
▁mukhak	-7289
▁mundar	-7290
▁murkan	-7291
▁naatin	-7292
▁naitik	-7293
▁najara	-7294
▁naksha	-7295
▁nakshi	-7296
▁nantin	-7297
▁napayo	-7298
▁napier	-7299
eme	-7300
jok	-7301
ost	-7302
jokh	-7303
srik	-7304
▁ann	-7305
▁ant	-7306
▁dhy	-7307
▁jid	-7308
asann	-7309
esman	-7310
hyaar	-7311
ingat	-7312
ingya	-7313
rchak	-7314
shama	-7315
▁anas	-7316
▁bins	-7317
▁buni	-7318
▁dewi	-7319
▁dhag	-7320
▁face	-7321
▁ilai	-7322
▁shya	-7323
▁teek	-7324
▁tili	-7325
▁utli	-7326
baruno	-7327
damaun	-7328
▁aapan	-7329
▁anasu	-7330
▁chhyo	-7331
▁dholi	-7332
▁dhunu	-7333
▁dhyer	-7334
▁disha	-7335
▁haaln	-7336
▁japan	-7337
▁jiddi	-7338
▁mundi	-7339
▁paala	-7340
▁papan	-7341
▁phurs	-7342
▁rayin	-7343
▁silai	-7344
▁teeka	-7345
▁yesma	-7346
usingya	-7347
▁bichhi	-7348
▁binsar	-7349
▁byayam	-7350
▁chinyo	-7351
▁garibi	-7352
▁haalar	-7353
▁haalne	-7354
▁jaulji	-7355
▁kampan	-7356
▁karwai	-7357
▁khaiya	-7358
▁khilai	-7359
▁kishan	-7360
▁kshama	-7361
▁lijanu	-7362
▁misrik	-7363
▁narang	-7364
▁naryal	-7365
▁naubat	-7366
▁needam	-7367
▁netaun	-7368
▁nichak	-7369
▁nikaln	-7370
▁niklan	-7371
▁niyati	-7372
▁option	-7373
▁paakan	-7374
▁paalak	-7375
▁paalan	-7376
▁paband	-7377
▁pachri	-7378
▁padhya	-7379
▁paerak	-7380
▁pagalo	-7381
▁pairli	-7382
▁pajaya	-7383
▁pakade	-7384
▁pakayo	-7385
▁palnak	-7386
▁palyun	-7387
▁pandav	-7388
▁pankhi	-7389
▁papita	-7390
▁parhej	-7391
▁parsal	-7392
▁parwah	-7393
▁pattal	-7394
▁patthe	-7395
▁pavitr	-7396
▁peesai	-7397
▁period	-7398
▁phacha	-7399
bil	-7400
vil	-7401
ivil	-7402
kale	-7403
kaya	-7404
mike	-7405
umal	-7406
▁alg	-7407
▁ike	-7408
▁jui	-7409
bilek	-7410
itran	-7411
medar	-7412
mewar	-7413
oring	-7414
ranth	-7415
umaas	-7416
▁apui	-7417
▁doob	-7418
▁naum	-7419
▁sola	-7420
andida	-7421
mmedar	-7422
▁aalle	-7423
▁ameen	-7424
▁chame	-7425
▁civil	-7426
▁dhang	-7427
▁fayda	-7428
▁ganyo	-7429
▁ghisi	-7430
▁ghuri	-7431
▁godul	-7432
▁hathe	-7433
▁hinda	-7434
▁hiran	-7435
▁jaino	-7436
▁juice	-7437
▁kapal	-7438
▁khoon	-7439
▁matka	-7440
▁nanad	-7441
▁nanho	-7442
▁paath	-7443
▁rajma	-7444
▁ravan	-7445
▁rumal	-7446
▁seran	-7447
▁solah	-7448
▁sutno	-7449
▁thadi	-7450
▁toran	-7451
chappal	-7452
▁algani	-7453
▁bantal	-7454
▁boring	-7455
▁chanan	-7456
▁dhanak	-7457
▁gathar	-7458
▁granth	-7459
▁hamesa	-7460
▁hampar	-7461
▁hattha	-7462
▁hissak	-7463
▁jaiber	-7464
▁jeenda	-7465
▁karche	-7466
▁odanak	-7467
▁paatal	-7468
▁partyk	-7469
▁phadul	-7470
▁phawda	-7471
▁photog	-7472
▁pilanu	-7473
▁pinjar	-7474
▁pinjre	-7475
▁pirano	-7476
▁pisyun	-7477
▁piyawa	-7478
▁pochha	-7479
▁poochh	-7480
▁poojan	-7481
▁poojar	-7482
▁potash	-7483
▁pracha	-7484
▁pratis	-7485
▁prerit	-7486
▁primar	-7487
▁puchen	-7488
▁pultis	-7489
▁punyak	-7490
▁raalan	-7491
▁radioi	-7492
▁raiyee	-7493
▁rakchu	-7494
▁rakesh	-7495
▁rakhda	-7496
▁rakhye	-7497
▁ramnau	-7498
▁ranyoo	-7499
odh	-7500
tep	-7501
top	-7502
dhnu	-7503
tain	-7504
tosh	-7505
▁pug	-7506
baadi	-7507
garam	-7508
ikkis	-7509
morak	-7510
urodh	-7511
▁aaro	-7512
▁atti	-7513
▁bill	-7514
▁byav	-7515
▁falt	-7516
▁hera	-7517
▁jagi	-7518
▁keel	-7519
▁kodh	-7520
▁sarm	-7521
▁step	-7522
▁stop	-7523
mungri	-7524
▁aalsi	-7525
▁baans	-7526
▁bagak	-7527
▁bagti	-7528
▁chadh	-7529
▁chakh	-7530
▁ikkis	-7531
▁kasto	-7532
▁logak	-7533
▁sarad	-7534
▁sukar	-7535
▁sukun	-7536
▁anajak	-7537
▁awajen	-7538
▁baanth	-7539
▁baanti	-7540
▁faltuk	-7541
▁kisana	-7542
▁kranan	-7543
▁manuno	-7544
▁puganu	-7545
▁rashan	-7546
▁retili	-7547
▁ringat	-7548
▁risaye	-7549
▁rituon	-7550
▁rokala	-7551
▁rokano	-7552
▁roshan	-7553
▁router	-7554
▁rukano	-7555
▁rukanu	-7556
▁rukhak	-7557
▁ruknak	-7558
▁ruwaya	-7559
▁ruwayi	-7560
▁saabak	-7561
▁saaban	-7562
▁saabun	-7563
▁saadir	-7564
▁saapak	-7565
▁sadaik	-7566
▁sadhan	-7567
▁safedi	-7568
▁sahasi	-7569
▁saikad	-7570
▁sajaun	-7571
▁sakeli	-7572
▁salana	-7573
▁samjhe	-7574
▁samman	-7575
▁sanjog	-7576
▁sankat	-7577
▁sanrak	-7578
▁sardar	-7579
▁sarmee	-7580
▁satana	-7581
▁saugat	-7582
▁sayani	-7583
▁shabad	-7584
▁shabas	-7585
▁shanik	-7586
▁shankh	-7587
▁shasan	-7588
▁shikar	-7589
▁shukar	-7590
▁siloon	-7591
▁sinema	-7592
▁sirani	-7593
▁sochul	-7594
▁sukaal	-7595
▁sukawa	-7596
▁suljha	-7597
▁sunaul	-7598
▁supina	-7599
bdo	-7600
gol	-7601
▁vo	-7602
irak	-7603
jank	-7604
waab	-7605
▁bdo	-7606
▁bhr	-7607
▁vya	-7608
agdan	-7609
agiri	-7610
ankho	-7611
bhani	-7612
choch	-7613
danan	-7614
entak	-7615
olgia	-7616
purna	-7617
shtak	-7618
takak	-7619
ultak	-7620
▁aisi	-7621
▁anar	-7622
▁jila	-7623
▁luto	-7624
▁mare	-7625
ayanak	-7626
jawaab	-7627
mentak	-7628
nagiri	-7629
pakodi	-7630
▁adhur	-7631
▁daalo	-7632
▁dharr	-7633
▁dharu	-7634
▁gaane	-7635
▁gaanu	-7636
▁garma	-7637
▁garud	-7638
▁geetm	-7639
▁geher	-7640
▁ghiri	-7641
▁kadam	-7642
▁khita	-7643
▁kimti	-7644
▁kudan	-7645
▁kutan	-7646
▁phedi	-7647
▁saalo	-7648
▁sthir	-7649
▁voter	-7650
▁adhuro	-7651
▁bachon	-7652
▁bhrash	-7653
▁chalao	-7654
▁dagdan	-7655
▁daudul	-7656
▁dharul	-7657
▁dhooni	-7658
▁gehero	-7659
▁injank	-7660
▁ishtak	-7661
▁janank	-7662
▁jethak	-7663
▁khaane	-7664
▁khicha	-7665
▁khudan	-7666
▁kwenak	-7667
▁laagne	-7668
▁roopar	-7669
▁sakalo	-7670
▁shabdo	-7671
▁suspen	-7672
▁suthra	-7673
▁swaini	-7674
▁system	-7675
▁taakat	-7676
▁taalab	-7677
▁taalak	-7678
▁taapan	-7679
▁tagado	-7680
▁takiya	-7681
▁takuli	-7682
▁tambak	-7683
▁tanaav	-7684
▁tankak	-7685
▁tarbuj	-7686
▁taseer	-7687
▁taskar	-7688
▁teesra	-7689
▁thagan	-7690
▁thakai	-7691
▁thalak	-7692
▁thonku	-7693
▁thumra	-7694
▁thunth	-7695
▁tikano	-7696
▁tirpal	-7697
▁tiwari	-7698
▁tootan	-7699
gnu	-7700
rod	-7701
sep	-7702
set	-7703
atil	-7704
brah	-7705
dala	-7706
dayi	-7707
ftar	-7708
lick	-7709
ranj	-7710
rise	-7711
sett	-7712
tary	-7713
vtak	-7714
andan	-7715
atiya	-7716
enter	-7717
ketak	-7718
maati	-7719
ookhi	-7720
prise	-7721
tisep	-7722
▁bhel	-7723
▁boni	-7724
▁gati	-7725
▁jame	-7726
▁keep	-7727
▁kinu	-7728
▁mohi	-7729
▁moja	-7730
▁royi	-7731
▁star	-7732
▁yati	-7733
assett	-7734
brahma	-7735
cketak	-7736
devtak	-7737
entary	-7738
ftarar	-7739
naasta	-7740
rodhak	-7741
▁aamne	-7742
▁bheja	-7743
▁chalk	-7744
▁click	-7745
▁ghisa	-7746
▁hityu	-7747
▁jagek	-7748
▁jatil	-7749
▁jugnu	-7750
▁mithi	-7751
▁nauti	-7752
▁palyo	-7753
▁rally	-7754
▁seema	-7755
▁siani	-7756
hatranj	-7757
▁baanik	-7758
▁baatnu	-7759
▁bankal	-7760
▁batati	-7761
▁bharat	-7762
▁bhelki	-7763
▁center	-7764
▁chaata	-7765
▁chalak	-7766
▁chalee	-7767
▁chalul	-7768
▁chatak	-7769
▁darati	-7770
▁debuli	-7771
▁gatiri	-7772
▁jamano	-7773
▁kalika	-7774
▁katala	-7775
▁khelne	-7776
▁khelnu	-7777
▁milala	-7778
▁mohilo	-7779
▁nagado	-7780
▁pannak	-7781
▁resort	-7782
▁sakuno	-7783
▁sikhna	-7784
▁sookhi	-7785
▁sukoon	-7786
▁traffi	-7787
▁tumpar	-7788
▁tuturi	-7789
▁ubalne	-7790
▁uganak	-7791
▁uganan	-7792
▁uganun	-7793
▁uljhan	-7794
▁umalan	-7795
▁unnees	-7796
▁utaran	-7797
▁uthaye	-7798
▁utpaat	-7799
ghun	-7800
mote	-7801
▁dau	-7802
aamna	-7803
athri	-7804
cheet	-7805
dhwin	-7806
eetan	-7807
inath	-7808
uunch	-7809
▁dard	-7810
▁dhur	-7811
▁dikh	-7812
▁dikk	-7813
▁jane	-7814
▁janj	-7815
▁pehl	-7816
▁pehn	-7817
▁tona	-7818
chhani	-7819
dhanya	-7820
ghunak	-7821
pithya	-7822
rinath	-7823
▁bandh	-7824
▁bhejo	-7825
▁bitol	-7826
▁daraj	-7827
▁darji	-7828
▁dikhe	-7829
▁durak	-7830
▁gujki	-7831
▁janeu	-7832
▁jitna	-7833
▁kaapa	-7834
▁lyeyo	-7835
▁milna	-7836
▁padna	-7837
▁pehni	-7838
▁pehra	-7839
▁prani	-7840
▁taalu	-7841
waanchu	-7842
▁baachh	-7843
▁batuno	-7844
▁bishan	-7845
▁chailo	-7846
▁chuchi	-7847
▁daraad	-7848
▁daraun	-7849
▁gathri	-7850
▁gujkid	-7851
▁haalno	-7852
▁hansan	-7853
▁kursir	-7854
▁padhun	-7855
▁peetan	-7856
▁raaton	-7857
▁rakhun	-7858
▁remote	-7859
▁seemak	-7860
▁videok	-7861
▁webhat	-7862
▁yantar	-7863
▁yesang	-7864
▁yethik	-7865
▁yojana	-7866
▁yojnak	-7867
acharyak	-7868
anchhaya	-7869
aryakram	-7870
asannata	-7871
assettek	-7872
atavaran	-7873
bhashali	-7874
bhitauli	-7875
dhikaran	-7876
hariyala	-7877
jimmedar	-7878
mashtami	-7879
oonchhan	-7880
pannatak	-7881
puchhari	-7882
ricketak	-7883
samachar	-7884
shikanji	-7885
sisoonak	-7886
warpatha	-7887
▁aabhaar	-7888
▁aadmike	-7889
▁aapasar	-7890
▁aashirw	-7891
▁adhpaka	-7892
▁akshark	-7893
▁amdanik	-7894
▁anaajak	-7895
▁andekha	-7896
▁antarya	-7897
▁antenna	-7898
▁antisep	-7899
vel	-7900
heen	-7901
hunl	-7902
itel	-7903
▁cel	-7904
▁gac	-7905
▁jel	-7906
▁lom	-7907
ataar	-7908
athik	-7909
henak	-7910
house	-7911
yakti	-7912
▁bhur	-7913
▁cell	-7914
▁gaar	-7915
▁gaut	-7916
▁jhod	-7917
▁leen	-7918
▁lees	-7919
▁pakd	-7920
▁sink	-7921
▁suit	-7922
▁uchh	-7923
atheen	-7924
ukanar	-7925
▁abadi	-7926
▁budha	-7927
▁cheer	-7928
▁chela	-7929
▁chyak	-7930
▁falad	-7931
▁gahan	-7932
▁gahar	-7933
▁haran	-7934
▁jaisi	-7935
▁jweak	-7936
▁leeso	-7937
▁level	-7938
▁lomdi	-7939
▁naang	-7940
▁nayak	-7941
▁paksh	-7942
▁pakyo	-7943
▁raiya	-7944
▁saken	-7945
▁taren	-7946
▁timer	-7947
▁banchh	-7948
▁bateno	-7949
▁byakti	-7950
▁cheern	-7951
▁dheere	-7952
▁fansai	-7953
▁flight	-7954
▁gaccha	-7955
▁gachha	-7956
▁ghunak	-7957
▁halyak	-7958
▁haryak	-7959
▁hathya	-7960
▁kasaai	-7961
▁khawul	-7962
▁milchh	-7963
▁pakada	-7964
▁pakanu	-7965
▁	-7966
a	-7967
h	-7968
i	-7969
n	-7970
k	-7971
e	-7972
r	-7973
l	-7974
u	-7975
o	-7976
t	-7977
b	-7978
m	-7979
d	-7980
c	-7981
s	-7982
y	-7983
p	-7984
g	-7985
j	-7986
.	-7987
w	-7988
,	-7989
?	-7990
f	-7991
v	-7992
-	-7993
'	-7994
!	-7995
0	-7996
