<unk>	0
<s>	0
</s>	0
▁t	-0
he	-1
▁i	-2
▁a	-3
▁the	-4
▁w	-5
▁s	-6
in	-7
re	-8
ou	-9
▁f	-10
▁m	-11
er	-12
▁b	-13
ha	-14
▁c	-15
on	-16
ing	-17
▁y	-18
▁d	-19
ll	-20
▁to	-21
▁g	-22
or	-23
▁p	-24
es	-25
▁is	-26
▁it	-27
▁n	-28
▁you	-29
▁l	-30
an	-31
om	-32
at	-33
▁o	-34
▁ha	-35
nd	-36
ve	-37
ar	-38
▁wi	-39
ed	-40
ot	-41
et	-42
st	-43
ow	-44
hi	-45
▁in	-46
le	-47
ay	-48
en	-49
ver	-50
▁of	-51
hat	-52
oo	-53
ld	-54
▁and	-55
▁he	-56
▁r	-57
▁be	-58
▁will	-59
▁e	-60
▁for	-61
▁h	-62
ke	-63
it	-64
as	-65
▁we	-66
▁on	-67
ome	-68
al	-69
▁st	-70
very	-71
ic	-72
▁are	-73
▁my	-74
ig	-75
th	-76
▁have	-77
▁yes	-78
▁fr	-79
▁go	-80
▁do	-81
se	-82
id	-83
his	-84
▁ne	-85
▁u	-86
ch	-87
am	-88
ad	-89
ut	-90
ly	-91
▁re	-92
▁very	-93
▁this	-94
ht	-95
her	-96
one	-97
▁that	-98
ge	-99
ac	-100
▁me	-101
▁what	-102
ood	-103
▁not	-104
▁from	-105
ain	-106
ir	-107
ter	-108
ee	-109
▁sh	-110
▁j	-111
our	-112
ro	-113
ake	-114
ur	-115
▁with	-116
ould	-117
ight	-118
▁so	-119
ill	-120
▁they	-121
ater	-122
▁li	-123
il	-124
▁your	-125
▁v	-126
▁can	-127
▁an	-128
ust	-129
ion	-130
all	-131
▁was	-132
ore	-133
im	-134
▁there	-135
▁water	-136
▁te	-137
pp	-138
ul	-139
king	-140
▁br	-141
▁has	-142
ct	-143
ie	-144
age	-145
▁at	-146
▁get	-147
▁good	-148
▁le	-149
▁wor	-150
is	-151
ive	-152
▁some	-153
out	-154
ant	-155
▁whe	-156
ent	-157
▁k	-158
▁come	-159
ep	-160
ry	-161
op	-162
▁how	-163
est	-164
▁our	-165
▁wh	-166
▁should	-167
un	-168
▁now	-169
▁pl	-170
ast	-171
▁al	-172
and	-173
▁bu	-174
▁th	-175
▁am	-176
▁se	-177
▁but	-178
▁sp	-179
um	-180
▁gr	-181
▁no	-182
▁com	-183
other	-184
▁them	-185
▁did	-186
day	-187
▁vill	-188
han	-189
▁need	-190
ck	-191
red	-192
▁let	-193
ning	-194
ce	-195
ble	-196
▁tr	-197
▁co	-198
▁all	-199
▁us	-200
ard	-201
▁village	-202
art	-203
▁every	-204
ack	-205
▁tim	-206
if	-207
▁one	-208
ong	-209
▁sa	-210
▁day	-211
ook	-212
▁take	-213
ess	-214
ide	-215
ak	-216
▁ke	-217
ice	-218
eel	-219
▁de	-220
▁hi	-221
▁here	-222
ity	-223
▁new	-224
▁pro	-225
ers	-226
▁mu	-227
▁dr	-228
▁like	-229
ind	-230
▁pr	-231
▁time	-232
▁feel	-233
▁just	-234
▁make	-235
▁su	-236
way	-237
▁cl	-238
▁give	-239
▁too	-240
pe	-241
▁as	-242
▁up	-243
ool	-244
▁ab	-245
nt	-246
▁when	-247
ag	-248
fe	-249
▁today	-250
▁or	-251
▁going	-252
so	-253
▁fe	-254
▁don	-255
ick	-256
▁eat	-257
ine	-258
▁af	-259
▁see	-260
iv	-261
ream	-262
qu	-263
▁if	-264
▁man	-265
▁keep	-266
▁work	-267
ate	-268
▁hou	-269
▁pe	-270
are	-271
ame	-272
▁sm	-273
ound	-274
ation	-275
▁fore	-276
▁about	-277
▁chi	-278
▁mon	-279
▁bl	-280
▁con	-281
▁much	-282
mp	-283
ting	-284
▁who	-285
row	-286
▁why	-287
▁any	-288
▁want	-289
au	-290
▁whi	-291
▁must	-292
▁dream	-293
get	-294
▁ro	-295
▁bec	-296
▁house	-297
▁brother	-298
▁ple	-299
▁happ	-300
ase	-301
ber	-302
oug	-303
av	-304
▁sch	-305
▁school	-306
ace	-307
ink	-308
▁forest	-309
▁eve	-310
▁had	-311
▁after	-312
▁ru	-313
ab	-314
▁ok	-315
▁lot	-316
ous	-317
▁ph	-318
▁lo	-319
▁then	-320
ire	-321
ol	-322
▁'	-323
▁rain	-324
ue	-325
ure	-326
▁sc	-327
ment	-328
▁home	-329
▁tell	-330
▁say	-331
▁ar	-332
▁only	-333
▁please	-334
ign	-335
ield	-336
ri	-337
ful	-338
▁kn	-339
iend	-340
▁also	-341
▁friend	-342
▁by	-343
▁mo	-344
▁mar	-345
▁where	-346
ap	-347
oney	-348
▁she	-349
hing	-350
▁out	-351
▁comp	-352
ss	-353
▁ag	-354
▁qu	-355
▁str	-356
▁tea	-357
▁field	-358
ass	-359
ist	-360
▁cle	-361
▁child	-362
▁look	-363
▁ex	-364
▁ve	-365
▁mor	-366
ather	-367
▁okay	-368
▁used	-369
ree	-370
▁saw	-371
▁call	-372
▁sign	-373
▁start	-374
mor	-375
▁fir	-376
▁sit	-377
aking	-378
▁well	-379
side	-380
▁app	-381
▁big	-382
▁old	-383
▁their	-384
▁morning	-385
ans	-386
ank	-387
arm	-388
ort	-389
▁har	-390
▁him	-391
thing	-392
▁back	-393
▁money	-394
▁first	-395
em	-396
▁hel	-397
▁away	-398
▁night	-399
ings	-400
▁know	-401
▁bo	-402
▁en	-403
hes	-404
ies	-405
les	-406
▁fl	-407
ff	-408
we	-409
alk	-410
der	-411
tle	-412
▁off	-413
▁hand	-414
▁would	-415
▁ye	-416
ople	-417
▁rem	-418
▁people	-419
▁tw	-420
▁been	-421
▁than	-422
ens	-423
▁che	-424
▁gre	-425
ade	-426
ason	-427
ount	-428
aut	-429
▁pre	-430
▁his	-431
▁city	-432
morrow	-433
▁tomorrow	-434
os	-435
omet	-436
▁again	-437
▁beaut	-438
▁cold	-439
▁days	-440
▁more	-441
ren	-442
▁bus	-443
▁chan	-444
▁somet	-445
▁everyone	-446
▁right	-447
ach	-448
als	-449
ther	-450
▁dur	-451
▁her	-452
▁help	-453
▁year	-454
▁become	-455
sh	-456
har	-457
pees	-458
▁does	-459
▁even	-460
▁phone	-461
▁small	-462
▁rupees	-463
ave	-464
ect	-465
fore	-466
▁mis	-467
▁drink	-468
▁beautif	-469
dy	-470
la	-471
ty	-472
▁hu	-473
able	-474
ding	-475
ough	-476
▁wed	-477
▁many	-478
▁were	-479
▁these	-480
▁during	-481
lf	-482
hed	-483
ily	-484
urn	-485
▁two	-486
▁bring	-487
ite	-488
▁bet	-489
▁may	-490
▁might	-491
▁plant	-492
▁sl	-493
▁lit	-494
▁before	-495
aste	-496
blem	-497
▁sle	-498
▁use	-499
▁care	-500
▁veget	-501
▁problem	-502
ip	-503
ath	-504
ket	-505
ally	-506
▁put	-507
▁other	-508
▁beautiful	-509
▁which	-510
cc	-511
ci	-512
ish	-513
ways	-514
▁its	-515
▁win	-516
▁temp	-517
eep	-518
mer	-519
own	-520
ult	-521
iver	-522
▁long	-523
▁miss	-524
▁always	-525
ix	-526
▁po	-527
▁spe	-528
▁fest	-529
▁made	-530
▁near	-531
air	-532
ilk	-533
▁pot	-534
▁son	-535
▁stu	-536
▁won	-537
▁done	-538
▁play	-539
▁sleep	-540
▁festiv	-541
▁wedding	-542
aug	-543
▁wr	-544
▁cow	-545
▁fam	-546
▁find	-547
▁food	-548
▁life	-549
▁clean	-550
▁fields	-551
▁little	-552
▁market	-553
▁getting	-554
be	-555
▁(	-556
ull	-557
▁got	-558
▁last	-559
▁milk	-560
▁feeling	-561
▁everything	-562
per	-563
rop	-564
▁dry	-565
▁ele	-566
▁try	-567
▁apply	-568
alo	-569
▁bro	-570
ember	-571
ffalo	-572
▁clot	-573
▁over	-574
▁means	-575
▁better	-576
▁buffalo	-577
ra	-578
wn	-579
key	-580
pen	-581
▁god	-582
▁res	-583
▁monkey	-584
▁season	-585
▁fo	-586
▁spr	-587
▁sun	-588
▁compl	-589
▁coming	-590
▁mother	-591
▁someone	-592
▁children	-593
▁remember	-594
ang	-595
ock	-596
▁ce	-597
nder	-598
▁per	-599
▁swe	-600
ought	-601
ary	-602
▁ad	-603
▁bad	-604
▁leav	-605
▁true	-606
▁great	-607
▁thank	-608
▁temple	-609
xt	-610
▁un	-611
▁dif	-612
▁way	-613
owing	-614
▁read	-615
▁sing	-616
▁elect	-617
▁grand	-618
▁under	-619
ft	-620
ise	-621
▁oh	-622
ooking	-623
▁worry	-624
▁happen	-625
▁winter	-626
ains	-627
ause	-628
▁rep	-629
▁roo	-630
ables	-631
aught	-632
▁best	-633
▁fire	-634
▁seed	-635
▁check	-636
de	-637
ani	-638
ici	-639
▁jo	-640
▁bag	-641
▁car	-642
▁own	-643
ndred	-644
▁next	-645
▁shop	-646
▁hundred	-647
▁dep	-648
▁hot	-649
▁roof	-650
▁making	-651
▁vegetables	-652
us	-653
ait	-654
amp	-655
▁sal	-656
ition	-657
▁bank	-658
▁road	-659
▁stor	-660
▁talk	-661
▁feels	-662
▁mount	-663
▁quick	-664
▁evening	-665
ung	-666
ance	-667
atch	-668
▁arr	-669
▁sha	-670
▁fill	-671
▁fine	-672
▁same	-673
▁warm	-674
▁month	-675
▁sound	-676
▁while	-677
▁strong	-678
ric	-679
▁cha	-680
▁run	-681
▁came	-682
▁down	-683
▁main	-684
▁whole	-685
▁eating	-686
▁family	-687
▁something	-688
ato	-689
mon	-690
▁buy	-691
▁rice	-692
▁wind	-693
▁river	-694
▁inside	-695
ne	-696
ile	-697
▁sn	-698
▁farm	-699
▁gone	-700
▁hear	-701
▁list	-702
▁wood	-703
▁could	-704
▁change	-705
br	-706
ell	-707
shi	-708
▁cr	-709
akes	-710
▁fin	-711
▁imp	-712
umber	-713
▁anim	-714
▁door	-715
▁hard	-716
▁open	-717
▁stop	-718
▁wait	-719
inking	-720
▁think	-721
▁without	-722
ail	-723
wor	-724
▁ji	-725
▁del	-726
erson	-727
▁book	-728
▁rest	-729
▁stay	-730
▁wall	-731
▁still	-732
▁sweet	-733
▁person	-734
▁because	-735
▁festival	-736
▁ch	-737
▁giv	-738
▁meet	-739
▁news	-740
▁soil	-741
gether	-742
▁black	-743
▁light	-744
▁never	-745
▁together	-746
iz	-747
act	-748
cre	-749
ied	-750
ken	-751
ope	-752
ared	-753
fect	-754
here	-755
ired	-756
self	-757
ving	-758
▁bre	-759
▁cut	-760
▁fre	-761
opard	-762
▁sist	-763
▁spring	-764
▁leopard	-765
▁monkeys	-766
▁quickly	-767
▁working	-768
cle	-769
old	-770
ated	-771
ctor	-772
ness	-773
ower	-774
atter	-775
▁crop	-776
▁full	-777
▁love	-778
▁path	-779
▁song	-780
▁walk	-781
terday	-782
▁smell	-783
▁clothes	-784
▁yesterday	-785
ds	-786
orn	-787
▁ey	-788
▁gu	-789
alth	-790
ange	-791
vern	-792
▁ear	-793
▁ram	-794
▁tur	-795
▁card	-796
▁cook	-797
▁prep	-798
▁tree	-799
▁trou	-800
▁heard	-801
▁leave	-802
aughter	-803
▁around	-804
▁govern	-805
▁government	-806
ten	-807
▁acc	-808
▁ter	-809
▁tre	-810
▁grow	-811
▁left	-812
▁mean	-813
▁part	-814
▁doing	-815
▁looks	-816
▁maybe	-817
▁broken	-818
▁proper	-819
▁anything	-820
ms	-821
pt	-822
fic	-823
lie	-824
▁ask	-825
▁bit	-826
▁ent	-827
where	-828
▁cont	-829
▁heav	-830
▁said	-831
▁show	-832
▁sure	-833
▁trad	-834
▁turn	-835
icious	-836
▁happy	-837
▁diffic	-838
▁animals	-839
▁careful	-840
▁daughter	-841
te	-842
anc	-843
ump	-844
ved	-845
▁el	-846
ried	-847
▁bir	-848
▁few	-849
▁hey	-850
▁hur	-851
▁sick	-852
▁teac	-853
▁needs	-854
▁seeds	-855
▁father	-856
▁leaves	-857
▁sister	-858
▁underst	-859
▁weather	-860
▁tradition	-861
ya	-862
int	-863
▁hol	-864
▁sum	-865
▁wee	-866
▁cour	-867
▁else	-868
▁head	-869
▁land	-870
▁clear	-871
▁paste	-872
▁place	-873
▁ready	-874
▁number	-875
▁sometim	-876
▁electric	-877
▁difficult	-878
ng	-879
ug	-880
che	-881
med	-882
cial	-883
ship	-884
▁fix	-885
▁coll	-886
▁deep	-887
▁lear	-888
▁live	-889
▁pass	-890
▁fresh	-891
▁stand	-892
▁listen	-893
▁potato	-894
▁teacher	-895
ery	-896
law	-897
ont	-898
▁sk	-899
edic	-900
room	-901
work	-902
▁due	-903
▁late	-904
▁name	-905
▁send	-906
▁side	-907
▁heavy	-908
▁scared	-909
▁summer	-910
▁sometimes	-911
▁electricity	-912
aw	-913
gr	-914
ark	-915
ete	-916
ild	-917
ost	-918
oth	-919
▁cu	-920
ince	-921
▁job	-922
▁rad	-923
▁form	-924
▁pain	-925
▁salt	-926
▁wear	-927
alking	-928
ations	-929
▁front	-930
▁medic	-931
▁peace	-932
▁asking	-933
▁doctor	-934
▁import	-935
▁wonder	-936
▁looking	-937
▁trouble	-938
▁understand	-939
cess	-940
pped	-941
read	-942
ress	-943
soon	-944
▁add	-945
▁dis	-946
▁fun	-947
▁mix	-948
ature	-949
meric	-950
▁didn	-951
▁fall	-952
▁sell	-953
▁terr	-954
▁went	-955
▁hands	-956
▁plast	-957
▁thing	-958
▁three	-959
▁trees	-960
▁using	-961
▁health	-962
▁monsoon	-963
▁turmeric	-964
az	-965
oun	-966
▁gl	-967
omen	-968
vest	-969
▁dec	-970
▁far	-971
▁gar	-972
▁oil	-973
▁ret	-974
▁vis	-975
ction	-976
▁half	-977
▁wild	-978
▁block	-979
▁bride	-980
▁incre	-981
▁stone	-982
▁wheat	-983
▁things	-984
▁brought	-985
▁collect	-986
▁important	-987
io	-988
ale	-989
ney	-990
oor	-991
▁sw	-992
lebr	-993
▁cur	-994
▁dog	-995
▁hig	-996
▁rot	-997
▁sir	-998
inger	-999
▁cost	-1000
▁crow	-1001
▁most	-1002
▁week	-1003
▁build	-1004
▁makes	-1005
▁price	-1006
▁seems	-1007
▁since	-1008
▁study	-1009
artment	-1010
▁called	-1011
▁celebr	-1012
▁dreamt	-1013
▁enough	-1014
▁repair	-1015
▁special	-1016
▁started	-1017
▁complain	-1018
'.	-1019
pl	-1020
ars	-1021
iet	-1022
ilt	-1023
ipe	-1024
not	-1025
ute	-1026
ves	-1027
▁ir	-1028
▁int	-1029
▁thi	-1030
iness	-1031
▁five	-1032
▁soon	-1033
▁times	-1034
▁cannot	-1035
▁grandm	-1036
▁window	-1037
▁account	-1038
▁farming	-1039
▁harvest	-1040
▁outside	-1041
▁properly	-1042
▁mountains	-1043
▁wonderful	-1044
▁department	-1045
aon	-1046
erv	-1047
for	-1048
gar	-1049
ose	-1050
wer	-1051
▁av	-1052
ably	-1053
iece	-1054
ones	-1055
osed	-1056
pper	-1057
▁bar	-1058
▁cry	-1059
▁sto	-1060
otect	-1061
▁char	-1062
▁eyes	-1063
▁goat	-1064
▁hill	-1065
▁hour	-1066
▁room	-1067
▁shar	-1068
▁grass	-1069
▁store	-1070
▁watch	-1071
▁young	-1072
picious	-1073
sidered	-1074
▁arrive	-1075
▁seeing	-1076
▁protect	-1077
▁considered	-1078
..	-1079
ls	-1080
mb	-1081
ils	-1082
mit	-1083
uit	-1084
ages	-1085
ible	-1086
▁cat	-1087
▁eld	-1088
▁kil	-1089
▁kum	-1090
▁rub	-1091
▁shi	-1092
ished	-1093
▁face	-1094
▁forg	-1095
▁phot	-1096
▁slow	-1097
▁tank	-1098
▁tick	-1099
▁wash	-1100
father	-1101
▁being	-1102
▁belie	-1103
▁floor	-1104
▁keeps	-1105
▁learn	-1106
▁piece	-1107
▁entire	-1108
▁kumaon	-1109
▁office	-1110
▁really	-1111
▁nothing	-1112
▁playing	-1113
▁complete	-1114
▁drinking	-1115
bs	-1116
▁pu	-1117
dder	-1118
ence	-1119
ions	-1120
▁bur	-1121
▁cal	-1122
▁col	-1123
▁dal	-1124
▁dev	-1125
▁ide	-1126
▁pay	-1127
▁red	-1128
▁tap	-1129
▁hope	-1130
▁nice	-1131
▁pack	-1132
▁pray	-1133
▁fever	-1134
▁rains	-1135
▁speak	-1136
▁sugar	-1137
▁taste	-1138
▁visit	-1139
▁years	-1140
▁giving	-1141
▁sitting	-1142
▁mountain	-1143
fin	-1144
ict	-1145
llo	-1146
ons	-1147
ors	-1148
rat	-1149
ses	-1150
▁ja	-1151
▁ma	-1152
aper	-1153
fort	-1154
less	-1155
wise	-1156
▁air	-1157
▁aus	-1158
▁pad	-1159
▁sad	-1160
omach	-1161
▁damp	-1162
▁dung	-1163
▁each	-1164
▁feed	-1165
▁four	-1166
▁idea	-1167
▁inst	-1168
▁into	-1169
▁mess	-1170
▁pand	-1171
▁pine	-1172
▁built	-1173
▁class	-1174
▁fruit	-1175
▁hello	-1176
▁write	-1177
▁closed	-1178
▁letter	-1179
▁saying	-1180
▁ticket	-1181
▁happens	-1182
▁stomach	-1183
▁planting	-1184
▁festivals	-1185
▁auspicious	-1186
ho	-1187
hee	-1188
ift	-1189
itu	-1190
iya	-1191
▁im	-1192
▁sy	-1193
ased	-1194
cket	-1195
ense	-1196
pens	-1197
rela	-1198
rent	-1199
ross	-1200
wood	-1201
▁boy	-1202
▁lar	-1203
▁mot	-1204
▁sho	-1205
▁sim	-1206
▁spo	-1207
adhan	-1208
anger	-1209
ching	-1210
▁bell	-1211
▁bigg	-1212
▁dire	-1213
▁ever	-1214
▁fair	-1215
▁free	-1216
▁gift	-1217
▁hold	-1218
▁once	-1219
▁plow	-1220
▁requ	-1221
▁root	-1222
▁break	-1223
▁groom	-1224
▁heart	-1225
▁least	-1226
▁offer	-1227
▁paddy	-1228
▁radio	-1229
▁songs	-1230
▁stick	-1231
▁story	-1232
▁tired	-1233
▁fodder	-1234
▁matter	-1235
▁cooking	-1236
▁friends	-1237
▁leaving	-1238
▁pradhan	-1239
▁strange	-1240
▁finished	-1241
▁otherwise	-1242
▁vegetable	-1243
')	-1244
af	-1245
ash	-1246
esh	-1247
ner	-1248
▁('	-1249
agar	-1250
chen	-1251
ical	-1252
▁ann	-1253
▁dir	-1254
▁kit	-1255
▁min	-1256
▁pol	-1257
▁rec	-1258
▁set	-1259
▁thr	-1260
▁yet	-1261
itely	-1262
▁dist	-1263
▁gets	-1264
▁hair	-1265
▁high	-1266
▁kept	-1267
▁kind	-1268
▁stud	-1269
▁such	-1270
▁vehi	-1271
▁weak	-1272
▁bless	-1273
▁cloth	-1274
▁large	-1275
▁noise	-1276
▁anyone	-1277
▁filled	-1278
▁harela	-1279
▁prepar	-1280
▁return	-1281
▁sickle	-1282
▁comfort	-1283
▁kitchen	-1284
▁married	-1285
▁plastic	-1286
▁thinking	-1287
▁grandfather	-1288
▁grandmother	-1289
ja	-1290
og	-1291
ru	-1292
ua	-1293
any	-1294
con	-1295
oud	-1296
oup	-1297
hood	-1298
ling	-1299
mpty	-1300
raid	-1301
▁act	-1302
▁eng	-1303
▁leg	-1304
▁mud	-1305
▁sol	-1306
ately	-1307
remon	-1308
▁boil	-1309
▁cool	-1310
▁drop	-1311
▁dust	-1312
▁ghee	-1313
▁seat	-1314
▁seen	-1315
▁wife	-1316
▁wish	-1317
▁defin	-1318
▁delhi	-1319
▁diffe	-1320
▁doesn	-1321
▁empty	-1322
▁fight	-1323
▁flour	-1324
▁gives	-1325
▁power	-1326
▁short	-1327
▁walls	-1328
▁afraid	-1329
▁grains	-1330
▁taking	-1331
▁wooden	-1332
▁blocked	-1333
▁ceremon	-1334
▁perfect	-1335
▁running	-1336
▁definitely	-1337
▁traditional	-1338
app	-1339
met	-1340
uck	-1341
unt	-1342
vel	-1343
wal	-1344
▁ju	-1345
ards	-1346
ever	-1347
ging	-1348
hind	-1349
iday	-1350
idge	-1351
nday	-1352
oose	-1353
tern	-1354
ully	-1355
▁aut	-1356
▁end	-1357
▁fer	-1358
▁gir	-1359
▁net	-1360
▁ser	-1361
▁tou	-1362
arden	-1363
▁cand	-1364
▁corn	-1365
▁cows	-1366
▁hald	-1367
▁heat	-1368
▁jeep	-1369
▁ones	-1370
▁ruin	-1371
▁supp	-1372
▁tast	-1373
▁weed	-1374
▁carry	-1375
▁comes	-1376
▁const	-1377
▁dirty	-1378
▁found	-1379
▁glass	-1380
▁mason	-1381
▁photo	-1382
▁wrong	-1383
▁behind	-1384
▁course	-1385
▁forgot	-1386
▁garden	-1387
▁ginger	-1388
▁helmet	-1389
▁sunday	-1390
▁another	-1391
▁arrived	-1392
▁through	-1393
▁walking	-1394
▁worship	-1395
▁happened	-1396
00	-1397
li	-1398
lt	-1399
chi	-1400
ize	-1401
lic	-1402
man	-1403
ory	-1404
til	-1405
▁da	-1406
▁di	-1407
▁es	-1408
ates	-1409
gram	-1410
pect	-1411
wani	-1412
▁atm	-1413
▁din	-1414
▁exc	-1415
▁ill	-1416
▁low	-1417
▁ref	-1418
▁reg	-1419
▁sli	-1420
▁sow	-1421
▁ten	-1422
▁top	-1423
ancha	-1424
azing	-1425
ready	-1426
ually	-1427
▁clim	-1428
▁dark	-1429
▁dest	-1430
▁exam	-1431
▁feet	-1432
▁hung	-1433
▁hurt	-1434
▁kilo	-1435
▁lock	-1436
▁neem	-1437
▁post	-1438
▁ritu	-1439
▁safe	-1440
▁scre	-1441
▁took	-1442
▁alone	-1443
▁crack	-1444
▁eaten	-1445
▁given	-1446
▁guest	-1447
▁motor	-1448
▁point	-1449
▁pract	-1450
▁press	-1451
▁quiet	-1452
▁bucket	-1453
▁forget	-1454
▁houses	-1455
▁pancha	-1456
▁plants	-1457
▁sowing	-1458
ulations	-1459
▁already	-1460
▁biggest	-1461
▁kumaoni	-1462
▁process	-1463
▁building	-1464
▁firewood	-1465
▁haldwani	-1466
▁medicine	-1467
▁sleeping	-1468
▁somewhere	-1469
▁completely	-1470
ai	-1471
by	-1472
me	-1473
up	-1474
wa	-1475
ask	-1476
aul	-1477
ded	-1478
umb	-1479
war	-1480
▁ut	-1481
bile	-1482
chie	-1483
form	-1484
head	-1485
ines	-1486
llow	-1487
medi	-1488
peci	-1489
roat	-1490
▁inv	-1491
▁jag	-1492
▁mus	-1493
▁nam	-1494
▁pin	-1495
▁vot	-1496
asant	-1497
ccess	-1498
▁cong	-1499
▁fell	-1500
▁flow	-1501
▁iron	-1502
▁jour	-1503
▁lang	-1504
▁lost	-1505
▁luck	-1506
▁mine	-1507
▁pick	-1508
▁roti	-1509
▁till	-1510
▁writ	-1511
ousand	-1512
▁broke	-1513
▁climb	-1514
▁early	-1515
▁fixed	-1516
▁guard	-1517
▁helps	-1518
▁juice	-1519
▁reach	-1520
▁women	-1521
▁announ	-1522
▁dinner	-1523
▁direct	-1524
▁especi	-1525
▁expens	-1526
▁handle	-1527
▁hungry	-1528
▁immedi	-1529
▁mobile	-1530
▁signif	-1531
▁slowly	-1532
▁stones	-1533
▁throat	-1534
▁arrange	-1535
▁burning	-1536
▁congrat	-1537
▁holiday	-1538
▁journey	-1539
▁meeting	-1540
▁success	-1541
▁ceremony	-1542
▁thousand	-1543
▁different	-1544
▁happiness	-1545
▁increased	-1546
▁especially	-1547
▁comfortably	-1548
▁immediately	-1549
▁congratulations	-1550
cy	-1551
di	-1552
ey	-1553
ma	-1554
ier	-1555
led	-1556
nts	-1557
ove	-1558
set	-1559
umn	-1560
▁ed	-1561
▁gh	-1562
aken	-1563
gery	-1564
ided	-1565
nect	-1566
osit	-1567
utes	-1568
ying	-1569
▁alr	-1570
▁ban	-1571
▁bha	-1572
▁cor	-1573
▁dam	-1574
▁pan	-1575
▁pat	-1576
▁pow	-1577
▁sur	-1578
▁ton	-1579
ustom	-1580
▁area	-1581
▁calf	-1582
▁cond	-1583
▁nose	-1584
▁rate	-1585
▁real	-1586
▁ring	-1587
▁says	-1588
▁sour	-1589
▁told	-1590
▁avail	-1591
▁birds	-1592
▁boars	-1593
▁close	-1594
▁cross	-1595
▁hours	-1596
▁scare	-1597
▁taken	-1598
▁tower	-1599
▁white	-1600
▁autumn	-1601
▁batter	-1602
▁custom	-1603
▁danger	-1604
▁famous	-1605
▁fertil	-1606
▁ground	-1607
▁myself	-1608
▁needed	-1609
▁powder	-1610
▁screen	-1611
▁signal	-1612
▁sweets	-1613
▁trying	-1614
▁alright	-1615
▁company	-1616
▁flowers	-1617
▁jaggery	-1618
▁mustard	-1619
▁singing	-1620
▁tonight	-1621
▁vehicle	-1622
▁waiting	-1623
▁starting	-1624
▁available	-1625
▁expensive	-1626
no	-1627
ced	-1628
gth	-1629
khe	-1630
osp	-1631
ott	-1632
rig	-1633
rit	-1634
urs	-1635
avor	-1636
band	-1637
book	-1638
iest	-1639
line	-1640
mato	-1641
mora	-1642
▁ang	-1643
▁bab	-1644
▁ben	-1645
▁box	-1646
▁cuc	-1647
▁ext	-1648
▁eye	-1649
▁fan	-1650
▁key	-1651
▁lab	-1652
▁lun	-1653
▁met	-1654
▁rel	-1655
▁sky	-1656
▁smo	-1657
▁tor	-1658
illed	-1659
ument	-1660
vered	-1661
▁both	-1662
▁busy	-1663
▁conf	-1664
▁coun	-1665
▁foot	-1666
▁goes	-1667
▁hail	-1668
▁holi	-1669
▁lent	-1670
▁less	-1671
▁omen	-1672
▁pipe	-1673
▁pros	-1674
▁pump	-1675
▁rani	-1676
▁rece	-1677
▁sand	-1678
▁shiv	-1679
rength	-1680
ternet	-1681
▁birth	-1682
▁books	-1683
▁caref	-1684
▁daily	-1685
▁deepu	-1686
▁favor	-1687
▁feast	-1688
▁green	-1689
▁lemon	-1690
▁mater	-1691
▁often	-1692
▁paper	-1693
▁quest	-1694
▁remed	-1695
▁share	-1696
▁singh	-1697
▁snake	-1698
▁tasty	-1699
▁thick	-1700
▁works	-1701
▁candid	-1702
▁crying	-1703
▁dreams	-1704
▁driver	-1705
▁itself	-1706
▁manage	-1707
▁manure	-1708
▁nature	-1709
▁ruined	-1710
▁stream	-1711
▁tomato	-1712
▁battery	-1713
▁believe	-1714
▁connect	-1715
▁covered	-1716
▁crowded	-1717
▁deposit	-1718
▁message	-1719
▁network	-1720
▁prepare	-1721
▁stopped	-1722
▁talking	-1723
▁terrace	-1724
▁washing	-1725
▁worried	-1726
▁election	-1727
▁fertiliz	-1728
▁homework	-1729
▁internet	-1730
▁standing	-1731
▁strength	-1732
▁studying	-1733
▁whatever	-1734
▁procession	-1735
bo	-1736
da	-1737
dd	-1738
gy	-1739
ks	-1740
mi	-1741
aps	-1742
cal	-1743
gle	-1744
ial	-1745
nal	-1746
ple	-1747
rib	-1748
sol	-1749
ura	-1750
▁pm	-1751
adha	-1752
ched	-1753
come	-1754
ious	-1755
irit	-1756
khet	-1757
lief	-1758
lish	-1759
mbol	-1760
sapp	-1761
ssip	-1762
wali	-1763
▁ate	-1764
▁bor	-1765
▁cre	-1766
▁des	-1767
▁eas	-1768
▁hum	-1769
▁law	-1770
▁org	-1771
▁pit	-1772
▁ste	-1773
▁tie	-1774
asted	-1775
ative	-1776
pping	-1777
▁bear	-1778
▁body	-1779
▁burn	-1780
▁chew	-1781
▁danc	-1782
▁dead	-1783
▁dear	-1784
▁ener	-1785
▁gram	-1786
▁huge	-1787
▁mand	-1788
▁mill	-1789
▁poor	-1790
▁rope	-1791
▁snow	-1792
▁spic	-1793
▁thir	-1794
▁wake	-1795
adhaar	-1796
▁becom	-1797
▁cough	-1798
▁crops	-1799
▁dance	-1800
▁elder	-1801
▁honey	-1802
▁invit	-1803
▁later	-1804
▁rainy	-1805
▁teach	-1806
▁trans	-1807
▁almora	-1808
▁bright	-1809
▁cattle	-1810
▁cooked	-1811
▁elders	-1812
▁gossip	-1813
▁living	-1814
▁nearby	-1815
▁pandit	-1816
▁relief	-1817
▁spirit	-1818
▁symbol	-1819
▁aadhaar	-1820
▁counter	-1821
▁leaking	-1822
▁minutes	-1823
▁plowing	-1824
▁prosper	-1825
▁stories	-1826
▁ranikhet	-1827
▁whatsapp	-1828
▁childhood	-1829
▁dangerous	-1830
cl	-1831
enc	-1832
eng	-1833
era	-1834
fit	-1835
ich	-1836
igh	-1837
ins	-1838
mun	-1839
res	-1840
uce	-1841
urt	-1842
xen	-1843
▁ac	-1844
▁ef	-1845
▁ga	-1846
▁ge	-1847
▁ki	-1848
▁ur	-1849
▁vo	-1850
aced	-1851
atur	-1852
avel	-1853
cest	-1854
ides	-1855
ises	-1856
ital	-1857
rant	-1858
sect	-1859
swer	-1860
ween	-1861
well	-1862
▁avo	-1863
▁bat	-1864
▁bed	-1865
▁bon	-1866
▁dig	-1867
▁gol	-1868
▁hus	-1869
▁ind	-1870
▁joy	-1871
▁men	-1872
▁mou	-1873
▁pal	-1874
▁sor	-1875
▁sub	-1876
▁tru	-1877
▁wet	-1878
▁wow	-1879
aight	-1880
ating	-1881
ities	-1882
iving	-1883
riage	-1884
▁aunt	-1885
▁bath	-1886
▁boys	-1887
▁felt	-1888
▁file	-1889
▁girl	-1890
▁gold	-1891
▁laug	-1892
▁leaf	-1893
▁line	-1894
▁mang	-1895
▁oxen	-1896
▁past	-1897
▁ripe	-1898
▁vide	-1899
arents	-1900
ssible	-1901
▁angry	-1902
▁earth	-1903
▁enter	-1904
▁extra	-1905
▁grind	-1906
▁level	-1907
▁local	-1908
▁lunch	-1909
▁mohan	-1910
▁roots	-1911
▁sharp	-1912
▁spoon	-1913
▁storm	-1914
▁stuck	-1915
▁takes	-1916
▁trust	-1917
▁uncle	-1918
▁upset	-1919
▁utens	-1920
▁voice	-1921
cessary	-1922
▁ancest	-1923
▁answer	-1924
▁bought	-1925
▁commun	-1926
▁destro	-1927
▁diwali	-1928
▁effect	-1929
▁having	-1930
▁inform	-1931
▁insect	-1932
▁ritual	-1933
▁afterno	-1934
▁against	-1935
▁amazing	-1936
▁between	-1937
▁cowshed	-1938
▁decided	-1939
▁english	-1940
▁healthy	-1941
▁husband	-1942
▁windows	-1943
▁anywhere	-1944
▁directly	-1945
▁favorite	-1946
▁marriage	-1947
▁problems	-1948
▁straight	-1949
▁delicious	-1950
▁prosperity	-1951
'?	-1952
).	-1953
ny	-1954
oy	-1955
ps	-1956
ts	-1957
uk	-1958
ets	-1959
ged	-1960
▁	-1961
e	-1962
t	-1963
o	-1964
a	-1965
i	-1966
s	-1967
r	-1968
n	-1969
h	-1970
l	-1971
d	-1972
y	-1973
u	-1974
m	-1975
w	-1976
g	-1977
c	-1978
f	-1979
p	-1980
.	-1981
b	-1982
k	-1983
v	-1984
,	-1985
'	-1986
?	-1987
j	-1988
x	-1989
!	-1990
q	-1991
-	-1992
z	-1993
(	-1994
)	-1995
0	-1996
