<unk>	0
<s>	0
</s>	0
▁t	-0
he	-1
▁i	-2
▁a	-3
▁the	-4
▁w	-5
▁s	-6
in	-7
re	-8
ou	-9
▁f	-10
▁m	-11
er	-12
▁b	-13
ha	-14
▁c	-15
on	-16
ing	-17
▁y	-18
▁d	-19
ll	-20
▁to	-21
▁g	-22
or	-23
▁p	-24
es	-25
▁is	-26
▁it	-27
▁n	-28
▁you	-29
▁l	-30
an	-31
om	-32
at	-33
▁o	-34
▁ha	-35
nd	-36
ve	-37
ar	-38
▁wi	-39
ed	-40
ot	-41
et	-42
st	-43
ow	-44
hi	-45
▁in	-46
le	-47
ay	-48
en	-49
ver	-50
▁of	-51
hat	-52
oo	-53
ld	-54
▁and	-55
▁he	-56
▁r	-57
▁be	-58
▁will	-59
▁e	-60
▁for	-61
▁h	-62
ke	-63
it	-64
as	-65
▁we	-66
▁on	-67
ome	-68
al	-69
▁st	-70
very	-71
ic	-72
▁are	-73
▁my	-74
ig	-75
th	-76
▁have	-77
▁yes	-78
▁fr	-79
▁go	-80
▁do	-81
se	-82
id	-83
his	-84
▁ne	-85
▁u	-86
ch	-87
am	-88
ad	-89
ut	-90
ly	-91
▁re	-92
▁very	-93
▁this	-94
ht	-95
her	-96
one	-97
▁that	-98
ge	-99
ac	-100
▁me	-101
▁what	-102
ood	-103
▁not	-104
▁from	-105
ain	-106
ir	-107
ter	-108
ee	-109
▁sh	-110
▁j	-111
our	-112
ro	-113
ake	-114
ur	-115
▁with	-116
ould	-117
ight	-118
▁so	-119
ill	-120
▁they	-121
ater	-122
▁li	-123
il	-124
▁your	-125
▁v	-126
▁can	-127
▁an	-128
ust	-129
ion	-130
all	-131
▁was	-132
ore	-133
im	-134
▁there	-135
▁water	-136
▁te	-137
pp	-138
ul	-139
king	-140
▁br	-141
▁has	-142
ct	-143
ie	-144
age	-145
▁at	-146
▁get	-147
▁good	-148
▁le	-149
▁wor	-150
is	-151
ive	-152
▁some	-153
out	-154
ant	-155
▁whe	-156
ent	-157
▁k	-158
▁come	-159
ep	-160
ry	-161
op	-162
▁how	-163
est	-164
▁our	-165
▁wh	-166
▁should	-167
un	-168
▁now	-169
▁pl	-170
ast	-171
▁al	-172
and	-173
▁bu	-174
▁th	-175
▁am	-176
▁se	-177
▁but	-178
▁sp	-179
um	-180
▁gr	-181
▁no	-182
▁com	-183
other	-184
▁them	-185
▁did	-186
day	-187
▁vill	-188
han	-189
▁need	-190
ck	-191
red	-192
▁let	-193
ning	-194
ce	-195
ble	-196
▁tr	-197
▁co	-198
▁all	-199
▁us	-200
ard	-201
▁village	-202
art	-203
▁every	-204
ack	-205
▁tim	-206
if	-207
▁one	-208
ong	-209
▁sa	-210
▁day	-211
ook	-212
▁take	-213
ess	-214
ide	-215
ak	-216
▁ke	-217
ice	-218
eel	-219
▁de	-220
▁hi	-221
▁here	-222
ity	-223
▁new	-224
▁pro	-225
ers	-226
▁mu	-227
▁dr	-228
▁like	-229
ind	-230
▁pr	-231
▁time	-232
▁feel	-233
▁just	-234
▁make	-235
▁su	-236
way	-237
▁cl	-238
▁give	-239
▁too	-240
pe	-241
▁as	-242
▁up	-243
ool	-244
▁ab	-245
nt	-246
▁when	-247
ag	-248
fe	-249
▁today	-250
▁or	-251
▁going	-252
so	-253
▁fe	-254
▁don	-255
ick	-256
▁eat	-257
ine	-258
▁af	-259
▁see	-260
iv	-261
ream	-262
qu	-263
▁if	-264
▁man	-265
▁keep	-266
▁work	-267
ate	-268
▁hou	-269
▁pe	-270
are	-271
ame	-272
▁sm	-273
ound	-274
ation	-275
▁fore	-276
▁about	-277
▁chi	-278
▁mon	-279
▁bl	-280
▁con	-281
▁much	-282
mp	-283
ting	-284
▁who	-285
row	-286
▁why	-287
▁any	-288
▁want	-289
au	-290
▁whi	-291
▁must	-292
▁dream	-293
get	-294
▁ro	-295
▁bec	-296
▁house	-297
▁brother	-298
▁ple	-299
▁happ	-300
ase	-301
ber	-302
oug	-303
av	-304
▁sch	-305
▁school	-306
ace	-307
ink	-308
▁forest	-309
▁eve	-310
▁had	-311
▁after	-312
▁ru	-313
ab	-314
▁ok	-315
▁lot	-316
ous	-317
▁ph	-318
▁lo	-319
▁then	-320
ire	-321
ol	-322
▁'	-323
▁rain	-324
ue	-325
ure	-326
▁sc	-327
ment	-328
▁home	-329
▁tell	-330
▁say	-331
▁ar	-332
▁only	-333
▁please	-334
ign	-335
ield	-336
ri	-337
ful	-338
▁kn	-339
iend	-340
▁also	-341
▁friend	-342
▁by	-343
▁mo	-344
▁mar	-345
▁where	-346
ap	-347
oney	-348
▁she	-349
hing	-350
▁out	-351
▁comp	-352
ss	-353
▁ag	-354
▁qu	-355
▁str	-356
▁tea	-357
▁field	-358
ass	-359
ist	-360
▁cle	-361
▁child	-362
▁look	-363
▁ex	-364
▁ve	-365
▁mor	-366
ather	-367
▁okay	-368
▁used	-369
ree	-370
▁saw	-371
▁call	-372
▁sign	-373
▁start	-374
mor	-375
▁fir	-376
▁sit	-377
aking	-378
▁well	-379
side	-380
▁app	-381
▁big	-382
▁old	-383
▁their	-384
▁morning	-385
ans	-386
ank	-387
arm	-388
ort	-389
▁har	-390
▁him	-391
thing	-392
▁back	-393
▁money	-394
▁first	-395
em	-396
▁hel	-397
▁away	-398
▁night	-399
ings	-400
▁know	-401
▁bo	-402
▁en	-403
hes	-404
ies	-405
les	-406
▁fl	-407
ff	-408
we	-409
alk	-410
der	-411
tle	-412
▁off	-413
▁hand	-414
▁would	-415
▁ye	-416
ople	-417
▁rem	-418
▁people	-419
▁tw	-420
▁been	-421
▁than	-422
ens	-423
▁che	-424
▁gre	-425
ade	-426
ason	-427
ount	-428
aut	-429
▁pre	-430
▁his	-431
▁city	-432
morrow	-433
▁tomorrow	-434
os	-435
omet	-436
▁again	-437
▁beaut	-438
▁cold	-439
▁days	-440
▁more	-441
ren	-442
▁bus	-443
▁chan	-444
▁somet	-445
▁everyone	-446
▁right	-447
ach	-448
als	-449
ther	-450
▁dur	-451
▁her	-452
▁help	-453
▁year	-454
▁become	-455
sh	-456
har	-457
pees	-458
▁does	-459
▁even	-460
▁phone	-461
▁small	-462
▁rupees	-463
ave	-464
ect	-465
fore	-466
▁mis	-467
▁drink	-468
▁beautif	-469
dy	-470
la	-471
ty	-472
▁hu	-473
able	-474
ding	-475
ough	-476
▁wed	-477
▁many	-478
▁were	-479
▁these	-480
▁during	-481
lf	-482
hed	-483
ily	-484
urn	-485
▁two	-486
▁bring	-487
ite	-488
▁bet	-489
▁may	-490
▁might	-491
▁plant	-492
▁sl	-493
▁lit	-494
▁before	-495
aste	-496
blem	-497
▁sle	-498
▁use	-499
▁care	-500
▁veget	-501
▁problem	-502
ip	-503
ath	-504
ket	-505
ally	-506
▁put	-507
▁other	-508
▁beautiful	-509
▁which	-510
cc	-511
ci	-512
ish	-513
ways	-514
▁its	-515
▁win	-516
▁temp	-517
eep	-518
mer	-519
own	-520
ult	-521
iver	-522
▁long	-523
▁miss	-524
▁always	-525
ix	-526
▁po	-527
▁spe	-528
▁fest	-529
▁made	-530
▁near	-531
air	-532
ilk	-533
▁pot	-534
▁son	-535
▁stu	-536
▁won	-537
▁done	-538
▁play	-539
▁sleep	-540
▁festiv	-541
▁wedding	-542
aug	-543
▁wr	-544
▁cow	-545
▁fam	-546
▁find	-547
▁food	-548
▁life	-549
▁clean	-550
▁fields	-551
▁little	-552
▁market	-553
▁getting	-554
be	-555
▁(	-556
ull	-557
▁got	-558
▁last	-559
▁milk	-560
▁feeling	-561
▁everything	-562
per	-563
rop	-564
▁dry	-565
▁ele	-566
▁try	-567
▁apply	-568
alo	-569
▁bro	-570
ember	-571
ffalo	-572
▁clot	-573
▁over	-574
▁means	-575
▁better	-576
▁buffalo	-577
ra	-578
wn	-579
key	-580
pen	-581
▁god	-582
▁res	-583
▁monkey	-584
▁season	-585
▁fo	-586
▁spr	-587
▁sun	-588
▁compl	-589
▁coming	-590
▁mother	-591
▁someone	-592
▁children	-593
▁remember	-594
ang	-595
ock	-596
▁ce	-597
nder	-598
▁per	-599
▁swe	-600
ought	-601
ary	-602
▁ad	-603
▁bad	-604
▁leav	-605
▁true	-606
▁great	-607
▁thank	-608
▁temple	-609
xt	-610
▁un	-611
▁dif	-612
▁way	-613
owing	-614
▁read	-615
▁sing	-616
▁elect	-617
▁grand	-618
▁under	-619
ft	-620
ise	-621
▁oh	-622
ooking	-623
▁worry	-624
▁happen	-625
▁winter	-626
ains	-627
ause	-628
▁rep	-629
▁roo	-630
ables	-631
aught	-632
▁best	-633
▁fire	-634
▁seed	-635
▁check	-636
de	-637
ani	-638
ici	-639
▁jo	-640
▁bag	-641
▁car	-642
▁own	-643
ndred	-644
▁next	-645
▁shop	-646
▁hundred	-647
▁dep	-648
▁hot	-649
▁roof	-650
▁making	-651
▁vegetables	-652
us	-653
ait	-654
amp	-655
▁sal	-656
ition	-657
▁bank	-658
▁road	-659
▁stor	-660
▁talk	-661
▁feels	-662
▁mount	-663
▁quick	-664
▁evening	-665
ung	-666
ance	-667
atch	-668
▁arr	-669
▁sha	-670
▁fill	-671
▁fine	-672
▁same	-673
▁warm	-674
▁month	-675
▁sound	-676
▁while	-677
▁strong	-678
ric	-679
▁cha	-680
▁run	-681
▁came	-682
▁down	-683
▁main	-684
▁whole	-685
▁eating	-686
▁family	-687
▁something	-688
ato	-689
mon	-690
▁buy	-691
▁rice	-692
▁wind	-693
▁river	-694
▁inside	-695
ne	-696
ile	-697
▁sn	-698
▁farm	-699
▁gone	-700
▁hear	-701
▁list	-702
▁wood	-703
▁could	-704
▁change	-705
br	-706
ell	-707
shi	-708
▁cr	-709
akes	-710
▁fin	-711
▁imp	-712
umber	-713
▁anim	-714
▁door	-715
▁hard	-716
▁open	-717
▁stop	-718
▁wait	-719
inking	-720
▁think	-721
▁without	-722
ail	-723
wor	-724
▁ji	-725
▁del	-726
erson	-727
▁book	-728
▁rest	-729
▁stay	-730
▁wall	-731
▁still	-732
▁sweet	-733
▁person	-734
▁because	-735
▁festival	-736
▁ch	-737
▁giv	-738
▁meet	-739
▁news	-740
▁soil	-741
gether	-742
▁black	-743
▁light	-744
▁never	-745
▁together	-746
iz	-747
act	-748
cre	-749
ied	-750
ken	-751
ope	-752
ared	-753
fect	-754
here	-755
ired	-756
self	-757
ving	-758
▁bre	-759
▁cut	-760
▁fre	-761
opard	-762
▁sist	-763
▁spring	-764
▁leopard	-765
▁monkeys	-766
▁quickly	-767
▁working	-768
cle	-769
old	-770
ated	-771
ctor	-772
ness	-773
ower	-774
atter	-775
▁crop	-776
▁full	-777
▁love	-778
▁path	-779
▁song	-780
▁walk	-781
terday	-782
▁smell	-783
▁clothes	-784
▁yesterday	-785
ds	-786
orn	-787
▁ey	-788
▁gu	-789
alth	-790
ange	-791
vern	-792
▁ear	-793
▁ram	-794
▁tur	-795
▁card	-796
▁cook	-797
▁prep	-798
▁tree	-799
▁trou	-800
▁heard	-801
▁leave	-802
aughter	-803
▁around	-804
▁govern	-805
▁government	-806
ten	-807
▁acc	-808
▁ter	-809
▁tre	-810
▁grow	-811
▁left	-812
▁mean	-813
▁part	-814
▁doing	-815
▁looks	-816
▁maybe	-817
▁broken	-818
▁proper	-819
▁anything	-820
ms	-821
pt	-822
fic	-823
lie	-824
▁ask	-825
▁bit	-826
▁ent	-827
where	-828
▁cont	-829
▁heav	-830
▁said	-831
▁show	-832
▁sure	-833
▁trad	-834
▁turn	-835
icious	-836
▁happy	-837
▁diffic	-838
▁animals	-839
▁careful	-840
▁daughter	-841
te	-842
anc	-843
ump	-844
ved	-845
▁el	-846
ried	-847
▁bir	-848
▁few	-849
▁hey	-850
▁hur	-851
▁sick	-852
▁teac	-853
▁needs	-854
▁seeds	-855
▁father	-856
▁leaves	-857
▁sister	-858
▁underst	-859
▁weather	-860
▁tradition	-861
ya	-862
int	-863
▁hol	-864
▁sum	-865
▁wee	-866
▁cour	-867
▁else	-868
▁head	-869
▁land	-870
▁clear	-871
▁paste	-872
▁place	-873
▁ready	-874
▁number	-875
▁sometim	-876
▁electric	-877
▁difficult	-878
ng	-879
ug	-880
che	-881
med	-882
cial	-883
ship	-884
▁fix	-885
▁coll	-886
▁deep	-887
▁lear	-888
▁live	-889
▁pass	-890
▁fresh	-891
▁stand	-892
▁listen	-893
▁potato	-894
▁teacher	-895
ery	-896
law	-897
ont	-898
▁sk	-899
edic	-900
room	-901
work	-902
▁due	-903
▁late	-904
▁name	-905
▁send	-906
▁side	-907
▁heavy	-908
▁scared	-909
▁summer	-910
▁sometimes	-911
▁electricity	-912
aw	-913
gr	-914
ark	-915
ete	-916
ild	-917
ost	-918
oth	-919
▁cu	-920
ince	-921
▁job	-922
▁rad	-923
▁form	-924
▁pain	-925
▁salt	-926
▁wear	-927
alking	-928
ations	-929
▁front	-930
▁medic	-931
▁peace	-932
▁asking	-933
▁doctor	-934
▁import	-935
▁wonder	-936
▁looking	-937
▁trouble	-938
▁understand	-939
cess	-940
pped	-941
read	-942
ress	-943
soon	-944
▁add	-945
▁dis	-946
▁fun	-947
▁mix	-948
ature	-949
meric	-950
▁didn	-951
▁fall	-952
▁sell	-953
▁terr	-954
▁went	-955
▁hands	-956
▁plast	-957
▁thing	-958
▁three	-959
▁trees	-960
▁using	-961
▁health	-962
▁monsoon	-963
▁turmeric	-964
az	-965
oun	-966
▁gl	-967
omen	-968
vest	-969
▁dec	-970
▁far	-971
▁gar	-972
▁oil	-973
▁ret	-974
▁vis	-975
ction	-976
▁half	-977
▁wild	-978
▁block	-979
▁bride	-980
▁incre	-981
▁stone	-982
▁wheat	-983
▁things	-984
▁brought	-985
▁collect	-986
▁important	-987
io	-988
ale	-989
ney	-990
oor	-991
▁sw	-992
lebr	-993
▁cur	-994
▁dog	-995
▁hig	-996
▁rot	-997
▁sir	-998
inger	-999
▁cost	-1000
▁crow	-1001
▁most	-1002
▁week	-1003
▁build	-1004
▁makes	-1005
▁price	-1006
▁seems	-1007
▁since	-1008
▁study	-1009
artment	-1010
▁called	-1011
▁celebr	-1012
▁dreamt	-1013
▁enough	-1014
▁repair	-1015
▁special	-1016
▁started	-1017
▁complain	-1018
'.	-1019
pl	-1020
ars	-1021
iet	-1022
ilt	-1023
ipe	-1024
not	-1025
ute	-1026
ves	-1027
▁ir	-1028
▁int	-1029
▁thi	-1030
iness	-1031
▁five	-1032
▁soon	-1033
▁times	-1034
▁cannot	-1035
▁grandm	-1036
▁window	-1037
▁account	-1038
▁farming	-1039
▁harvest	-1040
▁outside	-1041
▁properly	-1042
▁mountains	-1043
▁wonderful	-1044
▁department	-1045
aon	-1046
erv	-1047
for	-1048
gar	-1049
ose	-1050
wer	-1051
▁av	-1052
ably	-1053
iece	-1054
ones	-1055
osed	-1056
pper	-1057
▁bar	-1058
▁cry	-1059
▁sto	-1060
otect	-1061
▁char	-1062
▁eyes	-1063
▁goat	-1064
▁hill	-1065
▁hour	-1066
▁room	-1067
▁shar	-1068
▁grass	-1069
▁store	-1070
▁watch	-1071
▁young	-1072
picious	-1073
sidered	-1074
▁arrive	-1075
▁seeing	-1076
▁protect	-1077
▁considered	-1078
..	-1079
ls	-1080
mb	-1081
ils	-1082
mit	-1083
uit	-1084
ages	-1085
ible	-1086
▁cat	-1087
▁eld	-1088
▁kil	-1089
▁kum	-1090
▁rub	-1091
▁shi	-1092
ished	-1093
▁face	-1094
▁forg	-1095
▁phot	-1096
▁slow	-1097
▁tank	-1098
▁tick	-1099
▁wash	-1100
father	-1101
▁being	-1102
▁belie	-1103
▁floor	-1104
▁keeps	-1105
▁learn	-1106
▁piece	-1107
▁entire	-1108
▁kumaon	-1109
▁office	-1110
▁really	-1111
▁nothing	-1112
▁playing	-1113
▁complete	-1114
▁drinking	-1115
bs	-1116
▁pu	-1117
dder	-1118
ence	-1119
ions	-1120
▁bur	-1121
▁cal	-1122
▁col	-1123
▁dal	-1124
▁dev	-1125
▁ide	-1126
▁pay	-1127
▁red	-1128
▁tap	-1129
▁hope	-1130
▁nice	-1131
▁pack	-1132
▁pray	-1133
▁fever	-1134
▁rains	-1135
▁speak	-1136
▁sugar	-1137
▁taste	-1138
▁visit	-1139
▁years	-1140
▁giving	-1141
▁sitting	-1142
▁mountain	-1143
fin	-1144
ict	-1145
llo	-1146
ons	-1147
ors	-1148
rat	-1149
ses	-1150
▁ja	-1151
▁ma	-1152
aper	-1153
fort	-1154
less	-1155
wise	-1156
▁air	-1157
▁aus	-1158
▁pad	-1159
▁sad	-1160
omach	-1161
▁damp	-1162
▁dung	-1163
▁each	-1164
▁feed	-1165
▁four	-1166
▁idea	-1167
▁inst	-1168
▁into	-1169
▁mess	-1170
▁pand	-1171
▁pine	-1172
▁built	-1173
▁class	-1174
▁fruit	-1175
▁hello	-1176
▁write	-1177
▁closed	-1178
▁letter	-1179
▁saying	-1180
▁ticket	-1181
▁happens	-1182
▁stomach	-1183
▁planting	-1184
▁festivals	-1185
▁auspicious	-1186
ho	-1187
hee	-1188
ift	-1189
itu	-1190
iya	-1191
▁im	-1192
▁sy	-1193
ased	-1194
cket	-1195
ense	-1196
pens	-1197
rela	-1198
rent	-1199
ross	-1200
wood	-1201
▁boy	-1202
▁lar	-1203
▁mot	-1204
▁sho	-1205
▁sim	-1206
▁spo	-1207
adhan	-1208
anger	-1209
ching	-1210
▁bell	-1211
▁bigg	-1212
▁dire	-1213
▁ever	-1214
▁fair	-1215
▁free	-1216
▁gift	-1217
▁hold	-1218
▁once	-1219
▁plow	-1220
▁requ	-1221
▁root	-1222
▁break	-1223
▁groom	-1224
▁heart	-1225
▁least	-1226
▁offer	-1227
▁paddy	-1228
▁radio	-1229
▁songs	-1230
▁stick	-1231
▁story	-1232
▁tired	-1233
▁fodder	-1234
▁matter	-1235
▁cooking	-1236
▁friends	-1237
▁leaving	-1238
▁pradhan	-1239
▁strange	-1240
▁finished	-1241
▁otherwise	-1242
▁vegetable	-1243
')	-1244
af	-1245
ash	-1246
esh	-1247
ner	-1248
▁('	-1249
agar	-1250
chen	-1251
ical	-1252
▁ann	-1253
▁dir	-1254
▁kit	-1255
▁min	-1256
▁pol	-1257
▁rec	-1258
▁set	-1259
▁thr	-1260
▁yet	-1261
itely	-1262
▁dist	-1263
▁gets	-1264
▁hair	-1265
▁high	-1266
▁kept	-1267
▁kind	-1268
▁stud	-1269
▁such	-1270
▁vehi	-1271
▁weak	-1272
▁bless	-1273
▁cloth	-1274
▁large	-1275
▁noise	-1276
▁anyone	-1277
▁filled	-1278
▁harela	-1279
▁prepar	-1280
▁return	-1281
▁sickle	-1282
▁comfort	-1283
▁kitchen	-1284
▁married	-1285
▁plastic	-1286
▁thinking	-1287
▁grandfather	-1288
▁grandmother	-1289
ja	-1290
og	-1291
ru	-1292
ua	-1293
any	-1294
con	-1295
oud	-1296
oup	-1297
hood	-1298
ling	-1299
mpty	-1300
raid	-1301
▁act	-1302
▁eng	-1303
▁leg	-1304
▁mud	-1305
▁sol	-1306
ately	-1307
remon	-1308
▁boil	-1309
▁cool	-1310
▁drop	-1311
▁dust	-1312
▁ghee	-1313
▁seat	-1314
▁seen	-1315
▁wife	-1316
▁wish	-1317
▁defin	-1318
▁delhi	-1319
▁diffe	-1320
▁doesn	-1321
▁empty	-1322
▁fight	-1323
▁flour	-1324
▁gives	-1325
▁power	-1326
▁short	-1327
▁walls	-1328
▁afraid	-1329
▁grains	-1330
▁taking	-1331
▁wooden	-1332
▁blocked	-1333
▁ceremon	-1334
▁perfect	-1335
▁running	-1336
▁definitely	-1337
▁traditional	-1338
app	-1339
met	-1340
uck	-1341
unt	-1342
vel	-1343
wal	-1344
▁ju	-1345
ards	-1346
ever	-1347
ging	-1348
hind	-1349
iday	-1350
idge	-1351
nday	-1352
oose	-1353
tern	-1354
ully	-1355
▁aut	-1356
▁end	-1357
▁fer	-1358
▁gir	-1359
▁net	-1360
▁ser	-1361
▁tou	-1362
arden	-1363
▁cand	-1364
▁corn	-1365
▁cows	-1366
▁hald	-1367
▁heat	-1368
▁jeep	-1369
▁ones	-1370
▁ruin	-1371
▁supp	-1372
▁tast	-1373
▁weed	-1374
▁carry	-1375
▁comes	-1376
▁const	-1377
▁dirty	-1378
▁found	-1379
▁glass	-1380
▁mason	-1381
▁photo	-1382
▁wrong	-1383
▁behind	-1384
▁course	-1385
▁forgot	-1386
▁garden	-1387
▁ginger	-1388
▁helmet	-1389
▁sunday	-1390
▁another	-1391
▁arrived	-1392
▁through	-1393
▁walking	-1394
▁worship	-1395
▁happened	-1396
00	-1397
li	-1398
lt	-1399
chi	-1400
ize	-1401
lic	-1402
man	-1403
ory	-1404
til	-1405
▁da	-1406
▁di	-1407
▁es	-1408
ates	-1409
gram	-1410
pect	-1411
wani	-1412
▁atm	-1413
▁din	-1414
▁exc	-1415
▁ill	-1416
▁low	-1417
▁ref	-1418
▁reg	-1419
▁sli	-1420
▁sow	-1421
▁ten	-1422
▁top	-1423
ancha	-1424
azing	-1425
ready	-1426
ually	-1427
▁clim	-1428
▁dark	-1429
▁dest	-1430
▁exam	-1431
▁feet	-1432
▁hung	-1433
▁hurt	-1434
▁kilo	-1435
▁lock	-1436
▁neem	-1437
▁post	-1438
▁ritu	-1439
▁safe	-1440
▁scre	-1441
▁took	-1442
▁alone	-1443
▁crack	-1444
▁eaten	-1445
▁given	-1446
▁guest	-1447
▁motor	-1448
▁point	-1449
▁pract	-1450
▁press	-1451
▁quiet	-1452
▁bucket	-1453
▁forget	-1454
▁houses	-1455
▁pancha	-1456
▁plants	-1457
▁sowing	-1458
ulations	-1459
▁already	-1460
▁biggest	-1461
▁kumaoni	-1462
▁process	-1463
▁building	-1464
▁firewood	-1465
▁haldwani	-1466
▁medicine	-1467
▁sleeping	-1468
▁somewhere	-1469
▁completely	-1470
ai	-1471
by	-1472
me	-1473
up	-1474
wa	-1475
ask	-1476
aul	-1477
ded	-1478
umb	-1479
war	-1480
▁ut	-1481
bile	-1482
chie	-1483
form	-1484
head	-1485
ines	-1486
llow	-1487
medi	-1488
peci	-1489
roat	-1490
▁inv	-1491
▁jag	-1492
▁mus	-1493
▁nam	-1494
▁pin	-1495
▁vot	-1496
asant	-1497
ccess	-1498
▁cong	-1499
▁fell	-1500
▁flow	-1501
▁iron	-1502
▁jour	-1503
▁lang	-1504
▁lost	-1505
▁luck	-1506
▁mine	-1507
▁pick	-1508
▁roti	-1509
▁till	-1510
▁writ	-1511
ousand	-1512
▁broke	-1513
▁climb	-1514
▁early	-1515
▁fixed	-1516
▁guard	-1517
▁helps	-1518
▁juice	-1519
▁reach	-1520
▁women	-1521
▁announ	-1522
▁dinner	-1523
▁direct	-1524
▁especi	-1525
▁expens	-1526
▁handle	-1527
▁hungry	-1528
▁immedi	-1529
▁mobile	-1530
▁signif	-1531
▁slowly	-1532
▁stones	-1533
▁throat	-1534
▁arrange	-1535
▁burning	-1536
▁congrat	-1537
▁holiday	-1538
▁journey	-1539
▁meeting	-1540
▁success	-1541
▁ceremony	-1542
▁thousand	-1543
▁different	-1544
▁happiness	-1545
▁increased	-1546
▁especially	-1547
▁comfortably	-1548
▁immediately	-1549
▁congratulations	-1550
cy	-1551
di	-1552
ey	-1553
ma	-1554
ier	-1555
led	-1556
nts	-1557
ove	-1558
set	-1559
umn	-1560
▁ed	-1561
▁gh	-1562
aken	-1563
gery	-1564
ided	-1565
nect	-1566
osit	-1567
utes	-1568
ying	-1569
▁alr	-1570
▁ban	-1571
▁bha	-1572
▁cor	-1573
▁dam	-1574
▁pan	-1575
▁pat	-1576
▁pow	-1577
▁sur	-1578
▁ton	-1579
ustom	-1580
▁area	-1581
▁calf	-1582
▁cond	-1583
▁nose	-1584
▁rate	-1585
▁real	-1586
▁ring	-1587
▁says	-1588
▁sour	-1589
▁told	-1590
▁avail	-1591
▁birds	-1592
▁boars	-1593
▁close	-1594
▁cross	-1595
▁hours	-1596
▁scare	-1597
▁taken	-1598
▁tower	-1599
▁white	-1600
▁autumn	-1601
▁batter	-1602
▁custom	-1603
▁danger	-1604
▁famous	-1605
▁fertil	-1606
▁ground	-1607
▁myself	-1608
▁needed	-1609
▁powder	-1610
▁screen	-1611
▁signal	-1612
▁sweets	-1613
▁trying	-1614
▁alright	-1615
▁company	-1616
▁flowers	-1617
▁jaggery	-1618
▁mustard	-1619
▁singing	-1620
▁tonight	-1621
▁vehicle	-1622
▁waiting	-1623
▁starting	-1624
▁available	-1625
▁expensive	-1626
no	-1627
ced	-1628
gth	-1629
khe	-1630
osp	-1631
ott	-1632
rig	-1633
rit	-1634
urs	-1635
avor	-1636
band	-1637
book	-1638
iest	-1639
line	-1640
mato	-1641
mora	-1642
▁ang	-1643
▁bab	-1644
▁ben	-1645
▁box	-1646
▁cuc	-1647
▁ext	-1648
▁eye	-1649
▁fan	-1650
▁key	-1651
▁lab	-1652
▁lun	-1653
▁met	-1654
▁rel	-1655
▁sky	-1656
▁smo	-1657
▁tor	-1658
illed	-1659
ument	-1660
vered	-1661
▁both	-1662
▁busy	-1663
▁conf	-1664
▁coun	-1665
▁foot	-1666
▁goes	-1667
▁hail	-1668
▁holi	-1669
▁lent	-1670
▁less	-1671
▁omen	-1672
▁pipe	-1673
▁pros	-1674
▁pump	-1675
▁rani	-1676
▁rece	-1677
▁sand	-1678
▁shiv	-1679
rength	-1680
ternet	-1681
▁birth	-1682
▁books	-1683
▁caref	-1684
▁daily	-1685
▁deepu	-1686
▁favor	-1687
▁feast	-1688
▁green	-1689
▁lemon	-1690
▁mater	-1691
▁often	-1692
▁paper	-1693
▁quest	-1694
▁remed	-1695
▁share	-1696
▁singh	-1697
▁snake	-1698
▁tasty	-1699
▁thick	-1700
▁works	-1701
▁candid	-1702
▁crying	-1703
▁dreams	-1704
▁driver	-1705
▁itself	-1706
▁manage	-1707
▁manure	-1708
▁nature	-1709
▁ruined	-1710
▁stream	-1711
▁tomato	-1712
▁battery	-1713
▁believe	-1714
▁connect	-1715
▁covered	-1716
▁crowded	-1717
▁deposit	-1718
▁message	-1719
▁network	-1720
▁prepare	-1721
▁stopped	-1722
▁talking	-1723
▁terrace	-1724
▁washing	-1725
▁worried	-1726
▁election	-1727
▁fertiliz	-1728
▁homework	-1729
▁internet	-1730
▁standing	-1731
▁strength	-1732
▁studying	-1733
▁whatever	-1734
▁procession	-1735
bo	-1736
da	-1737
dd	-1738
gy	-1739
ks	-1740
mi	-1741
aps	-1742
cal	-1743
gle	-1744
ial	-1745
nal	-1746
ple	-1747
rib	-1748
sol	-1749
ura	-1750
▁pm	-1751
adha	-1752
ched	-1753
come	-1754
ious	-1755
irit	-1756
khet	-1757
lief	-1758
lish	-1759
mbol	-1760
sapp	-1761
ssip	-1762
wali	-1763
▁ate	-1764
▁bor	-1765
▁cre	-1766
▁des	-1767
▁eas	-1768
▁hum	-1769
▁law	-1770
▁org	-1771
▁pit	-1772
▁ste	-1773
▁tie	-1774
asted	-1775
ative	-1776
pping	-1777
▁bear	-1778
▁body	-1779
▁burn	-1780
▁chew	-1781
▁danc	-1782
▁dead	-1783
▁dear	-1784
▁ener	-1785
▁gram	-1786
▁huge	-1787
▁mand	-1788
▁mill	-1789
▁poor	-1790
▁rope	-1791
▁snow	-1792
▁spic	-1793
▁thir	-1794
▁wake	-1795
adhaar	-1796
▁becom	-1797
▁cough	-1798
▁crops	-1799
▁dance	-1800
▁elder	-1801
▁honey	-1802
▁invit	-1803
▁later	-1804
▁rainy	-1805
▁teach	-1806
▁trans	-1807
▁almora	-1808
▁bright	-1809
▁cattle	-1810
▁cooked	-1811
▁elders	-1812
▁gossip	-1813
▁living	-1814
▁nearby	-1815
▁pandit	-1816
▁relief	-1817
▁spirit	-1818
▁symbol	-1819
▁aadhaar	-1820
▁counter	-1821
▁leaking	-1822
▁minutes	-1823
▁plowing	-1824
▁prosper	-1825
▁stories	-1826
▁ranikhet	-1827
▁whatsapp	-1828
▁childhood	-1829
▁dangerous	-1830
cl	-1831
enc	-1832
eng	-1833
era	-1834
fit	-1835
ich	-1836
igh	-1837
ins	-1838
mun	-1839
res	-1840
uce	-1841
urt	-1842
xen	-1843
▁ac	-1844
▁ef	-1845
▁ga	-1846
▁ge	-1847
▁ki	-1848
▁ur	-1849
▁vo	-1850
aced	-1851
atur	-1852
avel	-1853
cest	-1854
ides	-1855
ises	-1856
ital	-1857
rant	-1858
sect	-1859
swer	-1860
ween	-1861
well	-1862
▁avo	-1863
▁bat	-1864
▁bed	-1865
▁bon	-1866
▁dig	-1867
▁gol	-1868
▁hus	-1869
▁ind	-1870
▁joy	-1871
▁men	-1872
▁mou	-1873
▁pal	-1874
▁sor	-1875
▁sub	-1876
▁tru	-1877
▁wet	-1878
▁wow	-1879
aight	-1880
ating	-1881
ities	-1882
iving	-1883
riage	-1884
▁aunt	-1885
▁bath	-1886
▁boys	-1887
▁felt	-1888
▁file	-1889
▁girl	-1890
▁gold	-1891
▁laug	-1892
▁leaf	-1893
▁line	-1894
▁mang	-1895
▁oxen	-1896
▁past	-1897
▁ripe	-1898
▁vide	-1899
arents	-1900
ssible	-1901
▁angry	-1902
▁earth	-1903
▁enter	-1904
▁extra	-1905
▁grind	-1906
▁level	-1907
▁local	-1908
▁lunch	-1909
▁mohan	-1910
▁roots	-1911
▁sharp	-1912
▁spoon	-1913
▁storm	-1914
▁stuck	-1915
▁takes	-1916
▁trust	-1917
▁uncle	-1918
▁upset	-1919
▁utens	-1920
▁voice	-1921
cessary	-1922
▁ancest	-1923
▁answer	-1924
▁bought	-1925
▁commun	-1926
▁destro	-1927
▁diwali	-1928
▁effect	-1929
▁having	-1930
▁inform	-1931
▁insect	-1932
▁ritual	-1933
▁afterno	-1934
▁against	-1935
▁amazing	-1936
▁between	-1937
▁cowshed	-1938
▁decided	-1939
▁english	-1940
▁healthy	-1941
▁husband	-1942
▁windows	-1943
▁anywhere	-1944
▁directly	-1945
▁favorite	-1946
▁marriage	-1947
▁problems	-1948
▁straight	-1949
▁delicious	-1950
▁prosperity	-1951
'?	-1952
).	-1953
ny	-1954
oy	-1955
ps	-1956
ts	-1957
uk	-1958
ets	-1959
ged	-1960
hai	-1961
hol	-1962
hor	-1963
lls	-1964
oes	-1965
oom	-1966
sel	-1967
ulf	-1968
use	-1969
yat	-1970
▁ho	-1971
▁kg	-1972
▁ty	-1973
ache	-1974
anch	-1975
anda	-1976
arch	-1977
ered	-1978
ighb	-1979
ipan	-1980
ipur	-1981
mber	-1982
ntil	-1983
oman	-1984
pons	-1985
ries	-1986
▁adv	-1987
▁art	-1988
▁dei	-1989
▁fet	-1990
▁fif	-1991
▁isn	-1992
▁kne	-1993
▁lou	-1994
▁por	-1995
▁pun	-1996
▁pur	-1997
▁ran	-1998
▁ris	-1999
▁sac	-2000
▁tin	-2001
▁var	-2002
▁vol	-2003
▁wis	-2004
▁yog	-2005
ality	-2006
aster	-2007
bably	-2008
harge	-2009
ience	-2010
ments	-2011
tyard	-2012
utely	-2013
ution	-2014
▁ache	-2015
▁baby	-2016
▁bags	-2017
▁curd	-2018
▁fare	-2019
▁fulf	-2020
▁gave	-2021
▁lamp	-2022
▁loss	-2023
▁pest	-2024
▁plan	-2025
▁prom	-2026
▁prov	-2027
▁puja	-2028
▁roam	-2029
▁sile	-2030
▁skin	-2031
▁soft	-2032
▁subs	-2033
▁test	-2034
▁thin	-2035
ulture	-2036
▁absol	-2037
▁avoid	-2038
▁blood	-2039
▁dried	-2040
▁hills	-2041
▁hurry	-2042
▁knows	-2043
▁lucky	-2044
▁secon	-2045
▁shiva	-2046
▁shoes	-2047
▁spent	-2048
▁thorn	-2049
▁those	-2050
▁tooth	-2051
▁touch	-2052
▁woman	-2053
▁finger	-2054
▁finish	-2055
▁guests	-2056
▁jaipur	-2057
▁neighb	-2058
▁others	-2059
▁priest	-2060
▁reserv	-2061
▁simple	-2062
▁variet	-2063
▁yellow	-2064
▁compost	-2065
▁contain	-2066
▁dancing	-2067
▁install	-2068
▁lentils	-2069
▁letters	-2070
▁motorcy	-2071
▁parents	-2072
▁plaster	-2073
▁program	-2074
▁quality	-2075
▁raining	-2076
▁studies	-2077
▁brothers	-2078
▁constant	-2079
▁maternal	-2080
▁peaceful	-2081
▁pleasant	-2082
▁potatoes	-2083
▁practice	-2084
▁probably	-2085
▁tomatoes	-2086
▁watching	-2087
▁yourself	-2088
▁blessings	-2089
▁candidate	-2090
▁carefully	-2091
▁community	-2092
▁courtyard	-2093
▁happening	-2094
▁medicines	-2095
▁necessary	-2096
▁panchayat	-2097
▁signifies	-2098
▁absolutely	-2099
▁fertilizer	-2100
▁reservation	-2101
eg	-2102
ib	-2103
my	-2104
xe	-2105
ais	-2106
aus	-2107
eev	-2108
gin	-2109
idd	-2110
oop	-2111
rol	-2112
une	-2113
vie	-2114
▁ev	-2115
▁id	-2116
....	-2117
acks	-2118
ener	-2119
fire	-2120
hatt	-2121
icer	-2122
indi	-2123
llen	-2124
most	-2125
pump	-2126
rect	-2127
vent	-2128
▁ago	-2129
▁ash	-2130
▁bot	-2131
▁fil	-2132
▁lak	-2133
▁oak	-2134
▁occ	-2135
▁pak	-2136
▁pap	-2137
▁par	-2138
▁vac	-2139
▁val	-2140
aired	-2141
eding	-2142
iling	-2143
orary	-2144
ranti	-2145
▁army	-2146
▁bore	-2147
▁camp	-2148
▁chem	-2149
▁clay	-2150
▁cott	-2151
▁date	-2152
▁fear	-2153
▁fort	-2154
▁gods	-2155
▁golu	-2156
▁haha	-2157
▁hosp	-2158
▁legs	-2159
▁mind	-2160
▁moon	-2161
▁nurs	-2162
▁pill	-2163
▁rare	-2164
▁rent	-2165
▁sank	-2166
▁save	-2167
▁sche	-2168
▁sent	-2169
▁shir	-2170
▁soap	-2171
▁sore	-2172
▁bloom	-2173
▁brave	-2174
▁chick	-2175
▁condu	-2176
▁curry	-2177
▁deity	-2178
▁drive	-2179
▁eight	-2180
▁excit	-2181
▁fifty	-2182
▁gener	-2183
▁grown	-2184
▁illeg	-2185
▁loose	-2186
▁mixed	-2187
▁mouth	-2188
▁movie	-2189
▁party	-2190
▁phool	-2191
▁shall	-2192
▁slipp	-2193
▁spade	-2194
▁stain	-2195
▁truth	-2196
▁until	-2197
▁upper	-2198
▁whose	-2199
▁world	-2200
▁almost	-2201
▁auntie	-2202
▁borrow	-2203
▁caught	-2204
▁channe	-2205
▁common	-2206
▁fridge	-2207
▁fruits	-2208
▁garlic	-2209
▁gather	-2210
▁mandua	-2211
▁nights	-2212
▁online	-2213
▁pandey	-2214
▁ramesh	-2215
▁remedy	-2216
▁sacred	-2217
▁second	-2218
▁stored	-2219
▁thirst	-2220
▁wealth	-2221
▁yogurt	-2222
▁barking	-2223
▁calling	-2224
▁destroy	-2225
▁hurting	-2226
▁insects	-2227
▁mischie	-2228
▁nursery	-2229
▁officer	-2230
▁reading	-2231
▁require	-2232
▁respect	-2233
▁respons	-2234
▁station	-2235
▁studied	-2236
▁thought	-2237
▁believed	-2238
▁climbing	-2239
▁handpump	-2240
▁increase	-2241
▁learning	-2242
▁pressure	-2243
▁repaired	-2244
▁spoonful	-2245
▁afternoon	-2246
▁complaint	-2247
▁effective	-2248
▁sankranti	-2249
▁temporary	-2250
▁celebrated	-2251
▁everywhere	-2252
▁friendship	-2253
▁celebration	-2254
▁preparations	-2255
ga	-2256
gs	-2257
ta	-2258
amb	-2259
ana	-2260
bha	-2261
com	-2262
ept	-2263
eth	-2264
ges	-2265
hen	-2266
nce	-2267
ned	-2268
ord	-2269
orm	-2270
ted	-2271
ues	-2272
ugg	-2273
ugh	-2274
uls	-2275
ven	-2276
▁ap	-2277
aces	-2278
ails	-2279
ames	-2280
asad	-2281
dden	-2282
edom	-2283
enty	-2284
eted	-2285
hang	-2286
keep	-2287
uage	-2288
zing	-2289
▁ank	-2290
▁axe	-2291
▁bas	-2292
▁bee	-2293
▁dat	-2294
▁enj	-2295
▁fly	-2296
▁fol	-2297
▁hit	-2298
▁ins	-2299
▁kid	-2300
▁lay	-2301
▁lik	-2302
▁mag	-2303
▁mit	-2304
▁nut	-2305
▁tow	-2306
▁war	-2307
asing	-2308
asure	-2309
board	-2310
haura	-2311
lings	-2312
rance	-2313
ribut	-2314
utney	-2315
vings	-2316
▁apps	-2317
▁beat	-2318
▁bird	-2319
▁devi	-2320
▁draw	-2321
▁drum	-2322
▁expl	-2323
▁fast	-2324
▁frag	-2325
▁geet	-2326
▁hall	-2327
▁harm	-2328
▁hasn	-2329
▁hire	-2330
▁lead	-2331
▁lone	-2332
▁lose	-2333
▁loud	-2334
▁note	-2335
▁pres	-2336
▁pure	-2337
▁quar	-2338
▁rout	-2339
▁serv	-2340
▁soak	-2341
▁step	-2342
▁stre	-2343
▁tall	-2344
▁task	-2345
▁tied	-2346
▁vote	-2347
engers	-2348
ension	-2349
penter	-2350
umbers	-2351
▁activ	-2352
▁aipan	-2353
▁begin	-2354
▁blank	-2355
▁cards	-2356
▁chair	-2357
▁chand	-2358
▁chill	-2359
▁color	-2360
▁decor	-2361
▁drank	-2362
▁fence	-2363
▁fetch	-2364
▁ghugh	-2365
▁goats	-2366
▁group	-2367
▁hindi	-2368
▁irrig	-2369
▁lower	-2370
▁order	-2371
▁owner	-2372
▁plate	-2373
▁proud	-2374
▁secre	-2375
▁sight	-2376
▁sorry	-2377
▁stops	-2378
▁table	-2379
▁tapuk	-2380
▁tight	-2381
▁train	-2382
▁troub	-2383
▁waste	-2384
▁weeds	-2385
▁animal	-2386
▁bottle	-2387
▁butter	-2388
▁cement	-2389
▁clever	-2390
▁contin	-2391
▁energy	-2392
▁fallen	-2393
▁harish	-2394
▁higher	-2395
▁jaagar	-2396
▁mithai	-2397
▁papers	-2398
▁phones	-2399
▁played	-2400
▁prasad	-2401
▁profit	-2402
▁reason	-2403
▁result	-2404
▁salary	-2405
▁shared	-2406
▁single	-2407
▁starts	-2408
▁strict	-2409
▁subsid	-2410
▁twenty	-2411
▁washed	-2412
▁wishes	-2413
ichhaura	-2414
▁becomes	-2415
▁bonfire	-2416
▁chutney	-2417
▁correct	-2418
▁entered	-2419
▁fortune	-2420
▁freedom	-2421
▁growing	-2422
▁meaning	-2423
▁missing	-2424
▁prayers	-2425
▁putting	-2426
▁receive	-2427
▁roasted	-2428
▁sharpen	-2429
▁support	-2430
▁thirsty	-2431
▁wearing	-2432
▁written	-2433
▁younger	-2434
▁borewell	-2435
▁cucumber	-2436
▁headache	-2437
▁language	-2438
▁question	-2439
▁requires	-2440
▁solution	-2441
▁utensils	-2442
▁ancestors	-2443
▁carpenter	-2444
▁listening	-2445
▁harvesting	-2446
▁invitation	-2447
ax	-2448
ia	-2449
sl	-2450
uc	-2451
aff	-2452
aid	-2453
ays	-2454
bow	-2455
ems	-2456
end	-2457
ety	-2458
hot	-2459
ida	-2460
iew	-2461
iod	-2462
ote	-2463
que	-2464
tar	-2465
ual	-2466
ube	-2467
und	-2468
▁ka	-2469
aged	-2470
ager	-2471
anic	-2472
ases	-2473
ator	-2474
cell	-2475
cles	-2476
dern	-2477
dess	-2478
erve	-2479
ffee	-2480
hoda	-2481
icip	-2482
illi	-2483
ipen	-2484
ives	-2485
ject	-2486
ldam	-2487
oras	-2488
orer	-2489
orse	-2490
ping	-2491
rest	-2492
sing	-2493
word	-2494
ycle	-2495
▁age	-2496
▁bal	-2497
▁ble	-2498
▁cap	-2499
▁cup	-2500
▁div	-2501
▁doc	-2502
▁fut	-2503
▁gwa	-2504
▁lat	-2505
▁liz	-2506
▁maj	-2507
▁mom	-2508
▁nav	-2509
▁sat	-2510
▁une	-2511
▁wel	-2512
actor	-2513
adays	-2514
aries	-2515
cious	-2516
cking	-2517
dings	-2518
gress	-2519
ishes	-2520
ivate	-2521
light	-2522
ratri	-2523
story	-2524
ushed	-2525
water	-2526
▁able	-2527
▁bare	-2528
▁cage	-2529
▁cash	-2530
▁cons	-2531
▁disc	-2532
▁easy	-2533
▁evil	-2534
▁fail	-2535
▁fenc	-2536
▁fold	-2537
▁folk	-2538
▁game	-2539
▁glad	-2540
▁hang	-2541
▁king	-2542
▁lime	-2543
▁loan	-2544
▁mist	-2545
▁move	-2546
▁neck	-2547
▁nerv	-2548
▁peac	-2549
▁pict	-2550
▁repl	-2551
▁risk	-2552
▁shed	-2553
▁slip	-2554
▁soup	-2555
▁tong	-2556
▁torn	-2557
▁view	-2558
ingers	-2559
ounder	-2560
selves	-2561
▁ahead	-2562
▁beans	-2563
▁bench	-2564
▁bigha	-2565
▁catch	-2566
▁cause	-2567
▁clock	-2568
▁cover	-2569
▁crows	-2570
▁devta	-2571
▁doors	-2572
▁enjoy	-2573
▁exper	-2574
▁frame	-2575
▁geeta	-2576
▁gifts	-2577
▁gilli	-2578
▁grain	-2579
▁greet	-2580
▁headm	-2581
▁horse	-2582
▁jhoda	-2583
▁known	-2584
▁labor	-2585
▁lives	-2586
▁maize	-2587
▁meter	-2588
▁muddy	-2589
▁music	-2590
▁natur	-2591
▁occas	-2592
▁onion	-2593
▁polit	-2594
▁ripen	-2595
▁route	-2596
▁salty	-2597
▁scold	-2598
▁shade	-2599
▁sheet	-2600
▁shirt	-2601
▁slept	-2602
▁smoke	-2603
▁spicy	-2604
▁stays	-2605
▁steal	-2606
▁steep	-2607
▁video	-2608
cellent	-2609
ruction	-2610
▁basket	-2611
▁beauty	-2612
▁branch	-2613
▁brings	-2614
▁bushes	-2615
▁coffee	-2616
▁colors	-2617
▁confir	-2618
▁cotton	-2619
▁couldn	-2620
▁damage	-2621
▁design	-2622
▁dishes	-2623
▁eighty	-2624
▁excuse	-2625
▁future	-2626
▁greens	-2627
▁hahaha	-2628
▁landsl	-2629
▁latest	-2630
▁member	-2631
▁modern	-2632
▁months	-2633
▁period	-2634
▁photos	-2635
▁remove	-2636
▁search	-2637
▁singer	-2638
▁smells	-2639
▁smooth	-2640
▁sounds	-2641
▁source	-2642
▁spread	-2643
▁sudden	-2644
▁supply	-2645
▁thread	-2646
▁worshi	-2647
▁advance	-2648
▁buckets	-2649
▁chandan	-2650
▁changed	-2651
▁cracked	-2652
▁crushed	-2653
▁cutting	-2654
▁falling	-2655
▁farmers	-2656
▁fencing	-2657
▁flowing	-2658
▁goddess	-2659
▁grandma	-2660
▁gwaldam	-2661
▁happily	-2662
▁hearing	-2663
▁history	-2664
▁illegal	-2665
▁illness	-2666
▁keeping	-2667
▁laborer	-2668
▁mangoes	-2669
▁nervous	-2670
▁organic	-2671
▁picture	-2672
▁planted	-2673
▁ringing	-2674
▁savings	-2675
▁setting	-2676
▁sweater	-2677
▁turning	-2678
▁usually	-2679
▁writing	-2680
▁actually	-2681
▁announce	-2682
▁bleeding	-2683
▁bringing	-2684
▁carrying	-2685
▁charging	-2686
▁document	-2687
▁holidays	-2688
▁hospital	-2689
▁leopards	-2690
▁neighbor	-2691
▁nowadays	-2692
▁particip	-2693
▁passbook	-2694
▁precious	-2695
▁required	-2696
▁shopkeep	-2697
▁vacation	-2698
▁villages	-2699
▁weddings	-2700
▁announced	-2701
▁destroyed	-2702
▁excellent	-2703
▁compounder	-2704
▁connection	-2705
▁foundation	-2706
▁passengers	-2707
▁successful	-2708
▁beautifully	-2709
▁preparation	-2710
bb	-2711
cr	-2712
do	-2713
gn	-2714
hu	-2715
ik	-2716
jw	-2717
lo	-2718
ub	-2719
wl	-2720
ze	-2721
abb	-2722
aks	-2723
ala	-2724
anj	-2725
arr	-2726
bes	-2727
cer	-2728
cto	-2729
ead	-2730
ggs	-2731
hag	-2732
hal	-2733
hit	-2734
ics	-2735
ifl	-2736
ime	-2737
kar	-2738
lax	-2739
lla	-2740
nut	-2741
oke	-2742
pal	-2743
ush	-2744
vat	-2745
wan	-2746
wel	-2747
ybr	-2748
▁je	-2749
▁pa	-2750
▁ra	-2751
▁tv	-2752
afal	-2753
airs	-2754
aker	-2755
arua	-2756
atra	-2757
auli	-2758
avas	-2759
ccup	-2760
crow	-2761
dspe	-2762
ends	-2763
epar	-2764
hold	-2765
ibil	-2766
idai	-2767
ider	-2768
illy	-2769
inal	-2770
kani	-2771
land	-2772
laws	-2773
made	-2774
male	-2775
mbre	-2776
mith	-2777
ndar	-2778
opes	-2779
orts	-2780
owed	-2781
owry	-2782
rise	-2783
stem	-2784
ters	-2785
utke	-2786
vive	-2787
▁ajw	-2788
▁ber	-2789
▁bow	-2790
▁fur	-2791
▁gat	-2792
▁hon	-2793
▁ink	-2794
▁lic	-2795
▁lif	-2796
▁mad	-2797
▁nar	-2798
▁pen	-2799
▁pig	-2800
▁poo	-2801
▁pul	-2802
▁scr	-2803
▁shy	-2804
▁sil	-2805
▁spl	-2806
▁upd	-2807
▁upi	-2808
affic	-2809
agarh	-2810
agers	-2811
aging	-2812
cient	-2813
clock	-2814
ently	-2815
icial	-2816
iddle	-2817
inach	-2818
ledge	-2819
paper	-2820
plant	-2821
ption	-2822
smith	-2823
terin	-2824
ungle	-2825
ybrid	-2826
▁band	-2827
▁bene	-2828
▁bill	-2829
▁bull	-2830
▁bund	-2831
▁caul	-2832
▁chur	-2833
▁cris	-2834
▁deer	-2835
▁dise	-2836
▁dish	-2837
▁dogs	-2838
▁edge	-2839
▁educ	-2840
▁eggs	-2841
▁hari	-2842
▁idol	-2843
▁impo	-2844
▁jack	-2845
▁jump	-2846
▁kids	-2847
▁knew	-2848
▁lend	-2849
▁libr	-2850
▁mela	-2851
▁octo	-2852
▁peel	-2853
▁pots	-2854
▁ramu	-2855
▁rash	-2856
▁rock	-2857
▁rule	-2858
▁sapl	-2859
▁scar	-2860
▁seal	-2861
▁sold	-2862
▁spot	-2863
▁star	-2864
▁suff	-2865
▁unif	-2866
▁ways	-2867
▁wire	-2868
action	-2869
anches	-2870
atures	-2871
eshwar	-2872
fected	-2873
liness	-2874
▁achie	-2875
▁agric	-2876
▁along	-2877
▁appro	-2878
▁areas	-2879
▁asked	-2880
▁bhatt	-2881
▁bidai	-2882
▁broom	-2883
▁chait	-2884
▁chili	-2885
▁costs	-2886
▁count	-2887
▁dowry	-2888
▁dress	-2889
▁exams	-2890
▁games	-2891
▁ghost	-2892
▁grace	-2893
▁gutke	-2894
▁holes	-2895
▁humid	-2896
▁impro	-2897
▁items	-2898
▁liked	-2899
▁marks	-2900
▁memor	-2901
▁pinch	-2902
▁pride	-2903
▁pumpk	-2904
▁relax	-2905
▁reset	-2906
▁rotis	-2907
▁sense	-2908
▁separ	-2909
▁sings	-2910
▁space	-2911
▁stall	-2912
▁stars	-2913
▁sweep	-2914
▁swell	-2915
▁throw	-2916
▁tools	-2917
▁topic	-2918
▁torch	-2919
▁troop	-2920
▁umbre	-2921
▁value	-2922
▁votes	-2923
▁whist	-2924
▁words	-2925
hatarua	-2926
iflower	-2927
ritious	-2928
tenance	-2929
▁aching	-2930
▁across	-2931
▁ajwain	-2932
▁bridge	-2933
▁chance	-2934
▁copper	-2935
▁corner	-2936
▁digest	-2937
▁female	-2938
▁hiccup	-2939
▁hybrid	-2940
▁jungle	-2941
▁langur	-2942
▁loudly	-2943
▁menace	-2944
▁minute	-2945
▁missed	-2946
▁moving	-2947
▁opened	-2948
▁organi	-2949
▁packed	-2950
▁pepper	-2951
▁pithor	-2952
▁police	-2953
▁quarre	-2954
▁radish	-2955
▁remain	-2956
▁silver	-2957
▁slight	-2958
▁snacks	-2959
▁sprain	-2960
▁stress	-2961
▁submit	-2962
▁system	-2963
▁tapuki	-2964
▁thorny	-2965
▁travel	-2966
▁wanted	-2967
dspeaker	-2968
ensation	-2969
ributing	-2970
▁ancient	-2971
▁berries	-2972
▁channel	-2973
▁control	-2974
▁corners	-2975
▁crossed	-2976
▁depends	-2977
▁driving	-2978
▁explain	-2979
▁fingers	-2980
▁fulfill	-2981
▁further	-2982
▁grazing	-2983
▁instead	-2984
▁justice	-2985
▁manager	-2986
▁mistake	-2987
▁natural	-2988
▁needles	-2989
▁october	-2990
▁painful	-2991
▁pension	-2992
▁postman	-2993
▁prevent	-2994
▁provide	-2995
▁rainbow	-2996
▁request	-2997
▁results	-2998
▁seasons	-2999
▁selling	-3000
▁service	-3001
▁silence	-3002
▁sisters	-3003
▁spinach	-3004
▁teasing	-3005
▁telling	-3006
▁towards	-3007
▁traffic	-3008
▁variety	-3009
▁veterin	-3010
▁weeding	-3011
▁welcome	-3012
▁winning	-3013
▁birthday	-3014
▁blessing	-3015
▁branches	-3016
▁breaking	-3017
▁changing	-3018
▁cleaning	-3019
▁dampness	-3020
▁distance	-3021
▁evenings	-3022
▁forehead	-3023
▁kilogram	-3024
▁laborers	-3025
▁laughing	-3026
▁mischief	-3027
▁offering	-3028
▁panchami	-3029
▁possible	-3030
▁prepared	-3031
▁received	-3032
▁recharge	-3033
▁shortage	-3034
▁slippery	-3035
▁sunlight	-3036
▁terraces	-3037
▁touching	-3038
▁umbrella	-3039
▁vehicles	-3040
▁visiting	-3041
▁celebrate	-3042
▁completed	-3043
▁condition	-3044
▁conductor	-3045
▁confirmed	-3046
▁cucumbers	-3047
▁fragrance	-3048
▁greetings	-3049
▁household	-3050
▁knowledge	-3051
▁landslide	-3052
▁newspaper	-3053
▁pichhaura	-3054
▁questions	-3055
▁rainwater	-3056
▁scarecrow	-3057
▁seedlings	-3058
▁signature	-3059
▁villagers	-3060
▁blacksmith	-3061
▁impossible	-3062
▁motorcycle	-3063
▁nutritious	-3064
▁shopkeeper	-3065
▁traditions	-3066
▁transplant	-3067
▁worshipped	-3068
▁cauliflower	-3069
▁loudspeaker	-3070
▁maintenance	-3071
▁pithoragarh	-3072
▁remembering	-3073
▁responsibil	-3074
▁announcement	-3075
▁arrangements	-3076
▁construction	-3077
el	-3078
fl	-3079
ns	-3080
oc	-3081
▁z	-3082
').	-3083
adh	-3084
adi	-3085
ami	-3086
arp	-3087
att	-3088
axi	-3089
azy	-3090
bit	-3091
cha	-3092
cup	-3093
dra	-3094
els	-3095
ene	-3096
gic	-3097
hya	-3098
ife	-3099
igr	-3100
ike	-3101
iny	-3102
ior	-3103
irr	-3104
izz	-3105
ler	-3106
mes	-3107
min	-3108
ndr	-3109
nty	-3110
oli	-3111
oot	-3112
rew	-3113
ris	-3114
ule	-3115
uli	-3116
ume	-3117
uty	-3118
▁fa	-3119
▁fi	-3120
akha	-3121
arks	-3122
ashi	-3123
bear	-3124
cast	-3125
chan	-3126
ches	-3127
city	-3128
eech	-3129
eros	-3130
fall	-3131
gent	-3132
hant	-3133
hoot	-3134
hwar	-3135
ices	-3136
iled	-3137
iles	-3138
imla	-3139
isan	-3140
ival	-3141
just	-3142
kend	-3143
ocks	-3144
oves	-3145
rega	-3146
tage	-3147
tery	-3148
tube	-3149
ulsi	-3150
umes	-3151
urdy	-3152
urse	-3153
wari	-3154
▁ant	-3155
▁att	-3156
▁cam	-3157
▁cen	-3158
▁det	-3159
▁fac	-3160
▁fit	-3161
▁ice	-3162
▁iss	-3163
▁kha	-3164
▁lad	-3165
▁lan	-3166
▁nap	-3167
▁opp	-3168
▁pic	-3169
▁raw	-3170
▁reb	-3171
▁rid	-3172
▁rul	-3173
▁sam	-3174
▁soy	-3175
▁swo	-3176
▁tha	-3177
▁vet	-3178
▁wit	-3179
ached	-3180
aised	-3181
amboo	-3182
ander	-3183
anged	-3184
berry	-3185
clist	-3186
conut	-3187
crack	-3188
crete	-3189
danda	-3190
eepal	-3191
eevan	-3192
fered	-3193
getic	-3194
gnant	-3195
hered	-3196
ician	-3197
icked	-3198
ident	-3199
ified	-3200
igold	-3201
irror	-3202
ither	-3203
itude	-3204
otion	-3205
ouple	-3206
ously	-3207
redit	-3208
rible	-3209
rping	-3210
storm	-3211
uggle	-3212
▁asks	-3213
▁bark	-3214
▁beds	-3215
▁bike	-3216
▁blue	-3217
▁boar	-3218
▁brit	-3219
▁calm	-3220
▁clou	-3221
▁cult	-3222
▁data	-3223
▁deco	-3224
▁duty	-3225
▁ears	-3226
▁eart	-3227
▁fish	-3228
▁gain	-3229
▁gang	-3230
▁gran	-3231
▁held	-3232
▁horn	-3233
▁host	-3234
▁inte	-3235
▁kale	-3236
▁lack	-3237
▁lazy	-3238
▁leak	-3239
▁link	-3240
▁lips	-3241
▁lord	-3242
▁mach	-3243
▁male	-3244
▁mass	-3245
▁meal	-3246
▁melt	-3247
▁migr	-3248
▁mint	-3249
▁moss	-3250
▁pair	-3251
▁pige	-3252
▁pull	-3253
▁race	-3254
▁role	-3255
▁runs	-3256
▁sanj	-3257
▁shel	-3258
▁shoe	-3259
▁situ	-3260
▁soot	-3261
▁stat	-3262
▁stit	-3263
▁tail	-3264
▁taxi	-3265
▁team	-3266
▁town	-3267
▁trip	-3268
▁tues	-3269
▁whom	-3270
▁wrap	-3271
akhand	-3272
alwood	-3273
anding	-3274
ashion	-3275
atives	-3276
chanic	-3277
cupine	-3278
ential	-3279
ground	-3280
haghat	-3281
holiya	-3282
ically	-3283
ishing	-3284
pected	-3285
rument	-3286
urning	-3287
▁bells	-3288
▁bhoot	-3289
▁blunt	-3290
▁board	-3291
▁bound	-3292
▁bread	-3293
▁brown	-3294
▁cream	-3295
▁cubes	-3296
▁cycle	-3297
▁dense	-3298
▁drops	-3299
▁fault	-3300
▁gahat	-3301
▁girls	-3302
▁grows	-3303
▁habit	-3304
▁harsh	-3305
▁inspe	-3306
▁jeeps	-3307
▁joint	-3308
▁knife	-3309
▁landl	-3310
▁laugh	-3311
▁layer	-3312
▁leads	-3313
▁limit	-3314
▁lines	-3315
▁major	-3316
▁match	-3317
▁metho	-3318
▁moist	-3319
▁moved	-3320
▁nails	-3321
▁names	-3322
▁navel	-3323
▁nrega	-3324
▁nurse	-3325
▁pages	-3326
▁paint	-3327
▁paths	-3328
▁pests	-3329
▁pills	-3330
▁plans	-3331
▁pooja	-3332
▁print	-3333
▁resin	-3334
▁roads	-3335
▁rough	-3336
▁round	-3337
▁saree	-3338
▁satur	-3339
▁sauce	-3340
▁saved	-3341
▁scary	-3342
▁serve	-3343
▁shops	-3344
▁shout	-3345
▁slope	-3346
▁smart	-3347
▁stool	-3348
▁stove	-3349
▁teeth	-3350
▁tulsi	-3351
▁uttar	-3352
▁worse	-3353
▁wound	-3354
fection	-3355
ishment	-3356
osphere	-3357
reshing	-3358
ulation	-3359
▁adjust	-3360
▁bamboo	-3361
▁banana	-3362
▁basant	-3363
▁bigger	-3364
▁bitter	-3365
▁boiled	-3366
▁breath	-3367
▁bundle	-3368
▁burans	-3369
▁camera	-3370
▁candle	-3371
▁center	-3372
▁chilli	-3373
▁cloves	-3374
▁commit	-3375
▁couple	-3376
▁credit	-3377
▁drinks	-3378
▁drying	-3379
▁farmer	-3380
▁filter	-3381
▁flower	-3382
▁flying	-3383
▁follow	-3384
▁gargle	-3385
▁jeevan	-3386
▁killed	-3387
▁liters	-3388
▁lonely	-3389
▁longer	-3390
▁louder	-3391
▁lovely	-3392
▁millet	-3393
▁mirror	-3394
▁monday	-3395
▁naming	-3396
▁narrow	-3397
▁onions	-3398
▁peepal	-3399
▁perman	-3400
▁plenty	-3401
▁pocket	-3402
▁prayer	-3403
▁rarely	-3404
▁reduce	-3405
▁report	-3406
▁scheme	-3407
▁secret	-3408
▁silent	-3409
▁solved	-3410
▁spices	-3411
▁sports	-3412
▁street	-3413
▁sturdy	-3414
▁tongue	-3415
▁turned	-3416
▁unbear	-3417
▁urgent	-3418
▁videos	-3419
▁volume	-3420
▁walked	-3421
▁wasted	-3422
▁weight	-3423
crackers	-3424
gressive	-3425
lication	-3426
▁achieve	-3427
▁allowed	-3428
▁balance	-3429
▁blanket	-3430
▁chaitra	-3431
▁challen	-3432
▁checked	-3433
▁cleaned	-3434
▁coconut	-3435
▁courage	-3436
▁current	-3437
▁customs	-3438
▁damaged	-3439
▁doctors	-3440
▁drawing	-3441
▁drought	-3442
▁earthen	-3443
▁excited	-3444
▁fashion	-3445
▁feeding	-3446
▁forests	-3447
▁forever	-3448
▁forgive	-3449
▁garland	-3450
▁hiccups	-3451
▁holding	-3452
▁jumping	-3453
▁lantern	-3454
▁learned	-3455
▁library	-3456
▁lizards	-3457
▁lottery	-3458
▁magical	-3459
▁musical	-3460
▁offered	-3461
▁pakoras	-3462
▁peacock	-3463
▁private	-3464
▁regards	-3465
▁restart	-3466
▁rituals	-3467
▁roaming	-3468
▁sanjeev	-3469
▁schemes	-3470
▁slipped	-3471
▁spirits	-3472
▁survive	-3473
▁swollen	-3474
▁tractor	-3475
▁tuesday	-3476
▁visible	-3477
▁voltage	-3478
▁warning	-3479
▁weekend	-3480
▁withdra	-3481
▁youtube	-3482
▁affected	-3483
▁arranged	-3484
▁becoming	-3485
▁blooming	-3486
▁chholiya	-3487
▁chirping	-3488
▁churkani	-3489
▁concrete	-3490
▁diseases	-3491
▁exciting	-3492
▁fearless	-3493
▁fighting	-3494
▁goodness	-3495
▁grinding	-3496
▁helpless	-3497
▁interest	-3498
▁lohaghat	-3499
▁marigold	-3500
▁mechanic	-3501
▁memories	-3502
▁messages	-3503
▁navratri	-3504
▁notebook	-3505
▁password	-3506
▁patience	-3507
▁pleasure	-3508
▁politics	-3509
▁pregnant	-3510
▁promises	-3511
▁provides	-3512
▁radishes	-3513
▁remedies	-3514
▁returned	-3515
▁saplings	-3516
▁saturday	-3517
▁scarcity	-3518
▁speaking	-3519
▁sprained	-3520
▁stopping	-3521
▁stronger	-3522
▁struggle	-3523
▁terraced	-3524
▁terrible	-3525
▁troubles	-3526
▁watering	-3527
▁weakness	-3528
▁whenever	-3529
▁bageshwar	-3530
▁beginning	-3531
▁classroom	-3532
▁collected	-3533
▁container	-3534
▁decoction	-3535
▁elections	-3536
▁energetic	-3537
▁forgotten	-3538
▁fulfilled	-3539
▁hailstorm	-3540
▁ourselves	-3541
▁porcupine	-3542
▁preparing	-3543
▁receiving	-3544
▁relatives	-3545
▁returning	-3546
▁situation	-3547
▁varieties	-3548
▁aggressive	-3549
▁atmosphere	-3550
▁containers	-3551
▁headmaster	-3552
▁instrument	-3553
▁organizing	-3554
▁profitable	-3555
▁sandalwood	-3556
▁unbearable	-3557
▁understood	-3558
▁veterinary	-3559
▁agriculture	-3560
▁complaining	-3561
▁information	-3562
▁participate	-3563
▁firecrackers	-3564
▁motorcyclist	-3565
ah	-3566
ba	-3567
bi	-3568
co	-3569
fi	-3570
hr	-3571
ki	-3572
na	-3573
to	-3574
000	-3575
ada	-3576
agh	-3577
ane	-3578
ape	-3579
ats	-3580
bal	-3581
ban	-3582
box	-3583
bye	-3584
ces	-3585
cri	-3586
cus	-3587
cut	-3588
ear	-3589
eds	-3590
eed	-3591
een	-3592
ela	-3593
ese	-3594
gul	-3595
hma	-3596
ian	-3597
iff	-3598
ika	-3599
ila	-3600
ley	-3601
lwa	-3602
mar	-3603
nic	-3604
num	-3605
odi	-3606
ogn	-3607
ond	-3608
ora	-3609
ots	-3610
oul	-3611
ows	-3612
par	-3613
pin	-3614
ral	-3615
ret	-3616
sha	-3617
swe	-3618
tan	-3619
tee	-3620
uct	-3621
ugm	-3622
ums	-3623
urb	-3624
whe	-3625
yal	-3626
yan	-3627
▁aw	-3628
▁em	-3629
▁et	-3630
▁py	-3631
▁vi	-3632
▁vl	-3633
▁wo	-3634
adas	-3635
adun	-3636
airy	-3637
akar	-3638
akhi	-3639
asia	-3640
atha	-3641
bean	-3642
bidd	-3643
ceed	-3644
chdi	-3645
cipe	-3646
cook	-3647
ctar	-3648
dode	-3649
eral	-3650
eyed	-3651
fast	-3652
fest	-3653
five	-3654
gend	-3655
ghar	-3656
grap	-3657
grim	-3658
harp	-3659
hill	-3660
ific	-3661
ills	-3662
imum	-3663
ists	-3664
leep	-3665
lets	-3666
load	-3667
more	-3668
nath	-3669
ndra	-3670
olog	-3671
ored	-3672
ores	-3673
osas	-3674
pend	-3675
quet	-3676
ring	-3677
shmi	-3678
sure	-3679
tain	-3680
tend	-3681
uary	-3682
uild	-3683
unks	-3684
ural	-3685
uter	-3686
uwan	-3687
vati	-3688
vous	-3689
ward	-3690
▁ass	-3691
▁ast	-3692
▁baz	-3693
▁bis	-3694
▁bye	-3695
▁cho	-3696
▁cop	-3697
▁deb	-3698
▁dem	-3699
▁dub	-3700
▁eff	-3701
▁emb	-3702
▁enc	-3703
▁ess	-3704
▁fab	-3705
▁fee	-3706
▁fle	-3707
▁fog	-3708
▁fox	-3709
▁gas	-3710
▁goo	-3711
▁gro	-3712
▁inc	-3713
▁jam	-3714
▁kal	-3715
▁kau	-3716
▁khe	-3717
▁khi	-3718
▁mel	-3719
▁mos	-3720
▁mul	-3721
▁nin	-3722
▁pil	-3723
▁pop	-3724
▁raj	-3725
▁rev	-3726
▁rho	-3727
▁sen	-3728
▁squ	-3729
▁sty	-3730
▁tan	-3731
▁thu	-3732
▁tif	-3733
▁ver	-3734
▁vig	-3735
aches	-3736
acles	-3737
alebi	-3738
anyan	-3739
askar	-3740
ators	-3741
aving	-3742
bhatt	-3743
compl	-3744
ences	-3745
ening	-3746
etida	-3747
etite	-3748
icide	-3749
ision	-3750
ister	-3751
ivers	-3752
leela	-3753
ndara	-3754
neath	-3755
numan	-3756
ooter	-3757
orice	-3758
ortun	-3759
otees	-3760
oting	-3761
paste	-3762
phant	-3763
pired	-3764
reeze	-3765
riger	-3766
rishi	-3767
rooms	-3768
sweet	-3769
using	-3770
utiya	-3771
utter	-3772
velop	-3773
vents	-3774
▁alas	-3775
▁aloo	-3776
▁ants	-3777
▁asaf	-3778
▁bees	-3779
▁bond	-3780
▁bowl	-3781
▁butt	-3782
▁cabb	-3783
▁cake	-3784
▁caps	-3785
▁caus	-3786
▁chal	-3787
▁chol	-3788
▁code	-3789
▁cori	-3790
▁dehr	-3791
▁dhol	-3792
▁disp	-3793
▁dont	-3794
▁enem	-3795
▁fate	-3796
▁flat	-3797
▁fund	-3798
▁garh	-3799
▁ghar	-3800
▁glue	-3801
▁gour	-3802
▁gums	-3803
▁heal	-3804
▁hemp	-3805
▁herd	-3806
▁hole	-3807
▁icon	-3808
▁jeth	-3809
▁kite	-3810
▁laid	-3811
▁lakh	-3812
▁laws	-3813
▁lift	-3814
▁lugg	-3815
▁mask	-3816
▁math	-3817
▁matt	-3818
▁mong	-3819
▁mult	-3820
▁mush	-3821
▁nain	-3822
▁nine	-3823
▁nons	-3824
▁numb	-3825
▁opin	-3826
▁palm	-3827
▁pant	-3828
▁park	-3829
▁peas	-3830
▁poll	-3831
▁pugm	-3832
▁rele	-3833
▁repe	-3834
▁rose	-3835
▁rust	-3836
▁sarp	-3837
▁seek	-3838
▁shoo	-3839
▁snee	-3840
▁sown	-3841
▁spec	-3842
▁suck	-3843
▁surp	-3844
▁swit	-3845
▁tear	-3846
▁tent	-3847
▁text	-3848
▁tore	-3849
▁tour	-3850
▁twig	-3851
▁type	-3852
▁unex	-3853
▁upst	-3854
▁vict	-3855
▁wage	-3856
▁ward	-3857
▁wick	-3858
▁wipe	-3859
▁wise	-3860
▁worn	-3861
ampani	-3862
arrass	-3863
ateful	-3864
bidden	-3865
cedure	-3866
cooked	-3867
gharat	-3868
icient	-3869
idence	-3870
istant	-3871
itauli	-3872
jaagar	-3873
lihood	-3874
ocasia	-3875
ognize	-3876
ording	-3877
rician	-3878
uously	-3879
▁above	-3880
▁aches	-3881
▁agree	-3882
▁alive	-3883
▁aller	-3884
▁among	-3885
▁ankle	-3886
▁apart	-3887
▁apple	-3888
▁bears	-3889
▁bimla	-3890
▁breat	-3891
▁calls	-3892
▁charm	-3893
▁chest	-3894
▁cloud	-3895
▁clove	-3896
▁coins	-3897
▁confl	-3898
▁contr	-3899
▁cramp	-3900
▁dairy	-3901
▁delay	-3902
▁dough	-3903
▁drums	-3904
▁exact	-3905
▁exist	-3906
▁flies	-3907
▁focus	-3908
▁forty	-3909
▁fried	-3910
▁funny	-3911
▁gaura	-3912
▁goods	-3913
▁gopal	-3914
▁halwa	-3915
▁haven	-3916
▁herbs	-3917
▁honor	-3918
▁inaus	-3919
▁indic	-3920
▁issue	-3921
▁jages	-3922
▁jhang	-3923
▁kafal	-3924
▁keros	-3925
▁kisan	-3926
▁lying	-3927
▁madua	-3928
▁makar	-3929
▁mango	-3930
▁named	-3931
▁nause	-3932
▁patch	-3933
▁poori	-3934
▁pulse	-3935
▁quilt	-3936
▁quite	-3937
▁rates	-3938
▁refle	-3939
▁regul	-3940
▁risky	-3941
▁rules	-3942
▁sacks	-3943
▁seven	-3944
▁shake	-3945
▁shawl	-3946
▁shine	-3947
▁shiny	-3948
▁silly	-3949
▁slate	-3950
▁smile	-3951
▁speed	-3952
▁spray	-3953
▁stage	-3954
▁steam	-3955
▁steel	-3956
▁steps	-3957
▁straw	-3958
▁stret	-3959
▁stuff	-3960
▁sunny	-3961
▁talks	-3962
▁tells	-3963
▁threw	-3964
▁tough	-3965
▁trave	-3966
▁tried	-3967
▁urine	-3968
▁wants	-3969
▁woods	-3970
▁yield	-3971
agement	-3972
dodendr	-3973
fathers	-3974
grimage	-3975
harpani	-3976
ologize	-3977
osition	-3978
singals	-3979
▁accept	-3980
▁active	-3981
▁anyway	-3982
▁asleep	-3983
▁attach	-3984
▁attend	-3985
▁banned	-3986
▁banyan	-3987
▁barely	-3988
▁battle	-3989
▁breeze	-3990
▁charge	-3991
▁childs	-3992
▁choose	-3993
▁chores	-3994
▁chunks	-3995
▁cities	-3996
▁create	-3997
▁crisis	-3998
▁delete	-3999
▁disapp	-4000
▁drains	-4001
▁easily	-4002
▁ensure	-4003
▁expect	-4004
▁fabric	-4005
▁facing	-4006
▁folded	-4007
▁fought	-4008
▁google	-4009
▁gotten	-4010
▁guavas	-4011
▁hearth	-4012
▁helped	-4013
▁income	-4014
▁indeed	-4015
▁infest	-4016
▁jacket	-4017
▁legend	-4018
▁lentil	-4019
▁mainly	-4020
▁manish	-4021
▁masons	-4022
▁mature	-4023
▁middle	-4024
▁moment	-4025
▁mostly	-4026
▁nectar	-4027
▁needle	-4028
▁ninety	-4029
▁noises	-4030
▁paltan	-4031
▁patter	-4032
▁perfor	-4033
▁picked	-4034
▁picnic	-4035
▁plains	-4036
▁plough	-4037
▁plowed	-4038
▁polish	-4039
▁raised	-4040
▁ranger	-4041
▁recipe	-4042
▁regret	-4043
▁rivers	-4044
▁seemed	-4045
▁senior	-4046
▁served	-4047
▁sharma	-4048
▁sheets	-4049
▁shovel	-4050
▁shower	-4051
▁sleepy	-4052
▁slopes	-4053
▁snatch	-4054
▁spider	-4055
▁sprink	-4056
▁starch	-4057
▁status	-4058
▁sticks	-4059
▁tastes	-4060
▁taught	-4061
▁tiffin	-4062
▁upload	-4063
▁waking	-4064
▁warmth	-4065
........	-4066
atically	-4067
bhandara	-4068
complete	-4069
▁address	-4070
▁anklets	-4071
▁anymore	-4072
▁arrival	-4073
▁benefit	-4074
▁boiling	-4075
▁british	-4076
▁cabbage	-4077
▁camphor	-4078
▁chemist	-4079
▁colored	-4080
▁compuls	-4081
▁conduct	-4082
▁content	-4083
▁culture	-4084
▁designs	-4085
▁details	-4086
▁develop	-4087
▁disturb	-4088
▁failure	-4089
▁fighter	-4090
▁finally	-4091
▁funeral	-4092
▁glasses	-4093
▁goodbye	-4094
▁hanuman	-4095
▁heavily	-4096
▁helping	-4097
▁himself	-4098
▁howling	-4099
▁itching	-4100
▁khichdi	-4101
▁lakshmi	-4102
▁letting	-4103
▁lighter	-4104
▁listens	-4105
▁luggage	-4106
▁machine	-4107
▁massage	-4108
▁measure	-4109
▁melting	-4110
▁neither	-4111
▁noseble	-4112
▁opening	-4113
▁panuwan	-4114
▁patwari	-4115
▁perform	-4116
▁pigeons	-4117
▁practic	-4118
▁printed	-4119
▁promise	-4120
▁pumpkin	-4121
▁quarrel	-4122
▁reached	-4123
▁rebuild	-4124
▁replace	-4125
▁ripened	-4126
▁samosas	-4127
▁science	-4128
▁scooter	-4129
▁secrets	-4130
▁serious	-4131
▁serving	-4132
▁showing	-4133
▁signify	-4134
▁smaller	-4135
▁smiling	-4136
▁soybean	-4137
▁spoiled	-4138
▁springs	-4139
▁storage	-4140
▁subsidy	-4141
▁sunrise	-4142
▁uniform	-4143
▁updated	-4144
▁useless	-4145
▁utensil	-4146
▁victory	-4147
▁whether	-4148
▁whistle	-4149
▁worries	-4150
ationship	-4151
▁activity	-4152
▁appetite	-4153
▁applying	-4154
▁business	-4155
▁carefree	-4156
▁channels	-4157
▁chemical	-4158
▁chickens	-4159
▁computer	-4160
▁consumes	-4161
▁continue	-4162
▁customer	-4163
▁dehradun	-4164
▁devotees	-4165
▁differen	-4166
▁dreaming	-4167
▁elephant	-4168
▁forecast	-4169
▁function	-4170
▁gathered	-4171
▁ghughute	-4172
▁grateful	-4173
▁hardship	-4174
▁homemade	-4175
▁husbands	-4176
▁irrigate	-4177
▁jhangora	-4178
▁kerosene	-4179
▁khatarua	-4180
▁landlord	-4181
▁lighting	-4182
▁material	-4183
▁mattress	-4184
▁moisture	-4185
▁mongoose	-4186
▁mornings	-4187
▁nainital	-4188
▁namaskar	-4189
▁occasion	-4190
▁official	-4191
▁opportun	-4192
▁overcome	-4193
▁planning	-4194
▁preserve	-4195
▁prevents	-4196
▁pugmarks	-4197
▁refriger	-4198
▁relative	-4199
▁replaced	-4200
▁sarpanch	-4201
▁scolding	-4202
▁slippers	-4203
▁stitched	-4204
▁stranger	-4205
▁suddenly	-4206
▁swelling	-4207
▁symboliz	-4208
▁upstairs	-4209
▁withdraw	-4210
▁according	-4211
▁activated	-4212
▁ancestral	-4213
▁apologize	-4214
▁bhaitauli	-4215
▁breakfast	-4216
▁challenge	-4217
▁colocasia	-4218
▁committee	-4219
▁connected	-4220
▁coriander	-4221
▁creatures	-4222
▁direction	-4223
▁documents	-4224
▁education	-4225
▁embarrass	-4226
▁essential	-4227
▁forbidden	-4228
▁garampani	-4229
▁gossiping	-4230
▁granaries	-4231
▁jageshwar	-4232
▁marigolds	-4233
▁medicinal	-4234
▁mushrooms	-4235
▁neighbors	-4236
▁occasions	-4237
▁paharpani	-4238
▁paperwork	-4239
▁perfectly	-4240
▁permanent	-4241
▁procedure	-4242
▁recognize	-4243
▁repairing	-4244
▁resistant	-4245
▁subsidies	-4246
▁blackboard	-4247
▁boundaries	-4248
▁candidates	-4249
▁incomplete	-4250
▁inspection	-4251
▁irrigation	-4252
▁livelihood	-4253
▁loneliness	-4254
▁pilgrimage	-4255
▁plastering	-4256
▁protection	-4257
▁punishment	-4258
▁reflection	-4259
▁refreshing	-4260
▁restarting	-4261
▁rhododendr	-4262
▁sufficient	-4263
▁underneath	-4264
▁unexpected	-4265
▁application	-4266
▁electrician	-4267
▁fertilizers	-4268
▁interesting	-4269
▁mischievous	-4270
▁responsible	-4271
▁uttarakhand	-4272
▁compensation	-4273
▁continuously	-4274
▁distributing	-4275
▁inauspicious	-4276
▁neighborhood	-4277
▁relationship	-4278
▁transplanting	-4279
▁understanding	-4280
▁responsibility	-4281
',	-4282
kh	-4283
pr	-4284
'),	-4285
')?	-4286
aat	-4287
akh	-4288
asu	-4289
aun	-4290
avy	-4291
bak	-4292
bur	-4293
cin	-4294
cks	-4295
cum	-4296
dom	-4297
fri	-4298
hea	-4299
ji	-4300
vo	-4301
ena	-4302
hum	-4303
hur	-4304
ify	-4305
iri	-4306
isf	-4307
iss	-4308
ita	-4309
jab	-4310
jau	-4311
kur	-4312
len	-4313
low	-4314
ode	-4315
oms	-4316
ony	-4317
pak	-4318
pil	-4319
pro	-4320
rog	-4321
sed	-4322
tal	-4323
uel	-4324
una	-4325
unk	-4326
upy	-4327
van	-4328
whi	-4329
yur	-4330
▁ku	-4331
▁ul	-4332
▁wa	-4333
▁zi	-4334
abad	-4335
adhi	-4336
ales	-4337
alks	-4338
ansk	-4339
baal	-4340
bage	-4341
bagh	-4342
cane	-4343
cend	-4344
cher	-4345
ckoo	-4346
crib	-4347
cuit	-4348
dget	-4349
duce	-4350
eela	-4351
embe	-4352
ents	-4353
eram	-4354
face	-4355
fair	-4356
fety	-4357
ghee	-4358
gran	-4359
hala	-4360
hami	-4361
hase	-4362
htha	-4363
humi	-4364
icks	-4365
idal	-4366
ilar	-4367
ilet	-4368
imen	-4369
inum	-4370
ique	-4371
itam	-4372
lies	-4373
like	-4374
lmed	-4375
maad	-4376
mbly	-4377
milk	-4378
miss	-4379
mney	-4380
mony	-4381
ners	-4382
nted	-4383
omit	-4384
oode	-4385
orms	-4386
otha	-4387
pler	-4388
port	-4389
ptic	-4390
quit	-4391
rice	-4392
road	-4393
ruct	-4394
ruff	-4395
ryun	-4396
sequ	-4397
soap	-4398
stal	-4399
sc	-4400
ali	-4401
alp	-4402
ams	-4403
awn	-4404
aye	-4405
chy	-4406
hib	-4407
hki	-4408
ibs	-4409
itr	-4410
let	-4411
lin	-4412
mic	-4413
omp	-4414
pet	-4415
ray	-4416
▁er	-4417
asur	-4418
bhat	-4419
cing	-4420
etha	-4421
haps	-4422
over	-4423
resh	-4424
teen	-4425
tell	-4426
ties	-4427
ture	-4428
uced	-4429
ulty	-4430
urry	-4431
urta	-4432
wear	-4433
writ	-4434
▁alt	-4435
▁arg	-4436
▁bic	-4437
▁bul	-4438
▁cau	-4439
▁cir	-4440
▁ded	-4441
▁die	-4442
▁dro	-4443
▁dug	-4444
▁era	-4445
▁fat	-4446
▁fed	-4447
▁fig	-4448
▁gaj	-4449
▁gil	-4450
▁hen	-4451
▁hom	-4452
▁hun	-4453
▁imm	-4454
▁jai	-4455
▁jat	-4456
▁jio	-4457
▁lid	-4458
▁lie	-4459
▁mic	-4460
▁mid	-4461
▁moo	-4462
▁nag	-4463
▁neg	-4464
▁odd	-4465
▁owl	-4466
▁phy	-4467
▁pim	-4468
▁rav	-4469
▁sec	-4470
▁sip	-4471
▁six	-4472
▁suc	-4473
▁sus	-4474
▁toe	-4475
▁toy	-4476
▁typ	-4477
▁upw	-4478
▁vow	-4479
▁wal	-4480
acted	-4481
aipan	-4482
akhia	-4483
aksha	-4484
alley	-4485
amrit	-4486
andas	-4487
angal	-4488
angar	-4489
apped	-4490
arian	-4491
aring	-4492
arten	-4493
ashes	-4494
aulty	-4495
bakri	-4496
bborn	-4497
brush	-4498
bsite	-4499
ev	-4500
mu	-4501
yo	-4502
aar	-4503
agi	-4504
alu	-4505
aro	-4506
bar	-4507
eri	-4508
heb	-4509
nel	-4510
nes	-4511
rot	-4512
the	-4513
uni	-4514
vin	-4515
▁dj	-4516
▁mr	-4517
▁ob	-4518
▁ot	-4519
aita	-4520
aloo	-4521
coal	-4522
gule	-4523
haan	-4524
hone	-4525
ient	-4526
ised	-4527
llan	-4528
ouse	-4529
rees	-4530
▁bes	-4531
▁bhu	-4532
▁dad	-4533
▁ech	-4534
▁etc	-4535
▁jan	-4536
▁mas	-4537
▁mun	-4538
▁nor	-4539
▁otp	-4540
▁sof	-4541
arest	-4542
armed	-4543
avesh	-4544
cribe	-4545
cuits	-4546
ddles	-4547
dered	-4548
eared	-4549
ellig	-4550
entle	-4551
essel	-4552
ester	-4553
etime	-4554
field	-4555
gahat	-4556
hells	-4557
htami	-4558
ierce	-4559
iment	-4560
inate	-4561
inter	-4562
iring	-4563
irrig	-4564
ising	-4565
itals	-4566
itory	-4567
ivery	-4568
lfare	-4569
lined	-4570
monds	-4571
mping	-4572
night	-4573
oolen	-4574
ooper	-4575
otted	-4576
ousin	-4577
outer	-4578
oying	-4579
print	-4580
quake	-4581
ridge	-4582
round	-4583
tight	-4584
tilak	-4585
uable	-4586
ucted	-4587
umble	-4588
umpet	-4589
ungus	-4590
unted	-4591
venth	-4592
welry	-4593
welve	-4594
▁aart	-4595
▁alum	-4596
▁aren	-4597
▁arom	-4598
▁asha	-4599
)?	-4600
lj	-4601
od	-4602
va	-4603
yu	-4604
▁?	-4605
asm	-4606
aur	-4607
car	-4608
ina	-4609
rub	-4610
son	-4611
▁cm	-4612
▁jy	-4613
alls	-4614
hive	-4615
hole	-4616
lers	-4617
raun	-4618
vere	-4619
vils	-4620
ware	-4621
▁dap	-4622
▁dou	-4623
▁fen	-4624
▁hat	-4625
▁tet	-4626
atory	-4627
icals	-4628
jhang	-4629
rohit	-4630
while	-4631
▁asse	-4632
▁babu	-4633
▁bait	-4634
▁bang	-4635
▁bhit	-4636
▁bhot	-4637
▁born	-4638
▁bott	-4639
▁brah	-4640
▁bulb	-4641
▁calc	-4642
▁cale	-4643
▁case	-4644
▁chat	-4645
▁cher	-4646
▁cock	-4647
▁coop	-4648
▁copy	-4649
▁cubs	-4650
▁cuts	-4651
▁dand	-4652
▁debt	-4653
▁dent	-4654
▁desi	-4655
▁dirt	-4656
▁dizz	-4657
▁doli	-4658
▁drag	-4659
▁dump	-4660
▁earn	-4661
▁ends	-4662
▁exer	-4663
▁fact	-4664
▁fake	-4665
▁fans	-4666
▁febr	-4667
▁film	-4668
▁flew	-4669
▁foil	-4670
▁frit	-4671
▁furn	-4672
▁fuse	-4673
▁gate	-4674
▁grat	-4675
▁grew	-4676
▁hara	-4677
▁hide	-4678
▁hira	-4679
▁join	-4680
▁keys	-4681
▁knee	-4682
▁lake	-4683
▁lean	-4684
▁leng	-4685
▁lion	-4686
▁logs	-4687
▁maps	-4688
▁ment	-4689
▁mule	-4690
▁nare	-4691
▁noon	-4692
▁onto	-4693
▁ours	-4694
▁page	-4695
▁paly	-4696
▁pane	-4697
▁panj	-4698
▁peon	-4699
▁phys	-4700
▁plum	-4701
▁pole	-4702
▁pome	-4703
▁pour	-4704
▁prof	-4705
▁puri	-4706
▁purn	-4707
▁push	-4708
▁rail	-4709
▁raye	-4710
▁reop	-4711
▁ribs	-4712
▁rich	-4713
▁ride	-4714
▁sale	-4715
▁scam	-4716
▁scen	-4717
▁sear	-4718
▁sens	-4719
▁sept	-4720
▁sera	-4721
▁shan	-4722
▁size	-4723
▁skip	-4724
▁slab	-4725
▁snat	-4726
▁soda	-4727
▁sofa	-4728
▁sole	-4729
▁soul	-4730
▁stri	-4731
▁suit	-4732
▁swim	-4733
▁tale	-4734
▁taro	-4735
▁term	-4736
▁tika	-4737
▁tire	-4738
▁tube	-4739
▁tyre	-4740
▁unse	-4741
▁upon	-4742
▁urad	-4743
▁vain	-4744
▁woke	-4745
▁wool	-4746
▁word	-4747
abaddi	-4748
aching	-4749
ainted	-4750
aising	-4751
ancial	-4752
apping	-4753
arrhea	-4754
ashing	-4755
asonal	-4756
asters	-4757
asting	-4758
athers	-4759
ceries	-4760
charge	-4761
cumamb	-4762
eramic	-4763
erving	-4764
ficial	-4765
former	-4766
hargic	-4767
hering	-4768
icance	-4769
icials	-4770
inging	-4771
isters	-4772
ivated	-4773
jalebi	-4774
lakhia	-4775
ljatra	-4776
minute	-4777
nesday	-4778
oetida	-4779
resent	-4780
ribute	-4781
rients	-4782
uggles	-4783
ursday	-4784
▁aarti	-4785
▁abund	-4786
▁adult	-4787
▁agile	-4788
▁alarm	-4789
▁aroma	-4790
▁asadh	-4791
▁autom	-4792
▁awake	-4793
▁badly	-4794
▁balls	-4795
▁based	-4796
▁bathe	-4797
▁beats	-4798
▁below	-4799
▁bhumi	-4800
▁blows	-4801
▁boats	-4802
▁braid	-4803
▁brain	-4804
▁brush	-4805
▁burns	-4806
▁burnt	-4807
▁cable	-4808
▁cages	-4809
▁cakes	-4810
▁carom	-4811
▁chalk	-4812
▁champ	-4813
▁charu	-4814
▁chase	-4815
▁coach	-4816
▁conch	-4817
▁crowd	-4818
▁crown	-4819
▁cured	-4820
▁dates	-4821
▁datun	-4822
▁death	-4823
▁dolls	-4824
▁drain	-4825
▁drill	-4826
▁dubai	-4827
▁dusty	-4828
▁edges	-4829
▁ended	-4830
▁exhib	-4831
▁falls	-4832
▁fiber	-4833
▁final	-4834
▁finds	-4835
▁fined	-4836
▁flame	-4837
▁gajar	-4838
▁giloy	-4839
▁goose	-4840
▁gourd	-4841
▁gravy	-4842
▁greed	-4843
▁haris	-4844
▁heels	-4845
▁himal	-4846
▁homes	-4847
▁horns	-4848
▁hotel	-4849
▁idols	-4850
▁itchy	-4851
▁jagar	-4852
▁jatra	-4853
▁jeans	-4854
▁kadhi	-4855
▁kauva	-4856
▁kheer	-4857
▁kilos	-4858
▁knead	-4859
▁knees	-4860
▁kufri	-4861
▁lamps	-4862
▁latch	-4863
▁leafy	-4864
▁leech	-4865
▁leela	-4866
▁lifes	-4867
▁likes	-4868
▁loved	-4869
▁loves	-4870
▁lunar	-4871
▁magic	-4872
▁march	-4873
▁marry	-4874
▁meals	-4875
▁melts	-4876
▁messy	-4877
▁miles	-4878
▁momos	-4879
▁mossy	-4880
▁mouse	-4881
▁mulch	-4882
▁nanda	-4883
▁nepal	-4884
▁notes	-4885
▁opens	-4886
▁parts	-4887
▁pater	-4888
▁peaks	-4889
▁phase	-4890
▁poode	-4891
▁punct	-4892
▁pupil	-4893
▁pyoli	-4894
▁queen	-4895
▁raita	-4896
▁refus	-4897
▁resol	-4898
▁rests	-4899
▁roams	-4900
▁roast	-4901
▁rocks	-4902
▁roofs	-4903
▁rooms	-4904
▁ropes	-4905
▁runny	-4906
▁rusty	-4907
▁saheb	-4908
▁salad	-4909
▁sansk	-4910
▁scalp	-4911
▁sched	-4912
▁scrap	-4913
▁seats	-4914
▁shell	-4915
▁shows	-4916
▁sneez	-4917
▁socks	-4918
▁solid	-4919
▁solve	-4920
▁spark	-4921
▁spect	-4922
▁spend	-4923
▁stack	-4924
▁stale	-4925
▁state	-4926
▁stiff	-4927
▁stock	-4928
▁stole	-4929
▁stung	-4930
▁style	-4931
▁swale	-4932
▁swall	-4933
▁swing	-4934
▁sword	-4935
▁tales	-4936
▁tanks	-4937
▁tense	-4938
▁tiles	-4939
▁tongs	-4940
▁trade	-4941
▁trash	-4942
▁treat	-4943
▁truck	-4944
▁truly	-4945
▁turns	-4946
▁twigs	-4947
▁tying	-4948
▁types	-4949
▁udder	-4950
▁ulcer	-4951
▁unity	-4952
▁usual	-4953
▁vadas	-4954
▁vitam	-4955
▁vomit	-4956
▁wages	-4957
▁waist	-4958
▁wedge	-4959
▁winds	-4960
▁worms	-4961
▁worth	-4962
▁wrest	-4963
▁youth	-4964
astered	-4965
comfort	-4966
embered	-4967
etition	-4968
flowing	-4969
forting	-4970
granate	-4971
grapher	-4972
ignment	-4973
ination	-4974
ingshot	-4975
ipation	-4976
iseptic	-4977
llowing	-4978
mission	-4979
ometers	-4980
othache	-4981
otional	-4982
pakoras	-4983
pending	-4984
pensary	-4985
quitoes	-4986
ributed	-4987
rophone	-4988
rounded	-4989
ructive	-4990
ruption	-4991
soapnut	-4992
vestock	-4993
whelmed	-4994
writing	-4995
▁adding	-4996
▁advent	-4997
▁airadi	-4998
▁amount	-4999
▁annual	-5000
▁apples	-5001
▁artist	-5002
▁asthma	-5003
▁baking	-5004
▁baraat	-5005
▁barley	-5006
▁barren	-5007
▁bazaar	-5008
▁beaten	-5009
▁became	-5010
▁belief	-5011
▁betray	-5012
▁bhakar	-5013
▁blurry	-5014
▁boring	-5015
▁breaks	-5016
▁bridal	-5017
▁budget	-5018
▁button	-5019
▁buying	-5020
▁carpet	-5021
▁carved	-5022
▁causes	-5023
▁chairs	-5024
▁chanfi	-5025
▁cheese	-5026
▁cheque	-5027
▁clouds	-5028
▁cloudy	-5029
▁cooper	-5030
▁cousin	-5031
▁cuckoo	-5032
▁dangar	-5033
▁daught	-5034
▁deeper	-5035
▁depict	-5036
▁divine	-5037
▁drives	-5038
▁duster	-5039
▁easier	-5040
▁effort	-5041
▁encour	-5042
▁engine	-5043
▁enters	-5044
▁excess	-5045
▁experi	-5046
▁famine	-5047
▁faulty	-5048
▁fierce	-5049
▁figure	-5050
▁frames	-5051
▁friday	-5052
▁fright	-5053
▁fungus	-5054
▁gentle	-5055
▁gently	-5056
▁girish	-5057
▁golden	-5058
▁growth	-5059
▁harder	-5060
▁hariya	-5061
▁hearts	-5062
▁hiding	-5063
▁honest	-5064
▁humble	-5065
▁invoke	-5066
▁itches	-5067
▁jackal	-5068
▁joints	-5069
▁joyful	-5070
▁kaafal	-5071
▁kendra	-5072
▁kicked	-5073
▁kidney	-5074
▁krishi	-5075
▁laying	-5076
▁leader	-5077
▁leaked	-5078
▁lesson	-5079
▁lights	-5080
▁limits	-5081
▁linked	-5082
▁litter	-5083
▁lively	-5084
▁lizard	-5085
▁locked	-5086
▁looked	-5087
▁master	-5088
▁method	-5089
▁mixing	-5090
▁mortar	-5091
▁multip	-5092
▁munshi	-5093
▁muscle	-5094
▁nandas	-5095
▁nettle	-5096
▁notice	-5097
▁occupy	-5098
▁option	-5099
▁orange	-5100
▁pakodi	-5101
▁patrol	-5102
▁paying	-5103
▁pestle	-5104
▁pillow	-5105
▁pimple	-5106
▁placed	-5107
▁plates	-5108
▁prices	-5109
▁prince	-5110
▁pulses	-5111
▁punjab	-5112
▁purity	-5113
▁rained	-5114
▁raksha	-5115
▁ration	-5116
▁recite	-5117
▁region	-5118
▁remind	-5119
▁remote	-5120
▁rental	-5121
▁reside	-5122
▁rising	-5123
▁rotate	-5124
▁rubber	-5125
▁safety	-5126
▁saving	-5127
▁scares	-5128
▁severe	-5129
▁sharad	-5130
▁shirts	-5131
▁shoots	-5132
▁signed	-5133
▁social	-5134
▁sorrow	-5135
▁speech	-5136
▁sprout	-5137
▁stairs	-5138
▁stalks	-5139
▁starry	-5140
▁sticky	-5141
▁strain	-5142
▁sunita	-5143
▁suppor	-5144
▁surely	-5145
▁switch	-5146
▁tables	-5147
▁tanned	-5148
▁temper	-5149
▁thakur	-5150
▁thanks	-5151
▁though	-5152
▁thrice	-5153
▁timber	-5154
▁toilet	-5155
▁towers	-5156
▁turban	-5157
▁twelve	-5158
▁typing	-5159
▁unique	-5160
▁uphill	-5161
▁upraun	-5162
▁useful	-5163
▁vaccin	-5164
▁valley	-5165
▁vessel	-5166
▁vigyan	-5167
▁wallet	-5168
▁walnut	-5169
▁wildly	-5170
▁woolen	-5171
▁wouldn	-5172
▁zipper	-5173
elligent	-5174
iversity	-5175
jhangore	-5176
khatarua	-5177
standing	-5178
▁abusing	-5179
▁allergy	-5180
▁almonds	-5181
▁ashamed	-5182
▁bangles	-5183
▁banquet	-5184
▁barging	-5185
▁baskets	-5186
▁bathing	-5187
▁beehive	-5188
▁besides	-5189
▁bharyun	-5190
▁bhotiya	-5191
▁bicycle	-5192
▁bloomed	-5193
▁booking	-5194
▁busiest	-5195
▁causing	-5196
▁ceiling	-5197
▁ceramic	-5198
▁challan	-5199
▁changes	-5200
▁chanida	-5201
▁chapped	-5202
▁charges	-5203
▁chasing	-5204
▁chatter	-5205
▁cheaper	-5206
▁chicken	-5207
▁chilies	-5208
▁chimney	-5209
▁cholera	-5210
▁collaps	-5211
▁consequ	-5212
▁contact	-5213
▁cooling	-5214
▁cottage	-5215
▁courier	-5216
▁created	-5217
▁deities	-5218
▁deleted	-5219
▁deliver	-5220
▁dentist	-5221
▁descend	-5222
▁distant	-5223
▁divided	-5224
▁donated	-5225
▁doorway	-5226
▁enemies	-5227
▁engaged	-5228
▁enjoyed	-5229
▁explode	-5230
▁felling	-5231
▁finding	-5232
▁forward	-5233
▁freshly	-5234
▁garbage	-5235
▁garhwal	-5236
▁harmful	-5237
▁harmony	-5238
▁haunted	-5239
▁immense	-5240
▁instant	-5241
▁jewelry	-5242
▁kabaddi	-5243
▁langurs	-5244
▁leveled	-5245
▁license	-5246
▁limping	-5247
▁manners	-5248
▁marking	-5249
▁matchst	-5250
▁mention	-5251
▁methods	-5252
▁minimum	-5253
▁mixture	-5254
▁nearest	-5255
▁numbers	-5256
▁opinion	-5257
▁ordered	-5258
▁paining	-5259
▁partner	-5260
▁parvati	-5261
▁payment	-5262
▁peaches	-5263
▁pecking	-5264
▁perhaps	-5265
▁persons	-5266
▁pickles	-5267
▁plumber	-5268
▁pockets	-5269
▁porting	-5270
▁pravesh	-5271
▁pricked	-5272
▁produce	-5273
▁puddles	-5274
▁purohit	-5275
▁quarter	-5276
▁quietly	-5277
▁railing	-5278
▁reduced	-5279
▁regions	-5280
▁regular	-5281
▁reserve	-5282
▁scolded	-5283
▁scratch	-5284
▁section	-5285
▁sending	-5286
▁shelter	-5287
▁shelves	-5288
▁shooing	-5289
▁signals	-5290
▁similar	-5291
▁simpler	-5292
▁skilled	-5293
▁slipper	-5294
▁soaking	-5295
▁speaker	-5296
▁spotted	-5297
▁stained	-5298
▁storing	-5299
▁stretch	-5300
▁subject	-5301
▁succeed	-5302
▁surface	-5303
▁teaches	-5304
▁tension	-5305
▁threads	-5306
▁thunder	-5307
▁tightly	-5308
▁touched	-5309
▁travels	-5310
▁trumpet	-5311
▁trusted	-5312
▁unirrig	-5313
▁upwards	-5314
▁visited	-5315
▁vulture	-5316
▁weaving	-5317
▁website	-5318
▁weevils	-5319
▁welfare	-5320
▁winters	-5321
▁witness	-5322
▁wrapped	-5323
fectioner	-5324
identally	-5325
pichhaura	-5326
▁airtight	-5327
▁allowing	-5328
▁altitude	-5329
▁aluminum	-5330
▁argument	-5331
▁assembly	-5332
▁barberry	-5333
▁bareilly	-5334
▁bhumiyal	-5335
▁biscuits	-5336
▁blankets	-5337
▁blisters	-5338
▁boasting	-5339
▁borrowed	-5340
▁brightly	-5341
▁bullocks	-5342
▁calendar	-5343
▁cemented	-5344
▁charcoal	-5345
▁checking	-5346
▁chopping	-5347
▁colorful	-5348
▁compress	-5349
▁conflict	-5350
▁consider	-5351
▁credited	-5352
▁crossing	-5353
▁cultural	-5354
▁cupboard	-5355
▁dandruff	-5356
▁decision	-5357
▁deducted	-5358
▁delivery	-5359
▁diarrhea	-5360
▁director	-5361
▁discount	-5362
▁duration	-5363
▁educated	-5364
▁eleventh	-5365
▁entrance	-5366
▁eyesight	-5367
▁farewell	-5368
▁feathers	-5369
▁february	-5370
▁feverish	-5371
▁fighters	-5372
▁fragrant	-5373
▁fritters	-5374
▁grandson	-5375
▁greenery	-5376
▁handmade	-5377
▁improves	-5378
▁infested	-5379
▁inspired	-5380
▁jagariya	-5381
▁kindness	-5382
▁lanterns	-5383
▁leftover	-5384
▁licorice	-5385
▁lifetime	-5386
▁migrated	-5387
▁nauseous	-5388
▁nonsense	-5389
▁painting	-5390
▁paternal	-5391
▁patterns	-5392
▁porridge	-5393
▁position	-5394
▁powerful	-5395
▁praising	-5396
▁progress	-5397
▁pumpkins	-5398
▁punished	-5399
▁quarrels	-5400
▁ramleela	-5401
▁reaction	-5402
▁recently	-5403
▁relaxing	-5404
▁released	-5405
▁resident	-5406
▁restless	-5407
▁revising	-5408
▁ripening	-5409
▁rotation	-5410
▁sanskrit	-5411
▁separate	-5412
▁settings	-5413
▁shortcut	-5414
▁slightly	-5415
▁smelling	-5416
▁smoothly	-5417
▁snatched	-5418
▁snowfall	-5419
▁software	-5420
▁sometime	-5421
▁specimen	-5422
▁splinter	-5423
▁spoiling	-5424
▁stubborn	-5425
▁surprise	-5426
▁talented	-5427
▁teachers	-5428
▁thursday	-5429
▁tourists	-5430
▁troubled	-5431
▁uniforms	-5432
▁valuable	-5433
▁worrying	-5434
▁benefited	-5435
▁buildings	-5436
▁celebrity	-5437
▁chemicals	-5438
▁chemistry	-5439
▁cornfield	-5440
▁correctly	-5441
▁cultivate	-5442
▁dangariya	-5443
▁daughters	-5444
▁demanding	-5445
▁digestion	-5446
▁digestive	-5447
▁disappear	-5448
▁discharge	-5449
▁dumplings	-5450
▁eggshells	-5451
▁emotional	-5452
▁financial	-5453
▁finishing	-5454
▁gratitude	-5455
▁groceries	-5456
▁hospitals	-5457
▁illnesses	-5458
▁impending	-5459
▁increases	-5460
▁indicates	-5461
▁infection	-5462
▁installed	-5463
▁lethargic	-5464
▁livestock	-5465
▁mandatory	-5466
▁motivated	-5467
▁nutrients	-5468
▁officials	-5469
▁overnight	-5470
▁performed	-5471
▁pesticide	-5472
▁plastered	-5473
▁political	-5474
▁practical	-5475
▁protected	-5476
▁protector	-5477
▁respected	-5478
▁searching	-5479
▁sensation	-5480
▁september	-5481
▁seriously	-5482
▁shivratri	-5483
▁slingshot	-5484
▁snatching	-5485
▁spreading	-5486
▁sprinkler	-5487
▁stainless	-5488
▁storeroom	-5489
▁storytell	-5490
▁struggles	-5491
▁sugarcane	-5492
▁terrified	-5493
▁territory	-5494
▁tethering	-5495
▁therefore	-5496
▁toothache	-5497
▁transport	-5498
▁waterfall	-5499
▁wednesday	-5500
▁whistling	-5501
▁afternoons	-5502
▁announcing	-5503
▁antiseptic	-5504
▁asafoetida	-5505
▁assignment	-5506
▁beneficial	-5507
▁buttermilk	-5508
▁ceremonies	-5509
▁collecting	-5510
▁comforting	-5511
▁complained	-5512
▁compulsion	-5513
▁conditions	-5514
▁confidence	-5515
▁connecting	-5516
▁constantly	-5517
▁contractor	-5518
▁decorators	-5519
▁destroying	-5520
▁difference	-5521
▁difficulty	-5522
▁dispensary	-5523
▁distribute	-5524
▁earthquake	-5525
▁engagement	-5526
▁exhibition	-5527
▁experience	-5528
▁generation	-5529
▁ghughutiya	-5530
▁gooseberry	-5531
▁importance	-5532
▁increasing	-5533
▁installing	-5534
▁kilometers	-5535
▁microphone	-5536
▁mosquitoes	-5537
▁nosebleeds	-5538
▁permission	-5539
▁population	-5540
▁practicing	-5541
▁properties	-5542
▁remembered	-5543
▁separately	-5544
▁spectacles	-5545
▁surrounded	-5546
▁symbolizes	-5547
▁themselves	-5548
▁toothbrush	-5549
▁toothpaste	-5550
▁university	-5551
▁unseasonal	-5552
▁approaching	-5553
▁celebrating	-5554
▁cleanliness	-5555
▁comfortable	-5556
▁competition	-5557
▁cooperative	-5558
▁destructive	-5559
▁development	-5560
▁fingerprint	-5561
▁forefathers	-5562
▁frightening	-5563
▁generations	-5564
▁handwriting	-5565
▁headmasters	-5566
▁informative	-5567
▁intelligent	-5568
▁overflowing	-5569
▁overwhelmed	-5570
▁pomegranate	-5571
▁transformer	-5572
▁understands	-5573
▁unirrigated	-5574
cumambulation	-5575
▁accidentally	-5576
▁confectioner	-5577
▁consequences	-5578
▁constipation	-5579
▁contributing	-5580
▁difficulties	-5581
▁grandmothers	-5582
▁photographer	-5583
▁refrigerator	-5584
▁rhododendron	-5585
▁significance	-5586
▁automatically	-5587
▁opportunities	-5588
▁participating	-5589
aji	-5590
hyo	-5591
jyu	-5592
log	-5593
mma	-5594
nai	-5595
noc	-5596
oda	-5597
uka	-5598
ukh	-5599
gia	-5600
wax	-5601
ahug	-5602
anaj	-5603
apsi	-5604
aula	-5605
auwa	-5606
blic	-5607
chak	-5608
clop	-5609
dels	-5610
diya	-5611
edia	-5612
ercy	-5613
evit	-5614
foot	-5615
ghur	-5616
gwan	-5617
hadi	-5618
hoti	-5619
huli	-5620
huni	-5621
hyan	-5622
iffs	-5623
jhal	-5624
jhol	-5625
jhor	-5626
kesh	-5627
lekh	-5628
loom	-5629
mala	-5630
moda	-5631
modi	-5632
mtal	-5633
naam	-5634
odis	-5635
onyt	-5636
opsc	-5637
oven	-5638
pana	-5639
pros	-5640
radh	-5641
rots	-5642
ruli	-5643
ruly	-5644
ssib	-5645
then	-5646
time	-5647
ucal	-5648
urik	-5649
vens	-5650
vior	-5651
wadi	-5652
wami	-5653
yala	-5654
yole	-5655
yond	-5656
yura	-5657
yuri	-5658
▁aks	-5659
▁geh	-5660
▁icy	-5661
▁ign	-5662
▁lai	-5663
▁max	-5664
▁pua	-5665
▁puz	-5666
▁vij	-5667
▁wok	-5668
accha	-5669
added	-5670
aisha	-5671
alash	-5672
amaun	-5673
anesh	-5674
anyad	-5675
apada	-5676
artik	-5677
athas	-5678
atisf	-5679
avens	-5680
azier	-5681
bbles	-5682
bells	-5683
bhaat	-5684
bhang	-5685
burst	-5686
chait	-5687
chief	-5688
chuli	-5689
chuna	-5690
ciety	-5691
cises	-5692
daand	-5693
dhaan	-5694
dhuni	-5695
enced	-5696
enger	-5697
ermin	-5698
etted	-5699
ford	-5700
kale	-5701
pipe	-5702
play	-5703
plug	-5704
begar	-5705
fense	-5706
flies	-5707
fully	-5708
ghuri	-5709
haadh	-5710
hanti	-5711
hikar	-5712
hopsc	-5713
house	-5714
hurat	-5715
hurta	-5716
ichhu	-5717
idges	-5718
igada	-5719
insar	-5720
iquet	-5721
ithya	-5722
itiya	-5723
itron	-5724
jhora	-5725
katha	-5726
lapsi	-5727
maalu	-5728
maida	-5729
mites	-5730
nanda	-5731
nyard	-5732
olgia	-5733
olina	-5734
ooray	-5735
phala	-5736
press	-5737
prosy	-5738
provo	-5739
rahma	-5740
rific	-5741
ritis	-5742
roads	-5743
rogen	-5744
share	-5745
stlet	-5746
swami	-5747
tenna	-5748
ublic	-5749
ucaly	-5750
uised	-5751
warac	-5752
woven	-5753
▁amaz	-5754
▁bais	-5755
▁beej	-5756
▁budi	-5757
▁bunk	-5758
▁bury	-5759
▁club	-5760
▁cobs	-5761
▁decl	-5762
▁deod	-5763
▁devt	-5764
▁dial	-5765
▁diss	-5766
▁drew	-5767
▁echo	-5768
▁ency	-5769
▁eros	-5770
▁evap	-5771
▁fanf	-5772
▁fert	-5773
▁flea	-5774
▁foul	-5775
▁frog	-5776
▁fuel	-5777
▁gaon	-5778
▁ghyu	-5779
▁golj	-5780
▁graz	-5781
▁heel	-5782
▁hoar	-5783
▁humm	-5784
▁imit	-5785
▁issu	-5786
▁jane	-5787
▁jasm	-5788
▁july	-5789
▁june	-5790
▁jyes	-5791
▁kaam	-5792
▁lamb	-5793
▁magp	-5794
▁menu	-5795
▁moos	-5796
▁naga	-5797
▁nape	-5798
▁naur	-5799
tel	-5800
atte	-5801
haya	-5802
hiya	-5803
ipaw	-5804
izza	-5805
khli	-5806
ngas	-5807
umps	-5808
▁aug	-5809
▁opt	-5810
▁wax	-5811
anche	-5812
carom	-5813
check	-5814
emmed	-5815
inema	-5816
intel	-5817
ozing	-5818
ucial	-5819
uggul	-5820
vince	-5821
worms	-5822
▁arms	-5823
▁font	-5824
▁hate	-5825
▁jiya	-5826
▁juic	-5827
▁nett	-5828
▁paan	-5829
▁paid	-5830
▁penc	-5831
▁plug	-5832
▁pond	-5833
▁pooj	-5834
▁popc	-5835
▁puzz	-5836
▁rabb	-5837
▁ragi	-5838
▁raus	-5839
▁ravi	-5840
▁refr	-5841
▁sets	-5842
▁sins	-5843
▁subt	-5844
▁summ	-5845
▁tape	-5846
▁tarp	-5847
▁thal	-5848
▁thud	-5849
▁tiny	-5850
▁trem	-5851
▁undr	-5852
▁upto	-5853
▁vera	-5854
▁wala	-5855
▁warn	-5856
▁wifi	-5857
▁wobb	-5858
▁yoke	-5859
▁zila	-5860
▁zone	-5861
abbadi	-5862
actors	-5863
adcast	-5864
affold	-5865
agerly	-5866
ainoli	-5867
aithki	-5868
angled	-5869
anwadi	-5870
arnath	-5871
arters	-5872
artial	-5873
ashami	-5874
asured	-5875
atform	-5876
athvin	-5877
aurant	-5878
avasya	-5879
ayadas	-5880
basant	-5881
bhaang	-5882
bhatke	-5883
brahma	-5884
bursts	-5885
carved	-5886
cember	-5887
cerned	-5888
coming	-5889
cribed	-5890
daandi	-5891
dangal	-5892
enshot	-5893
entify	-5894
ervant	-5895
graphi	-5896
guggul	-5897
haling	-5898
havior	-5899
rup	-5900
eled	-5901
fold	-5902
ized	-5903
izer	-5904
ords	-5905
worm	-5906
▁gud	-5907
agiri	-5908
akesh	-5909
gular	-5910
idual	-5911
izens	-5912
vated	-5913
venty	-5914
▁chin	-5915
▁chop	-5916
▁chos	-5917
▁chow	-5918
▁cope	-5919
▁cute	-5920
▁died	-5921
▁guav	-5922
▁nail	-5923
▁raml	-5924
▁swor	-5925
chased	-5926
eeches	-5927
hengas	-5928
hthale	-5929
huliar	-5930
iative	-5931
icides	-5932
idemic	-5933
ierces	-5934
igious	-5935
ilmora	-5936
indoor	-5937
ipping	-5938
iquett	-5939
jhalar	-5940
kalash	-5941
kanche	-5942
krishi	-5943
lashes	-5944
legram	-5945
lished	-5946
mangal	-5947
master	-5948
molina	-5949
ooping	-5950
orates	-5951
oyment	-5952
parall	-5953
pended	-5954
racted	-5955
rapada	-5956
reetha	-5957
reshed	-5958
ridges	-5959
rising	-5960
rogant	-5961
scross	-5962
ssibly	-5963
uction	-5964
ucture	-5965
ulence	-5966
umbles	-5967
urizer	-5968
vember	-5969
veying	-5970
▁ameen	-5971
▁asset	-5972
▁authe	-5973
▁basis	-5974
▁bazar	-5975
▁beams	-5976
▁bhado	-5977
▁bhaun	-5978
▁bindi	-5979
▁bones	-5980
▁bored	-5981
▁boric	-5982
▁brahm	-5983
▁breed	-5984
▁calam	-5985
▁campa	-5986
▁capac	-5987
▁catar	-5988
▁cells	-5989
▁charg	-5990
▁chhyo	-5991
▁churd	-5992
▁chyur	-5993
▁colle	-5994
▁cooks	-5995
▁corne	-5996
▁crick	-5997
▁cried	-5998
▁crime	-5999
dev	-6000
hus	-6001
usi	-6002
0000	-6003
husk	-6004
ooth	-6005
rich	-6006
rict	-6007
vani	-6008
▁jok	-6009
▁tus	-6010
aderi	-6011
ample	-6012
ayani	-6013
brant	-6014
hadev	-6015
thusi	-6016
wheat	-6017
▁bhai	-6018
▁buys	-6019
▁cars	-6020
▁crac	-6021
▁joke	-6022
▁snan	-6023
▁unne	-6024
▁wide	-6025
akhiya	-6026
etooth	-6027
gaderi	-6028
husked	-6029
ifying	-6030
itated	-6031
ricate	-6032
▁accep	-6033
▁banks	-6034
▁batch	-6035
▁buyer	-6036
▁chain	-6037
▁crave	-6038
▁cruel	-6039
▁curse	-6040
▁danda	-6041
▁deeds	-6042
▁demon	-6043
▁depot	-6044
▁dipaw	-6045
▁discu	-6046
▁dishe	-6047
▁diwan	-6048
▁dizzy	-6049
▁drawn	-6050
▁drizz	-6051
▁drunk	-6052
▁email	-6053
▁ember	-6054
▁encro	-6055
▁entry	-6056
▁erase	-6057
▁evils	-6058
▁extre	-6059
▁fatig	-6060
▁ferns	-6061
▁files	-6062
▁fills	-6063
▁fixes	-6064
▁flute	-6065
▁foggy	-6066
▁footb	-6067
▁frogs	-6068
▁funds	-6069
▁ganga	-6070
▁gatta	-6071
▁gatte	-6072
▁gehun	-6073
▁glory	-6074
▁golju	-6075
▁graze	-6076
▁hairy	-6077
▁halls	-6078
▁hariy	-6079
▁healt	-6080
▁hears	-6081
▁heera	-6082
▁hillt	-6083
▁humor	-6084
▁hunch	-6085
▁hurts	-6086
▁ideal	-6087
▁inbox	-6088
▁incor	-6089
▁innoc	-6090
▁jaagi	-6091
▁jokes	-6092
▁juicy	-6093
▁katha	-6094
▁kauwa	-6095
▁khadi	-6096
▁khale	-6097
▁kilmu	-6098
▁kings	-6099
fts	-6100
gra	-6101
hra	-6102
raw	-6103
sra	-6104
aryu	-6105
ftop	-6106
grah	-6107
raft	-6108
▁adi	-6109
amper	-6110
ategy	-6111
besan	-6112
craft	-6113
imary	-6114
▁adap	-6115
▁bada	-6116
▁garu	-6117
▁irre	-6118
▁oper	-6119
▁purp	-6120
▁rang	-6121
▁skir	-6122
▁sung	-6123
▁thig	-6124
▁trek	-6125
hikari	-6126
mithai	-6127
nowing	-6128
▁adapt	-6129
▁adhes	-6130
▁aware	-6131
▁badri	-6132
▁bhang	-6133
▁brocc	-6134
▁damru	-6135
▁frock	-6136
▁janeu	-6137
▁knock	-6138
▁kurta	-6139
▁ladle	-6140
▁leaks	-6141
▁leper	-6142
▁lived	-6143
▁maagh	-6144
▁maala	-6145
▁mahes	-6146
▁maint	-6147
▁mandi	-6148
▁masks	-6149
▁meena	-6150
▁mehra	-6151
▁mercy	-6152
▁multi	-6153
▁musso	-6154
▁nagar	-6155
▁naray	-6156
▁naula	-6157
▁necks	-6158
▁niece	-6159
▁oppos	-6160
▁outer	-6161
▁ovens	-6162
▁overt	-6163
▁palan	-6164
▁palms	-6165
▁panic	-6166
▁pants	-6167
▁patha	-6168
▁piled	-6169
▁pizza	-6170
▁posit	-6171
▁pushp	-6172
▁rajma	-6173
▁ramay	-6174
▁ramwa	-6175
▁rebad	-6176
▁reply	-6177
▁reput	-6178
▁reser	-6179
▁ridge	-6180
▁rishi	-6181
▁rocky	-6182
▁roost	-6183
▁sagar	-6184
▁sandy	-6185
▁saryu	-6186
▁satna	-6187
▁scarf	-6188
▁scene	-6189
▁screw	-6190
▁scrub	-6191
▁secur	-6192
▁shani	-6193
▁shape	-6194
▁shrub	-6195
▁sides	-6196
▁skies	-6197
▁skirt	-6198
▁smugg	-6199
fix	-6200
rug	-6201
airc	-6202
bhed	-6203
cise	-6204
down	-6205
half	-6206
ishu	-6207
mmer	-6208
nown	-6209
unci	-6210
▁gel	-6211
being	-6212
bheda	-6213
known	-6214
▁bite	-6215
▁cats	-6216
▁dull	-6217
▁flax	-6218
▁maya	-6219
▁nath	-6220
▁oily	-6221
▁phal	-6222
▁slak	-6223
iverse	-6224
micomp	-6225
onunci	-6226
▁affix	-6227
▁caste	-6228
▁diver	-6229
▁irres	-6230
▁liter	-6231
▁phalg	-6232
▁pitth	-6233
▁purif	-6234
▁rally	-6235
▁shelf	-6236
▁slice	-6237
▁snack	-6238
▁snail	-6239
▁soldi	-6240
▁spell	-6241
▁split	-6242
▁spoil	-6243
▁spoke	-6244
▁spons	-6245
▁spots	-6246
▁suits	-6247
▁sunsh	-6248
▁suwal	-6249
▁swarm	-6250
▁sweat	-6251
▁swipe	-6252
▁syrup	-6253
▁tanak	-6254
▁tapes	-6255
▁tears	-6256
▁tenth	-6257
▁thigh	-6258
▁third	-6259
▁token	-6260
▁topso	-6261
▁toran	-6262
▁towel	-6263
▁trail	-6264
▁tremb	-6265
▁trial	-6266
▁trips	-6267
▁tusks	-6268
▁uneas	-6269
▁unmar	-6270
▁views	-6271
▁vigor	-6272
▁vimla	-6273
▁vishu	-6274
▁volvo	-6275
▁voter	-6276
▁wards	-6277
▁wears	-6278
▁wheel	-6279
▁windy	-6280
▁wires	-6281
▁witch	-6282
▁witty	-6283
▁woken	-6284
▁wrote	-6285
▁yatra	-6286
aathvin	-6287
acchami	-6288
aircase	-6289
anamrit	-6290
andered	-6291
artened	-6292
aseline	-6293
ashtami	-6294
asually	-6295
attered	-6296
attling	-6297
aunched	-6298
autious	-6299
bwe	-6300
jib	-6301
off	-6302
aksh	-6303
bade	-6304
card	-6305
char	-6306
itor	-6307
jibi	-6308
khal	-6309
rene	-6310
rils	-6311
vats	-6312
▁bdo	-6313
▁esc	-6314
▁kat	-6315
▁mla	-6316
authi	-6317
bwebs	-6318
chard	-6319
ltice	-6320
mable	-6321
rfore	-6322
verty	-6323
▁aach	-6324
▁cave	-6325
▁chai	-6326
▁coug	-6327
▁gout	-6328
▁herb	-6329
▁jobs	-6330
▁rude	-6331
▁toll	-6332
▁twit	-6333
armaji	-6334
authig	-6335
bichhu	-6336
cation	-6337
eption	-6338
osable	-6339
reness	-6340
strils	-6341
uljibi	-6342
vatsar	-6343
▁added	-6344
▁blade	-6345
▁bount	-6346
▁candy	-6347
▁chess	-6348
▁crisp	-6349
▁daksh	-6350
▁dubke	-6351
▁flust	-6352
▁goals	-6353
▁herit	-6354
▁maalu	-6355
▁patal	-6356
▁peach	-6357
▁salon	-6358
▁tasks	-6359
▁weave	-6360
ammable	-6361
azetted	-6362
baithki	-6363
banasur	-6364
berries	-6365
ckwheat	-6366
connect	-6367
cribing	-6368
dominal	-6369
drapada	-6370
ensical	-6371
ermined	-6372
estinal	-6373
hanging	-6374
hitauli	-6375
huliarg	-6376
illness	-6377
ilments	-6378
itizens	-6379
ividual	-6380
kauthig	-6381
kilmora	-6382
mentary	-6383
muhurat	-6384
naamkar	-6385
omposed	-6386
onytail	-6387
oultice	-6388
parents	-6389
parvati	-6390
pidemic	-6391
present	-6392
raction	-6393
redible	-6394
renched	-6395
rentice	-6396
ression	-6397
ringent	-6398
riphala	-6399
si	-6400
yf	-6401
iqu	-6402
tai	-6403
ury	-6404
arsa	-6405
niqu	-6406
ptus	-6407
xury	-6408
▁apr	-6409
▁flo	-6410
▁mur	-6411
▁via	-6412
anies	-6413
comes	-6414
iesth	-6415
imist	-6416
ining	-6417
isans	-6418
isted	-6419
istin	-6420
itran	-6421
rical	-6422
uxury	-6423
▁adze	-6424
▁appo	-6425
▁baba	-6426
▁dues	-6427
▁exha	-6428
▁firm	-6429
▁grip	-6430
▁imag	-6431
▁inso	-6432
▁muff	-6433
▁port	-6434
▁rods	-6435
▁sita	-6436
▁sits	-6437
▁tilt	-6438
▁vent	-6439
▁wont	-6440
chhole	-6441
chniqu	-6442
harela	-6443
orther	-6444
▁april	-6445
▁bahug	-6446
▁dedic	-6447
▁fears	-6448
▁flank	-6449
▁float	-6450
▁harad	-6451
▁kalai	-6452
▁ladyf	-6453
▁mansi	-6454
▁murga	-6455
▁neckl	-6456
▁olden	-6457
▁solar	-6458
atrical	-6459
avistin	-6460
imistic	-6461
ristlet	-6462
roaches	-6463
roaking	-6464
stacles	-6465
stalgic	-6466
thritis	-6467
uetooth	-6468
uishing	-6469
ultural	-6470
urikund	-6471
usually	-6472
verages	-6473
working	-6474
▁aachri	-6475
▁abroad	-6476
▁action	-6477
▁advant	-6478
▁advice	-6479
▁affair	-6480
▁affect	-6481
▁afford	-6482
▁amazed	-6483
▁ankles	-6484
▁appear	-6485
▁approx	-6486
▁attack	-6487
▁august	-6488
▁bedshe	-6489
▁bhabar	-6490
▁bhuvan	-6491
▁bighas	-6492
▁bitten	-6493
▁bloods	-6494
▁bottom	-6495
▁breast	-6496
▁calcul	-6497
▁capsic	-6498
▁caring	-6499
olu	-6500
oss	-6501
zen	-6502
agri	-6503
aple	-6504
atri	-6505
dolu	-6506
hari	-6507
ozen	-6508
stap	-6509
▁hoe	-6510
▁jug	-6511
▁kno	-6512
▁log	-6513
▁tip	-6514
▁yam	-6515
gagri	-6516
hagan	-6517
inath	-6518
iwari	-6519
onous	-6520
quire	-6521
riate	-6522
stapu	-6523
▁armp	-6524
▁juga	-6525
▁lets	-6526
▁maas	-6527
▁pear	-6528
▁phle	-6529
▁pinc	-6530
▁scan	-6531
▁sheh	-6532
arture	-6533
hature	-6534
onment	-6535
ossoms	-6536
rinath	-6537
uhagan	-6538
▁flood	-6539
▁moong	-6540
▁phleg	-6541
▁porch	-6542
▁roses	-6543
▁stric	-6544
irement	-6545
isonous	-6546
suhagan	-6547
▁armpit	-6548
▁beyond	-6549
▁caused	-6550
▁chalan	-6551
▁chamma	-6552
▁charac	-6553
▁chased	-6554
▁chaukh	-6555
▁cherry	-6556
▁chicks	-6557
▁chills	-6558
▁chilly	-6559
▁chisel	-6560
▁chitai	-6561
▁chosen	-6562
▁chowme	-6563
▁chyura	-6564
▁cinema	-6565
▁citron	-6566
▁colony	-6567
▁colost	-6568
▁conflu	-6569
▁cooker	-6570
▁cooler	-6571
▁costly	-6572
▁coughs	-6573
▁cramps	-6574
▁crispy	-6575
▁curing	-6576
▁curren	-6577
▁dancer	-6578
▁dances	-6579
▁daring	-6580
▁deeply	-6581
▁deitys	-6582
▁device	-6583
▁devtas	-6584
▁dinesh	-6585
▁discip	-6586
▁doorbe	-6587
▁double	-6588
▁drawer	-6589
▁dwarac	-6590
▁earwax	-6591
▁echoes	-6592
▁edible	-6593
▁enrich	-6594
▁escape	-6595
▁eucaly	-6596
▁excite	-6597
▁failed	-6598
▁faster	-6599
abe	-6600
aud	-6601
ipt	-6602
iva	-6603
jha	-6604
uns	-6605
bber	-6606
jhad	-6607
past	-6608
quin	-6609
rown	-6610
sens	-6611
vers	-6612
▁ars	-6613
▁jis	-6614
▁kir	-6615
▁sin	-6616
abean	-6617
ailed	-6618
bbery	-6619
esame	-6620
estab	-6621
grown	-6622
icate	-6623
jhadu	-6624
ringe	-6625
ugree	-6626
urned	-6627
▁arsa	-6628
▁blow	-6629
▁cate	-6630
▁dare	-6631
▁guns	-6632
▁lota	-6633
▁lump	-6634
▁mare	-6635
▁roll	-6636
▁sink	-6637
▁smar	-6638
▁stab	-6639
▁stub	-6640
▁sway	-6641
damaun	-6642
ugreek	-6643
▁aband	-6644
▁bland	-6645
▁brace	-6646
▁brick	-6647
▁cones	-6648
▁dares	-6649
▁devot	-6650
▁estab	-6651
▁faces	-6652
▁facil	-6653
▁fraud	-6654
▁kills	-6655
bandhan	-6656
gulgule	-6657
reaming	-6658
▁blight	-6659
▁blouse	-6660
▁catere	-6661
▁extent	-6662
▁fennel	-6663
▁fester	-6664
▁firmly	-6665
▁flocks	-6666
▁floors	-6667
▁frozen	-6668
▁frying	-6669
▁funded	-6670
▁funnel	-6671
▁furnit	-6672
▁ganesh	-6673
▁ganges	-6674
▁garuda	-6675
▁ghosts	-6676
▁gourds	-6677
▁graced	-6678
▁grandd	-6679
▁gravel	-6680
▁grease	-6681
▁greedy	-6682
▁guardi	-6683
▁habits	-6684
▁hammer	-6685
▁headqu	-6686
▁helper	-6687
▁hidden	-6688
▁hoarse	-6689
▁hollow	-6690
▁horned	-6691
▁howled	-6692
▁hunchb	-6693
▁hunger	-6694
▁ignore	-6695
▁impass	-6696
▁indian	-6697
▁indoor	-6698
▁inevit	-6699
...	-6700
afe	-6701
nam	-6702
oti	-6703
pea	-6704
tim	-6705
adua	-6706
gest	-6707
idue	-6708
ivil	-6709
peck	-6710
▁asc	-6711
▁bhi	-6712
▁lap	-6713
▁lop	-6714
▁suv	-6715
alous	-6716
arind	-6717
madua	-6718
oolie	-6719
timur	-6720
▁cafe	-6721
▁clin	-6722
▁deed	-6723
▁dhan	-6724
▁feat	-6725
▁fees	-6726
▁kaus	-6727
▁load	-6728
▁mail	-6729
▁nali	-6730
▁prak	-6731
▁seem	-6732
angest	-6733
coolie	-6734
logged	-6735
nament	-6736
pecker	-6737
▁ascot	-6738
▁chant	-6739
▁civil	-6740
▁jyoti	-6741
▁raise	-6742
▁rhyan	-6743
▁smack	-6744
▁suvid	-6745
▁wider	-6746
amarind	-6747
chaitol	-6748
pension	-6749
▁cleans	-6750
▁clinic	-6751
▁darker	-6752
▁defore	-6753
▁hooray	-6754
▁inject	-6755
▁inland	-6756
▁jailed	-6757
▁jalebi	-6758
▁jethon	-6759
▁joking	-6760
▁jugaad	-6761
▁kalash	-6762
▁kanyad	-6763
▁kartik	-6764
▁khasra	-6765
▁kheera	-6766
▁ladder	-6767
▁lakhan	-6768
▁lately	-6769
▁laughs	-6770
▁lengha	-6771
▁locker	-6772
▁losing	-6773
▁luxury	-6774
▁majher	-6775
▁manner	-6776
▁margin	-6777
▁marten	-6778
▁masala	-6779
▁mashed	-6780
▁midday	-6781
▁milked	-6782
▁misses	-6783
▁models	-6784
▁mohans	-6785
▁mosque	-6786
▁mouths	-6787
▁napier	-6788
▁naresh	-6789
▁object	-6790
▁oiling	-6791
▁packet	-6792
▁paksha	-6793
▁palyav	-6794
▁palyun	-6795
▁pamper	-6796
▁paneer	-6797
▁parade	-6798
▁parant	-6799
ti	-6800
fco	-6801
▁rs	-6802
cean	-6803
marb	-6804
mity	-6805
omti	-6806
reds	-6807
waar	-6808
yard	-6809
▁coc	-6810
▁jee	-6811
▁row	-6812
▁sai	-6813
aulin	-6814
idity	-6815
ility	-6816
ource	-6817
ppers	-6818
▁beam	-6819
▁clos	-6820
▁coal	-6821
▁coca	-6822
▁deal	-6823
▁geck	-6824
▁mice	-6825
▁pity	-6826
▁prin	-6827
▁prop	-6828
▁pyth	-6829
▁wart	-6830
ession	-6831
fiddle	-6832
▁acorn	-6833
▁aside	-6834
▁click	-6835
▁dayal	-6836
▁dwaar	-6837
▁gecko	-6838
▁gomti	-6839
▁haldi	-6840
▁iffco	-6841
▁newly	-6842
▁ocean	-6843
▁revol	-6844
▁seeps	-6845
▁shame	-6846
▁timur	-6847
▁warts	-6848
intment	-6849
loyment	-6850
marbles	-6851
shivani	-6852
▁accent	-6853
▁acorns	-6854
▁cliffs	-6855
▁closer	-6856
▁comple	-6857
▁donate	-6858
▁enmity	-6859
▁oozing	-6860
▁pahadi	-6861
▁parrot	-6862
▁passed	-6863
▁passes	-6864
▁pastor	-6865
▁pathai	-6866
▁peeled	-6867
▁pencil	-6868
▁permit	-6869
▁phlegm	-6870
▁pigeon	-6871
▁piling	-6872
▁pithya	-6873
▁places	-6874
▁polite	-6875
▁poojan	-6876
▁poster	-6877
▁public	-6878
▁punctu	-6879
▁purnim	-6880
▁puzzle	-6881
▁python	-6882
▁quills	-6883
▁quilts	-6884
▁rakesh	-6885
▁rausha	-6886
▁recall	-6887
▁recent	-6888
▁reetha	-6889
▁refuse	-6890
▁reject	-6891
▁reopen	-6892
▁repeat	-6893
▁resort	-6894
▁rested	-6895
▁retain	-6896
▁reward	-6897
▁riding	-6898
▁rooted	-6899
aya	-6900
hab	-6901
kay	-6902
rya	-6903
bhar	-6904
body	-6905
dhol	-6906
hank	-6907
okay	-6908
▁cun	-6909
▁gri	-6910
▁guj	-6911
▁hop	-6912
▁ked	-6913
▁kis	-6914
▁rum	-6915
.....	-6916
andan	-6917
astic	-6918
etrol	-6919
harya	-6920
igest	-6921
kauwa	-6922
omest	-6923
rying	-6924
thank	-6925
umbai	-6926
▁aler	-6927
▁kans	-6928
▁kill	-6929
▁negi	-6930
▁rely	-6931
▁rubb	-6932
▁sees	-6933
▁span	-6934
▁trap	-6935
▁vast	-6936
drying	-6937
hapana	-6938
illage	-6939
▁alert	-6940
▁beard	-6941
▁counc	-6942
▁dajyu	-6943
▁event	-6944
▁griha	-6945
▁plain	-6946
▁royal	-6947
▁rumor	-6948
▁sahab	-6949
▁thumb	-6950
▁trick	-6951
acharya	-6952
bhabhar	-6953
checked	-6954
ivating	-6955
omestic	-6956
village	-6957
▁bishan	-6958
▁gujiya	-6959
▁hoping	-6960
▁humans	-6961
▁kishan	-6962
▁mumbai	-6963
▁papaya	-6964
▁petrol	-6965
▁router	-6966
▁rusted	-6967
▁safely	-6968
▁saliva	-6969
▁sarees	-6970
▁satisf	-6971
▁satvin	-6972
▁sayani	-6973
▁scenes	-6974
▁scenic	-6975
▁scient	-6976
▁scraps	-6977
▁secure	-6978
▁seller	-6979
▁sensit	-6980
▁server	-6981
▁sesame	-6982
▁settle	-6983
▁shaded	-6984
▁shanti	-6985
▁shells	-6986
▁shifts	-6987
▁shouts	-6988
▁shyams	-6989
▁sights	-6990
▁skills	-6991
▁slaked	-6992
▁sleeps	-6993
▁slices	-6994
▁soaked	-6995
▁softly	-6996
▁solves	-6997
▁soothe	-6998
▁sparks	-6999
axe	-7000
cir	-7001
ctc	-7002
fer	-7003
gre	-7004
uti	-7005
▁ko	-7006
amal	-7007
anim	-7008
antr	-7009
ants	-7010
iant	-7011
irul	-7012
ivet	-7013
ooky	-7014
ripe	-7015
suka	-7016
▁bri	-7017
▁cds	-7018
▁dim	-7019
▁koh	-7020
▁mug	-7021
▁nep	-7022
▁rib	-7023
▁sms	-7024
anted	-7025
green	-7026
pirul	-7027
▁afar	-7028
▁cass	-7029
▁fumb	-7030
▁hass	-7031
▁kohl	-7032
▁rack	-7033
▁shie	-7034
▁teen	-7035
▁tins	-7036
▁veil	-7037
▁wore	-7038
animal	-7039
antras	-7040
icking	-7041
sukaal	-7042
wishes	-7043
▁blown	-7044
▁bribe	-7045
▁civet	-7046
▁dries	-7047
▁giant	-7048
▁irctc	-7049
▁kamal	-7050
▁meant	-7051
▁mooed	-7052
▁moral	-7053
▁nephe	-7054
▁ruler	-7055
▁score	-7056
▁sores	-7057
▁thaal	-7058
▁thali	-7059
▁total	-7060
▁tries	-7061
▁worst	-7062
▁casset	-7063
▁collar	-7064
▁firing	-7065
▁hassle	-7066
▁motion	-7067
▁nephew	-7068
▁racket	-7069
▁raises	-7070
▁serene	-7071
▁shield	-7072
▁spoils	-7073
▁spoken	-7074
▁spooky	-7075
▁square	-7076
▁squint	-7077
▁stable	-7078
▁staple	-7079
▁statue	-7080
▁steals	-7081
▁stitch	-7082
▁string	-7083
▁strips	-7084
▁stumps	-7085
▁submer	-7086
▁suffer	-7087
▁sunset	-7088
▁swings	-7089
▁swords	-7090
▁tailor	-7091
▁talked	-7092
▁taller	-7093
▁tanakp	-7094
▁tasted	-7095
▁terror	-7096
▁tested	-7097
▁thighs	-7098
▁thinks	-7099
inv	-7100
jur	-7101
vir	-7102
alid	-7103
anth	-7104
beat	-7105
lion	-7106
ntic	-7107
omed	-7108
opai	-7109
▁fry	-7110
▁hid	-7111
▁jar	-7112
▁nit	-7113
▁pea	-7114
aters	-7115
dious	-7116
ieces	-7117
itate	-7118
uring	-7119
usted	-7120
▁bone	-7121
▁cane	-7122
▁canv	-7123
▁cent	-7124
▁corm	-7125
▁hing	-7126
▁item	-7127
▁lens	-7128
▁nour	-7129
▁rall	-7130
▁reli	-7131
▁shut	-7132
▁wasn	-7133
▁wasp	-7134
aranth	-7135
omeday	-7136
sitate	-7137
▁blind	-7138
▁canal	-7139
▁cater	-7140
▁choir	-7141
▁envir	-7142
▁handk	-7143
▁hinge	-7144
▁ropai	-7145
▁spate	-7146
▁twice	-7147
▁vihar	-7148
adually	-7149
ashaadh	-7150
invalid	-7151
lodious	-7152
▁biting	-7153
▁canvas	-7154
▁caterp	-7155
▁centre	-7156
▁khajur	-7157
▁nausea	-7158
▁pieces	-7159
▁rashes	-7160
▁revive	-7161
▁speaks	-7162
▁tanker	-7163
▁thirty	-7164
▁thresh	-7165
▁tigada	-7166
▁tiller	-7167
▁tilted	-7168
▁timely	-7169
▁timers	-7170
▁tiring	-7171
▁tiwari	-7172
▁trader	-7173
▁treats	-7174
▁tricks	-7175
▁trough	-7176
▁unable	-7177
▁uneasy	-7178
▁uneven	-7179
▁unless	-7180
▁unlike	-7181
▁unplug	-7182
▁unruly	-7183
▁update	-7184
▁vaisha	-7185
▁ventil	-7186
▁vision	-7187
▁visits	-7188
▁wander	-7189
▁warned	-7190
▁watery	-7191
▁weeded	-7192
▁weeder	-7193
▁weekly	-7194
▁wicked	-7195
▁winner	-7196
▁wiring	-7197
▁wisdom	-7198
▁wisely	-7199
adu	-7200
gly	-7201
ola	-7202
ram	-7203
you	-7204
aded	-7205
aine	-7206
cola	-7207
hair	-7208
hier	-7209
irre	-7210
sted	-7211
urad	-7212
▁hut	-7213
▁lau	-7214
▁pau	-7215
▁rat	-7216
▁sab	-7217
bbler	-7218
heras	-7219
irrel	-7220
khair	-7221
loved	-7222
ndant	-7223
▁cone	-7224
▁dena	-7225
▁liqu	-7226
▁mehe	-7227
▁sabz	-7228
▁shor	-7229
▁sons	-7230
▁thor	-7231
▁toes	-7232
▁ugly	-7233
▁yoga	-7234
atered	-7235
esting	-7236
filled	-7237
▁carve	-7238
▁faded	-7239
▁fires	-7240
▁forge	-7241
▁inter	-7242
▁jagat	-7243
▁laund	-7244
▁paush	-7245
▁sabzi	-7246
▁sixty	-7247
▁stood	-7248
▁traps	-7249
▁unemp	-7250
erchief	-7251
esterol	-7252
lingadu	-7253
▁approp	-7254
▁barber	-7255
▁chawal	-7256
▁either	-7257
▁lintel	-7258
▁liquor	-7259
▁mehend	-7260
▁pheras	-7261
▁thatch	-7262
▁worked	-7263
▁writer	-7264
akhandev	-7265
antastic	-7266
atisfied	-7267
bhitauli	-7268
bservant	-7269
chniques	-7270
clopedia	-7271
cription	-7272
editated	-7273
graphite	-7274
hariyala	-7275
hiljatra	-7276
hthalene	-7277
iesthood	-7278
igestion	-7279
iquettes	-7280
itiative	-7281
licorice	-7282
ositions	-7283
ourceful	-7284
ponsible	-7285
pressive	-7286
queaking	-7287
ramleela	-7288
risingly	-7289
rogenous	-7290
soapnuts	-7291
stinging	-7292
tainment	-7293
thusiasm	-7294
tivating	-7295
unhusked	-7296
uttering	-7297
▁abandon	-7298
▁acidity	-7299
cel	-7300
mal	-7301
ped	-7302
rum	-7303
▁jc	-7304
asal	-7305
bahu	-7306
▁abs	-7307
▁dth	-7308
▁gic	-7309
▁hug	-7310
▁jcb	-7311
▁loo	-7312
▁pud	-7313
▁ure	-7314
iding	-7315
malai	-7316
veral	-7317
▁dove	-7318
▁hero	-7319
▁lick	-7320
▁mahi	-7321
▁mute	-7322
▁neat	-7323
▁peak	-7324
▁prem	-7325
▁saas	-7326
▁urea	-7327
▁wine	-7328
shaped	-7329
▁drove	-7330
▁fiery	-7331
▁nasal	-7332
▁nerve	-7333
▁picks	-7334
▁plows	-7335
▁plump	-7336
▁poles	-7337
▁sells	-7338
hopscot	-7339
inkable	-7340
theless	-7341
▁absent	-7342
▁binsar	-7343
▁cancel	-7344
▁comply	-7345
▁mahila	-7346
▁shradh	-7347
▁snakes	-7348
▁unwell	-7349
▁adjusts	-7350
▁advised	-7351
▁akshaya	-7352
▁anytime	-7353
▁approve	-7354
▁artisan	-7355
▁auction	-7356
▁avoided	-7357
▁bagpipe	-7358
▁baisakh	-7359
▁baithki	-7360
▁bandhan	-7361
▁banking	-7362
▁basanti	-7363
▁beating	-7364
▁bedding	-7365
▁beekeep	-7366
▁beloved	-7367
▁benches	-7368
▁bhagwan	-7369
▁bhature	-7370
▁bhimtal	-7371
▁blessed	-7372
▁bookshe	-7373
▁borther	-7374
▁bottoms	-7375
▁brahmin	-7376
▁brazier	-7377
▁breathe	-7378
▁breaths	-7379
▁breatht	-7380
▁bruised	-7381
▁butcher	-7382
▁butterf	-7383
▁calming	-7384
▁captain	-7385
▁chaitol	-7386
▁champaw	-7387
▁chandra	-7388
▁charged	-7389
▁charger	-7390
▁charity	-7391
▁cherish	-7392
▁chillum	-7393
▁circles	-7394
▁cleared	-7395
▁clearly	-7396
▁climate	-7397
▁climbed	-7398
▁clutter	-7399
0-	-7400
nl	-7401
ady	-7402
eny	-7403
mel	-7404
men	-7405
oob	-7406
pan	-7407
snl	-7408
tty	-7409
was	-7410
▁om	-7411
ansh	-7412
asar	-7413
aser	-7414
ayas	-7415
bhag	-7416
stop	-7417
▁alo	-7418
▁beg	-7419
▁sew	-7420
▁sig	-7421
▁wav	-7422
▁web	-7423
acing	-7424
antly	-7425
asuya	-7426
bhagw	-7427
crime	-7428
jholi	-7429
tened	-7430
▁aloe	-7431
▁bean	-7432
▁bier	-7433
▁bold	-7434
▁bsnl	-7435
▁deny	-7436
▁doob	-7437
▁mead	-7438
▁meat	-7439
▁mish	-7440
▁perc	-7441
▁poet	-7442
▁rana	-7443
▁rehe	-7444
melons	-7445
ocated	-7446
sister	-7447
washed	-7448
▁coils	-7449
▁fewer	-7450
▁grade	-7451
▁grove	-7452
▁guava	-7453
▁kasar	-7454
▁kauni	-7455
▁links	-7456
▁nyole	-7457
▁poems	-7458
▁waves	-7459
▁yours	-7460
bhagwat	-7461
buransh	-7462
▁begins	-7463
▁eraser	-7464
▁insole	-7465
▁loving	-7466
▁mishri	-7467
▁pretty	-7468
▁reheat	-7469
▁upside	-7470
▁anasuya	-7471
▁antenna	-7472
▁cobbler	-7473
▁cobwebs	-7474
▁college	-7475
▁complex	-7476
▁confirm	-7477
▁convers	-7478
▁copying	-7479
▁council	-7480
▁country	-7481
▁crackle	-7482
▁craving	-7483
▁creates	-7484
▁cricket	-7485
▁crumble	-7486
▁crystal	-7487
▁cuckoos	-7488
▁cunning	-7489
▁curdled	-7490
▁curtain	-7491
▁dashami	-7492
▁defense	-7493
▁delayed	-7494
▁depicts	-7495
▁destiny	-7496
▁devotee	-7497
▁digging	-7498
▁dirtied	-7499
got	-7500
amom	-7501
anji	-7502
eeri	-7503
ethi	-7504
ivek	-7505
orie	-7506
seed	-7507
▁ped	-7508
▁pus	-7509
▁sap	-7510
▁sou	-7511
awing	-7512
grand	-7513
kanji	-7514
oring	-7515
rotis	-7516
stack	-7517
urous	-7518
▁anil	-7519
▁bask	-7520
▁coin	-7521
▁peda	-7522
▁sewn	-7523
▁surv	-7524
chakki	-7525
forgot	-7526
ystack	-7527
▁chaff	-7528
▁chips	-7529
▁crush	-7530
▁dryer	-7531
▁laden	-7532
▁ravan	-7533
▁rises	-7534
▁sadhu	-7535
▁skill	-7536
▁south	-7537
▁usage	-7538
▁vivek	-7539
▁cawing	-7540
▁cracks	-7541
▁flakes	-7542
▁folder	-7543
▁freely	-7544
▁insist	-7545
▁kalika	-7546
▁lichen	-7547
▁rabbit	-7548
▁sheila	-7549
▁singor	-7550
shikanji	-7551
▁barmaji	-7552
▁disease	-7553
▁dislike	-7554
▁display	-7555
▁dispute	-7556
▁donates	-7557
▁dressed	-7558
▁dropped	-7559
▁drummer	-7560
▁dryness	-7561
▁dusting	-7562
▁eagerly	-7563
▁efforts	-7564
▁enacted	-7565
▁endless	-7566
▁ensures	-7567
▁exactly	-7568
▁existed	-7569
▁experts	-7570
▁expired	-7571
▁extreme	-7572
▁fainted	-7573
▁fanfare	-7574
▁fathers	-7575
▁fatigue	-7576
▁feature	-7577
▁ferment	-7578
▁fertile	-7579
▁fetched	-7580
▁fifteen	-7581
▁filling	-7582
▁filters	-7583
▁follows	-7584
▁forgave	-7585
▁fumbled	-7586
▁furnace	-7587
▁gaining	-7588
▁general	-7589
▁goswami	-7590
▁granted	-7591
▁griddle	-7592
▁hailing	-7593
▁haircut	-7594
▁halfway	-7595
▁handles	-7596
▁hariyas	-7597
▁headman	-7598
▁heaters	-7599
ede	-7600
has	-7601
put	-7602
▁pt	-7603
anas	-7604
anks	-7605
haat	-7606
mall	-7607
ndor	-7608
▁mat	-7609
▁van	-7610
andah	-7611
illar	-7612
▁base	-7613
▁chee	-7614
▁core	-7615
▁doll	-7616
▁eats	-7617
▁gaps	-7618
▁ghas	-7619
▁infl	-7620
▁kila	-7621
▁mold	-7622
▁moti	-7623
▁rush	-7624
oughly	-7625
▁anger	-7626
▁calci	-7627
▁cheek	-7628
▁depth	-7629
▁dhaan	-7630
▁dhoti	-7631
▁folks	-7632
▁human	-7633
▁roles	-7634
▁swamp	-7635
▁bigada	-7636
▁diaper	-7637
▁invite	-7638
▁lakhya	-7639
▁listed	-7640
▁memory	-7641
▁points	-7642
▁potash	-7643
▁pranks	-7644
▁recede	-7645
▁rotted	-7646
▁sooner	-7647
▁vendor	-7648
▁wheels	-7649
▁bananas	-7650
▁banasur	-7651
▁bhulekh	-7652
▁brittle	-7653
▁calcium	-7654
▁carving	-7655
▁chaniya	-7656
▁digital	-7657
▁durable	-7658
▁elderly	-7659
▁fasting	-7660
▁hardest	-7661
▁healing	-7662
▁heating	-7663
▁heavens	-7664
▁heavier	-7665
▁helpful	-7666
▁highway	-7667
▁hilltop	-7668
▁himalin	-7669
▁hooting	-7670
▁humming	-7671
▁hunting	-7672
▁hybrids	-7673
▁imagine	-7674
▁improve	-7675
▁incense	-7676
▁indoors	-7677
▁inquire	-7678
▁invited	-7679
▁invites	-7680
▁jainoli	-7681
▁jakhiya	-7682
▁january	-7683
▁jasmine	-7684
▁jealous	-7685
▁kabbadi	-7686
▁katyuri	-7687
▁keyhole	-7688
▁kilmodi	-7689
▁kilmudi	-7690
▁kirmoda	-7691
▁largest	-7692
▁laughed	-7693
▁laundry	-7694
▁leaning	-7695
▁leeches	-7696
▁leprosy	-7697
▁leveler	-7698
▁lifting	-7699
bl	-7700
qr	-7701
zy	-7702
aca	-7703
bin	-7704
ham	-7705
▁qr	-7706
▁non	-7707
black	-7708
child	-7709
lling	-7710
▁aham	-7711
▁datt	-7712
▁doub	-7713
▁hazy	-7714
▁janm	-7715
▁lice	-7716
▁mood	-7717
▁reap	-7718
▁sang	-7719
▁seth	-7720
▁slap	-7721
▁stew	-7722
▁syav	-7723
▁whey	-7724
barley	-7725
binaca	-7726
pithya	-7727
▁elbow	-7728
▁enemy	-7729
▁plays	-7730
▁sawan	-7731
▁swept	-7732
▁weigh	-7733
imately	-7734
▁agrees	-7735
▁bounty	-7736
▁demand	-7737
▁deodar	-7738
▁flight	-7739
▁issued	-7740
▁jammed	-7741
▁makeup	-7742
▁navami	-7743
▁purify	-7744
▁repels	-7745
▁rights	-7746
▁sample	-7747
▁splash	-7748
iversary	-7749
▁classes	-7750
▁crucial	-7751
▁discuss	-7752
▁doubled	-7753
▁earning	-7754
▁erosion	-7755
▁garment	-7756
▁granary	-7757
▁kausani	-7758
▁legumes	-7759
▁lightly	-7760
▁longest	-7761
▁longing	-7762
▁madness	-7763
▁mahadev	-7764
▁majhera	-7765
▁majkhli	-7766
▁mantras	-7767
▁martial	-7768
▁matters	-7769
▁matures	-7770
▁maximum	-7771
▁meadows	-7772
▁medical	-7773
▁mehendi	-7774
▁milkman	-7775
▁millets	-7776
▁million	-7777
▁mindset	-7778
▁mocking	-7779
▁monitor	-7780
▁mopping	-7781
▁mothers	-7782
▁muffler	-7783
▁muhurta	-7784
▁mulethi	-7785
▁narayan	-7786
▁navanaj	-7787
▁nettles	-7788
▁orchard	-7789
▁painted	-7790
▁painter	-7791
▁pakodis	-7792
▁panjiri	-7793
▁parking	-7794
▁parrots	-7795
▁partial	-7796
▁passing	-7797
▁pasting	-7798
▁pasture	-7799
▁.	-7800
have	-7801
uces	-7802
uled	-7803
▁gap	-7804
▁que	-7805
kheer	-7806
▁coat	-7807
▁crab	-7808
▁dart	-7809
▁flag	-7810
▁fond	-7811
▁ghen	-7812
▁spam	-7813
▁yawn	-7814
bought	-7815
▁allow	-7816
▁exile	-7817
▁fairs	-7818
▁flock	-7819
▁legal	-7820
▁musty	-7821
▁stake	-7822
▁timer	-7823
▁debuli	-7824
▁exting	-7825
▁hotels	-7826
▁hotter	-7827
▁magpie	-7828
▁mangal	-7829
▁saturn	-7830
▁shreds	-7831
▁thorns	-7832
▁values	-7833
▁voting	-7834
▁wobbly	-7835
▁wounds	-7836
essional	-7837
rificing	-7838
triphala	-7839
▁bundles	-7840
▁caterer	-7841
▁coaches	-7842
▁dresses	-7843
▁festive	-7844
▁grammar	-7845
▁lighten	-7846
▁patient	-7847
▁pattern	-7848
▁pebbles	-7849
▁peeling	-7850
▁pendant	-7851
▁peppers	-7852
▁percent	-7853
▁phalgun	-7854
▁physics	-7855
▁pickaxe	-7856
▁picking	-7857
▁pierces	-7858
▁pincers	-7859
▁pitcher	-7860
▁pithiya	-7861
▁pitthul	-7862
▁platter	-7863
▁pleased	-7864
▁plowman	-7865
▁popcorn	-7866
▁posters	-7867
▁poverty	-7868
▁praised	-7869
▁prakash	-7870
▁primary	-7871
▁proceed	-7872
▁profile	-7873
▁project	-7874
▁pudding	-7875
▁purific	-7876
▁purnima	-7877
▁purpose	-7878
▁quoting	-7879
▁rallies	-7880
▁ramlila	-7881
▁reaches	-7882
▁reality	-7883
▁realize	-7884
▁receipt	-7885
▁records	-7886
▁reduces	-7887
▁refrain	-7888
▁refresh	-7889
▁refused	-7890
▁refuses	-7891
▁related	-7892
▁relaxed	-7893
▁release	-7894
▁reminds	-7895
▁resides	-7896
▁residue	-7897
▁restore	-7898
▁retired	-7899
▁returns	-7900
▁riskier	-7901
▁roaring	-7902
▁robbery	-7903
▁roofing	-7904
▁rooftop	-7905
▁rooster	-7906
▁routine	-7907
▁rubbing	-7908
▁ruining	-7909
▁sadness	-7910
▁sapling	-7911
▁satnaja	-7912
▁schools	-7913
▁sealant	-7914
▁sealing	-7915
▁seconds	-7916
▁seeding	-7917
▁seeking	-7918
▁seventy	-7919
▁several	-7920
▁shaking	-7921
▁shankar	-7922
▁sharing	-7923
▁shehnai	-7924
▁shields	-7925
▁shining	-7926
▁shorter	-7927
▁shouted	-7928
▁signing	-7929
▁sindoor	-7930
▁singers	-7931
▁singhal	-7932
▁singori	-7933
▁smarter	-7934
▁sneezed	-7935
▁sneezes	-7936
▁snowing	-7937
▁society	-7938
▁soldier	-7939
▁someday	-7940
▁sorting	-7941
▁soulful	-7942
▁soundly	-7943
▁spacing	-7944
▁spilled	-7945
▁spreads	-7946
▁starchy	-7947
▁starter	-7948
▁staying	-7949
▁stemmed	-7950
▁sticker	-7951
▁stopper	-7952
▁streams	-7953
▁stubble	-7954
▁student	-7955
▁stuffed	-7956
▁stumble	-7957
▁stylish	-7958
▁subside	-7959
▁summers	-7960
▁sundays	-7961
▁suvidha	-7962
▁swallow	-7963
▁symbols	-7964
▁syringe	-7965
▁tankers	-7966
▁tapping	-7967
▁tenfold	-7968
▁termite	-7969
▁texture	-7970
▁tickets	-7971
▁tighten	-7972
▁timeout	-7973
▁topsoil	-7974
▁tourist	-7975
▁tremble	-7976
▁tritiya	-7977
▁twisted	-7978
▁unarmed	-7979
▁unknown	-7980
▁urinate	-7981
▁venture	-7982
▁vibrant	-7983
▁vitamin	-7984
▁warming	-7985
▁watered	-7986
▁wealthy	-7987
▁weeders	-7988
▁winding	-7989
▁wishing	-7990
▁workers	-7991
▁worsens	-7992
.........	-7993
affolding	-7994
akhandevi	-7995
hopscotch	-7996
micompost	-7997
naamkaran	-7998
otherwise	-7999
provoking	-8000
scrossing	-8001
▁aashaadh	-8002
▁achieved	-8003
▁addition	-8004
▁adhesive	-8005
▁adhikari	-8006
▁ailments	-8007
▁allergic	-8008
▁amaranth	-8009
▁amavasya	-8010
▁annoying	-8011
▁appeared	-8012
▁arrogant	-8013
▁artisans	-8014
▁assuring	-8015
▁backache	-8016
▁backyard	-8017
▁bahuguna	-8018
▁barefoot	-8019
▁barnyard	-8020
▁bathroom	-8021
▁bavistin	-8022
▁bedsheet	-8023
▁behavior	-8024
▁betrayal	-8025
▁betrayed	-8026
▁bhauniya	-8027
▁bhitauli	-8028
▁bhitruli	-8029
▁blossoms	-8030
▁bothered	-8031
▁boundary	-8032
▁bracelet	-8033
▁brighter	-8034
▁broccoli	-8035
▁brownish	-8036
▁buttocks	-8037
▁calamity	-8038
▁campaign	-8039
▁campfire	-8040
▁canister	-8041
▁capacity	-8042
▁capsicum	-8043
▁cardamom	-8044
▁cassette	-8045
▁casually	-8046
▁cataract	-8047
▁catching	-8048
▁cautious	-8049
▁champion	-8050
▁chanting	-8051
▁chickpea	-8052
▁chillies	-8053
▁chowmein	-8054
▁citizens	-8055
▁clicking	-8056
▁clothing	-8057
▁comforts	-8058
▁composed	-8059
▁conducts	-8060
▁connects	-8061
▁contrary	-8062
▁convince	-8063
▁coolness	-8064
▁cornered	-8065
▁coughing	-8066
▁counting	-8067
▁coverage	-8068
▁cowbells	-8069
▁cracking	-8070
▁cramping	-8071
▁creaking	-8072
▁creative	-8073
▁croaking	-8074
▁crumbles	-8075
▁currency	-8076
▁dakshina	-8077
▁damaging	-8078
▁deadline	-8079
▁december	-8080
▁declined	-8081
▁delaying	-8082
▁depicted	-8083
▁devotion	-8084
▁dhuliarg	-8085
▁dipawali	-8086
▁disaster	-8087
▁disputes	-8088
▁district	-8089
▁diverted	-8090
▁dividing	-8091
▁division	-8092
▁domestic	-8093
▁doorbell	-8094
▁downhill	-8095
▁drainage	-8096
▁drenched	-8097
▁dripping	-8098
▁elevated	-8099
▁engaging	-8100
▁engineer	-8101
▁enjoying	-8102
▁entering	-8103
▁epidemic	-8104
▁everyday	-8105
▁exercise	-8106
▁expected	-8107
▁expenses	-8108
▁facebook	-8109
▁factions	-8110
▁features	-8111
▁fetching	-8112
▁finishes	-8113
▁flashing	-8114
▁football	-8115
▁footwear	-8116
▁forgiven	-8117
▁fortress	-8118
▁freezing	-8119
▁friendly	-8120
▁gacchami	-8121
▁gangnath	-8122
▁garhwali	-8123
▁gazetted	-8124
▁geetmala	-8125
▁generous	-8126
▁ghughuti	-8127
▁grinders	-8128
▁guarding	-8129
▁handling	-8130
▁handloom	-8131
▁happiest	-8132
▁haystack	-8133
▁heritage	-8134
▁hesitate	-8135
▁hiljatra	-8136
▁himalini	-8137
▁humidity	-8138
▁hundreds	-8139
▁identify	-8140
▁improved	-8141
▁indicate	-8142
▁infected	-8143
▁inhaling	-8144
▁inviting	-8145
▁jauljibi	-8146
▁jyeshtha	-8147
▁kanyadan	-8148
▁keyboard	-8149
▁kindling	-8150
▁kneading	-8151
▁knocking	-8152
▁landlady	-8153
▁laughter	-8154
▁launched	-8155
▁lehengas	-8156
▁lengthen	-8157
▁lifespan	-8158
▁linesman	-8159
▁listened	-8160
▁listener	-8161
▁literate	-8162
▁location	-8163
▁lunchbox	-8164
▁machines	-8165
▁masterji	-8166
▁measured	-8167
▁meetings	-8168
▁migraine	-8169
▁movement	-8170
▁multiple	-8171
▁musician	-8172
▁mustache	-8173
▁narendra	-8174
▁nauratri	-8175
▁necklace	-8176
▁negative	-8177
▁nepalese	-8178
▁nostrils	-8179
▁notified	-8180
▁november	-8181
▁operated	-8182
▁opinions	-8183
▁opposite	-8184
▁organize	-8185
▁ornament	-8186
▁overhead	-8187
▁overwork	-8188
▁pandavas	-8189
▁panjeeri	-8190
▁paranthe	-8191
▁parathas	-8192
▁pastoral	-8193
▁performs	-8194
▁personal	-8195
▁physical	-8196
▁pictures	-8197
▁pipeline	-8198
▁platform	-8199
▁politely	-8200
▁ponytail	-8201
▁positive	-8202
▁possibly	-8203
▁postcard	-8204
▁poultice	-8205
▁printing	-8206
▁pronunci	-8207
▁protects	-8208
▁punctual	-8209
▁purifies	-8210
▁ramayana	-8211
▁rattling	-8212
▁raushaal	-8213
▁reaching	-8214
▁rebadhar	-8215
▁receding	-8216
▁register	-8217
▁rejected	-8218
▁reliable	-8219
▁repeated	-8220
▁republic	-8221
▁requests	-8222
▁reserved	-8223
▁resolved	-8224
▁respects	-8225
▁retiring	-8226
▁revolves	-8227
▁roadways	-8228
▁schedule	-8229
▁seasonal	-8230
▁security	-8231
▁seedling	-8232
▁semolina	-8233
▁sensible	-8234
▁servants	-8235
▁services	-8236
▁shameful	-8237
▁shavings	-8238
▁shedding	-8239
▁shopping	-8240
▁shoulder	-8241
▁shouting	-8242
▁silently	-8243
▁slipping	-8244
▁sneezing	-8245
▁softness	-8246
▁soldiers	-8247
▁someones	-8248
▁soothing	-8249
▁soreness	-8250
▁soyabean	-8251
▁speakers	-8252
▁specific	-8253
▁speeding	-8254
▁sprinkle	-8255
▁sprouted	-8256
▁squirrel	-8257
▁standard	-8258
▁stealing	-8259
▁sthapana	-8260
▁stinging	-8261
▁strainer	-8262
▁strategy	-8263
▁stressed	-8264
▁stricter	-8265
▁strictly	-8266
▁stripped	-8267
▁subjects	-8268
▁suitable	-8269
▁sumitran	-8270
▁sunshine	-8271
▁supposed	-8272
▁survival	-8273
▁sweaters	-8274
▁sweating	-8275
▁sweetest	-8276
▁tamarind	-8277
▁tanakpur	-8278
▁telegram	-8279
▁tempting	-8280
▁termites	-8281
▁textbook	-8282
▁thatched	-8283
▁therfore	-8284
▁thirteen	-8285
▁thoughts	-8286
▁throwing	-8287
▁tickling	-8288
▁tractors	-8289
▁transfer	-8290
▁traveler	-8291
▁treating	-8292
▁trekking	-8293
▁triphala	-8294
▁uncooked	-8295
▁universe	-8296
▁unparall	-8297
▁upcoming	-8298
▁updating	-8299
▁vaseline	-8300
▁verandah	-8301
▁vishuvat	-8302
▁vitamins	-8303
▁wandered	-8304
▁warnings	-8305
▁welcomes	-8306
▁whooping	-8307
▁wrapping	-8308
▁wristlet	-8309
ayadashami	-8310
connecting	-8311
fiddlehead	-8312
▁abandoned	-8313
▁abdominal	-8314
▁abundance	-8315
▁accepting	-8316
▁adjusting	-8317
▁advantage	-8318
▁adventure	-8319
▁anganwadi	-8320
▁answering	-8321
▁approving	-8322
▁arguments	-8323
▁arthritis	-8324
▁asafetida	-8325
▁attending	-8326
▁authentic	-8327
▁badrinath	-8328
▁beejamrit	-8329
▁beverages	-8330
▁bloodshed	-8331
▁bluetooth	-8332
▁bookshelf	-8333
▁breathing	-8334
▁broadcast	-8335
▁buckwheat	-8336
▁buffaloes	-8337
▁butterfly	-8338
▁cardboard	-8339
▁challaned	-8340
▁champawat	-8341
▁character	-8342
▁churdkani	-8343
▁classical	-8344
▁collapsed	-8345
▁colostrum	-8346
▁committed	-8347
▁companies	-8348
▁concerned	-8349
▁conducted	-8350
▁confusing	-8351
▁continues	-8352
▁crackling	-8353
▁customers	-8354
▁declutter	-8355
▁decorated	-8356
▁decorator	-8357
▁dedicated	-8358
▁departure	-8359
▁descended	-8360
▁deserving	-8361
▁developed	-8362
▁disturbed	-8363
▁dizziness	-8364
▁drizzling	-8365
▁dwarachar	-8366
▁earthworm	-8367
▁entangled	-8368
▁evergreen	-8369
▁everybody	-8370
▁excessive	-8371
▁exercises	-8372
▁exhausted	-8373
▁expecting	-8374
▁extremely	-8375
▁eyelashes	-8376
▁fantastic	-8377
▁favorable	-8378
▁fenugreek	-8379
▁fertility	-8380
▁fireflies	-8381
▁flattened	-8382
▁flowering	-8383
▁flustered	-8384
▁following	-8385
▁forgiving	-8386
▁furniture	-8387
▁gathering	-8388
▁gaurikund	-8389
▁generally	-8390
▁generator	-8391
▁gentleman	-8392
▁ghughutes	-8393
▁gradually	-8394
▁groundnut	-8395
▁guardians	-8396
▁hardships	-8397
▁healthier	-8398
▁heartbeat	-8399
▁himalayas	-8400
▁housework	-8401
▁hunchback	-8402
▁illegally	-8403
▁illegible	-8404
▁imitating	-8405
▁improving	-8406
▁incorrect	-8407
▁informers	-8408
▁informing	-8409
▁innocence	-8410
▁insolence	-8411
▁inspector	-8412
▁intricate	-8413
▁irregular	-8414
▁irrigated	-8415
▁justified	-8416
▁kalekauwa	-8417
▁kedarnath	-8418
▁kilograms	-8419
▁laborious	-8420
▁legendary	-8421
▁librarian	-8422
▁littering	-8423
▁maheshwar	-8424
▁maintains	-8425
▁massaging	-8426
▁meanwhile	-8427
▁meditated	-8428
▁melodious	-8429
▁messaging	-8430
▁middlemen	-8431
▁migration	-8432
▁moonlight	-8433
▁motorable	-8434
▁mussoorie	-8435
▁naturally	-8436
▁nosebleed	-8437
▁nostalgic	-8438
▁notebooks	-8439
▁observant	-8440
▁obstacles	-8441
▁overgrown	-8442
▁paintings	-8443
▁palanquin	-8444
▁passenger	-8445
▁plowshare	-8446
▁poisonous	-8447
▁policeman	-8448
▁polishing	-8449
▁pollinate	-8450
▁pollution	-8451
▁potential	-8452
▁practiced	-8453
▁prescribe	-8454
▁priceless	-8455
▁promoting	-8456
▁promotion	-8457
▁punctured	-8458
▁purchased	-8459
▁purnagiri	-8460
▁reception	-8461
▁refreshed	-8462
▁regulator	-8463
▁religious	-8464
▁reopening	-8465
▁repainted	-8466
▁represent	-8467
▁residence	-8468
▁residents	-8469
▁rishikesh	-8470
▁samvatsar	-8471
▁saturdays	-8472
▁scattered	-8473
▁scheduled	-8474
▁scoldings	-8475
▁screaming	-8476
▁sensitive	-8477
▁sharadiya	-8478
▁shoulders	-8479
▁sightings	-8480
▁smugglers	-8481
▁spiciness	-8482
▁splashing	-8483
▁squeaking	-8484
▁stability	-8485
▁staircase	-8486
▁strangely	-8487
▁strangest	-8488
▁structure	-8489
▁submerged	-8490
▁subscribe	-8491
▁supported	-8492
▁surveying	-8493
▁suspended	-8494
▁swallowed	-8495
▁switching	-8496
▁tarpaulin	-8497
▁tempering	-8498
▁threshing	-8499
▁tiredness	-8500
▁trembling	-8501
▁troubling	-8502
▁twitching	-8503
▁uncomfort	-8504
▁underwear	-8505
▁unmarried	-8506
▁unusually	-8507
▁vaishaakh	-8508
▁waistband	-8509
▁winnowing	-8510
▁wondering	-8511
▁woodworms	-8512
▁wrestlers	-8513
▁wrestling	-8514
▁yellowing	-8515
▁yellowish	-8516
▁abundantly	-8517
▁activities	-8518
▁apprentice	-8519
▁astringent	-8520
▁auctioning	-8521
▁background	-8522
▁beekeeping	-8523
▁bhadrapada	-8524
▁bitterness	-8525
▁brightness	-8526
▁calculator	-8527
▁ceremonial	-8528
▁collapsing	-8529
▁collection	-8530
▁collective	-8531
▁commentary	-8532
▁compliment	-8533
▁compulsory	-8534
▁confluence	-8535
▁containing	-8536
▁contesting	-8537
▁cornfields	-8538
▁corruption	-8539
▁cottonseed	-8540
▁crossroads	-8541
▁decomposed	-8542
▁decoration	-8543
▁decorative	-8544
▁deforested	-8545
▁determined	-8546
▁directions	-8547
▁discomfort	-8548
▁disposable	-8549
▁distracted	-8550
▁electrical	-8551
▁encroached	-8552
▁enthusiasm	-8553
▁etiquettes	-8554
▁eucalyptus	-8555
▁evaporates	-8556
▁excitement	-8557
▁experiment	-8558
▁expressive	-8559
▁facilities	-8560
▁flatulence	-8561
▁fluttering	-8562
▁forwarding	-8563
▁grandchild	-8564
▁impassable	-8565
▁impression	-8566
▁incredible	-8567
▁individual	-8568
▁inevitable	-8569
▁initiative	-8570
▁intestinal	-8571
▁jakhandevi	-8572
▁landslides	-8573
▁leopardess	-8574
▁matchstick	-8575
▁messengers	-8576
▁optimistic	-8577
▁overcooked	-8578
▁overturned	-8579
▁partridges	-8580
▁peacefully	-8581
▁performing	-8582
▁pesticides	-8583
▁playground	-8584
▁powerhouse	-8585
▁prescribed	-8586
▁preserving	-8587
▁preventing	-8588
▁priesthood	-8589
▁progresses	-8590
▁protecting	-8591
▁regretting	-8592
▁relaxation	-8593
▁reputation	-8594
▁resolution	-8595
▁restaurant	-8596
▁retirement	-8597
▁scarecrows	-8598
▁scientists	-8599
▁screenshot	-8600
▁separation	-8601
▁sharpening	-8602
▁shortwhile	-8603
▁specialist	-8604
▁speechless	-8605
▁sponsoring	-8606
▁spreadable	-8607
▁stepfather	-8608
▁stretching	-8609
▁strictness	-8610
▁subsidized	-8611
▁suffocated	-8612
▁supporters	-8613
▁supporting	-8614
▁supportive	-8615
▁suspension	-8616
▁techniques	-8617
▁terrifying	-8618
▁theatrical	-8619
▁thoroughly	-8620
▁thoughtful	-8621
▁thundering	-8622
▁travelling	-8623
▁uttarayani	-8624
▁vaccinated	-8625
▁vigorously	-8626
▁wednesdays	-8627
▁witchcraft	-8628
▁withdrawal	-8629
▁woodpecker	-8630
grandfathers	-8631
▁accordingly	-8632
▁adventurous	-8633
▁anniversary	-8634
▁appointment	-8635
▁appropriate	-8636
▁arrangement	-8637
▁captivating	-8638
▁caterpillar	-8639
▁challenging	-8640
▁charanamrit	-8641
▁chaukhutiya	-8642
▁cholesterol	-8643
▁clothesline	-8644
▁cloudbursts	-8645
▁cockroaches	-8646
▁communicate	-8647
▁compartment	-8648
▁considerate	-8649
▁contributed	-8650
▁decorations	-8651
▁destination	-8652
▁destruction	-8653
▁dhuliarghya	-8654
▁differences	-8655
▁disappeared	-8656
▁disciplined	-8657
▁distributed	-8658
▁disturbance	-8659
▁documentary	-8660
▁documenting	-8661
▁embarrassed	-8662
▁encouraging	-8663
▁environment	-8664
▁established	-8665
▁experienced	-8666
▁experiences	-8667
▁fashionable	-8668
▁forgiveness	-8669
▁hardworking	-8670
▁indigestion	-8671
▁inflammable	-8672
▁insecticide	-8673
▁instruments	-8674
▁invitations	-8675
▁janmashtami	-8676
▁ladyfingers	-8677
▁matchsticks	-8678
▁moisturizer	-8679
▁nandashtami	-8680
▁naphthalene	-8681
▁neighboring	-8682
▁nitrogenous	-8683
▁nonsensical	-8684
▁nourishment	-8685
▁opportunity	-8686
▁outstanding	-8687
▁overhanging	-8688
▁panchachuli	-8689
▁permanently	-8690
▁pollination	-8691
▁practically	-8692
▁processions	-8693
▁replacement	-8694
▁resourceful	-8695
▁sacrificing	-8696
▁scaffolding	-8697
▁shopkeepers	-8698
▁storyteller	-8699
▁subscribing	-8700
▁subtraction	-8701
▁symbolizing	-8702
▁temperature	-8703
▁transaction	-8704
▁transported	-8705
▁troublesome	-8706
▁undrinkable	-8707
▁unnecessary	-8708
▁ventilation	-8709
▁waterlogged	-8710
▁watermelons	-8711
▁whitewashed	-8712
▁worshipping	-8713
▁agricultural	-8714
▁bhuvaneshwar	-8715
▁breathtaking	-8716
▁calculations	-8717
▁competitions	-8718
▁compositions	-8719
▁confirmation	-8720
▁conversation	-8721
▁disappearing	-8722
▁disheartened	-8723
▁dissatisfied	-8724
▁embarrassing	-8725
▁encyclopedia	-8726
▁grandparents	-8727
▁handkerchief	-8728
▁headquarters	-8729
▁helplessness	-8730
▁installments	-8731
▁interruption	-8732
▁measurements	-8733
▁nevertheless	-8734
▁prescription	-8735
▁professional	-8736
▁purification	-8737
▁refreshments	-8738
▁satisfaction	-8739
▁schoolmaster	-8740
▁storytelling	-8741
▁strawberries	-8742
▁surprisingly	-8743
▁unemployment	-8744
▁unparalleled	-8745
▁vaccinations	-8746
▁vermicompost	-8747
▁veterinarian	-8748
▁approximately	-8749
▁crisscrossing	-8750
▁disconnecting	-8751
▁embarrassment	-8752
▁encouragement	-8753
▁entertainment	-8754
▁extinguishing	-8755
▁granddaughter	-8756
▁irresponsible	-8757
▁knowledgeable	-8758
▁pronunciation	-8759
▁rakshabandhan	-8760
▁refrigerators	-8761
▁relationships	-8762
▁responsibilty	-8763
▁rhododendrons	-8764
▁sumitranandan	-8765
▁uncomfortable	-8766
▁vijayadashami	-8767
▁auspiciousness	-8768
▁multiplication	-8769
▁shankaracharya	-8770
▁systematically	-8771
circumambulation	-8772
▁transplantation	-8773
aaf	-8774
ahm	-8775
aja	-8776
bbl	-8777
cyc	-8778
ggy	-8779
hli	-8780
huv	-8781
jma	-8782
joy	-8783
lts	-8784
oga	-8785
plo	-8786
udi	-8787
uki	-8788
ups	-8789
yho	-8790
addi	-8791
aleb	-8792
alik	-8793
amru	-8794
atta	-8795
aura	-8796
bits	-8797
buli	-8798
chas	-8799
aza	-8800
azi	-8801
ogr	-8802
suk	-8803
awal	-8804
awer	-8805
azar	-8806
conn	-8807
crim	-8808
cumb	-8809
cycl	-8810
dled	-8811
efit	-8812
egal	-8813
engt	-8814
ergy	-8815
even	-8816
ewel	-8817
gshe	-8818
gulg	-8819
heme	-8820
hmin	-8821
host	-8822
hule	-8823
ibly	-8824
ichh	-8825
icts	-8826
ienc	-8827
ierc	-8828
iery	-8829
iews	-8830
ifts	-8831
ilgr	-8832
impl	-8833
iwal	-8834
iwar	-8835
izzy	-8836
jeev	-8837
jiri	-8838
kier	-8839
kris	-8840
krit	-8841
kund	-8842
lash	-8843
lcer	-8844
lcom	-8845
legr	-8846
lict	-8847
lord	-8848
lost	-8849
lves	-8850
mark	-8851
mits	-8852
mpaw	-8853
nize	-8854
noun	-8855
ocas	-8856
ogur	-8857
ompl	-8858
onsi	-8859
oons	-8860
orru	-8861
osts	-8862
oudb	-8863
ounc	-8864
oyed	-8865
paul	-8866
pels	-8867
pich	-8868
post	-8869
pris	-8870
pute	-8871
rels	-8872
rovo	-8873
rupt	-8874
scot	-8875
semb	-8876
sics	-8877
smit	-8878
sque	-8879
stru	-8880
taul	-8881
titu	-8882
ucky	-8883
ufri	-8884
uhur	-8885
uits	-8886
wale	-8887
whel	-8888
yoli	-8889
▁cub	-8890
▁daj	-8891
▁edg	-8892
▁edu	-8893
▁eti	-8894
▁ghy	-8895
▁kaf	-8896
▁nyo	-8897
▁pup	-8898
▁swi	-8899
afo	-8900
gug	-8901
hug	-8902
lug	-8903
obb	-8904
ods	-8905
rte	-8906
tew	-8907
ypt	-8908
alms	-8909
asya	-8910
born	-8911
corn	-8912
eved	-8913
ifte	-8914
inte	-8915
irds	-8916
lved	-8917
ouds	-8918
oved	-8919
rint	-8920
ript	-8921
riya	-8922
tere	-8923
uggl	-8924
umpl	-8925
▁lug	-8926
▁pug	-8927
▁tax	-8928
▁tik	-8929
▁umb	-8930
aagar	-8931
abbad	-8932
agesh	-8933
ahmin	-8934
aisak	-8935
algic	-8936
alika	-8937
alnut	-8938
althy	-8939
amask	-8940
ambul	-8941
amins	-8942
amkar	-8943
ammed	-8944
amvat	-8945
ances	-8946
andua	-8947
anize	-8948
anned	-8949
anspl	-8950
apnut	-8951
apsic	-8952
ariet	-8953
ariya	-8954
arker	-8955
arley	-8956
arned	-8957
arvat	-8958
arved	-8959
asier	-8960
atfor	-8961
atitu	-8962
atule	-8963
atwar	-8964
atyur	-8965
aulif	-8966
aused	-8967
auses	-8968
avrat	-8969
awali	-8970
awber	-8971
bands	-8972
bject	-8973
bling	-8974
books	-8975
ccups	-8976
cence	-8977
cense	-8978
cestr	-8979
crets	-8980
cross	-8981
ctual	-8982
cycle	-8983
dress	-8984
enery	-8985
engha	-8986
enior	-8987
erchi	-8988
ergic	-8989
erned	-8990
esman	-8991
estru	-8992
ficul	-8993
fited	-8994
forms	-8995
ggshe	-8996
gible	-8997
gions	-8998
gnore	-8999
bru	-9000
giz	-9001
hbr	-9002
niz	-9003
ymb	-9004
brat	-9005
brid	-9006
cret	-9007
dshi	-9008
ells	-9009
fact	-9010
iliz	-9011
izes	-9012
mail	-9013
oken	-9014
oliz	-9015
scle	-9016
serv	-9017
sery	-9018
tact	-9019
tail	-9020
▁chh	-9021
▁cru	-9022
▁diz	-9023
▁jiy	-9024
▁piz	-9025
▁siz	-9026
actly	-9027
ailor	-9028
brate	-9029
brity	-9030
cated	-9031
creas	-9032
eller	-9033
etail	-9034
ffect	-9035
ffold	-9036
haakh	-9037
hache	-9038
huvan	-9039
ichha	-9040
icted	-9041
ictly	-9042
ictor	-9043
idden	-9044
idney	-9045
ietly	-9046
iffin	-9047
iform	-9048
imple	-9049
inaca	-9050
inval	-9051
iplin	-9052
iques	-9053
ircum	-9054
irmed	-9055
isept	-9056
itaul	-9057
itche	-9058
itoes	-9059
itual	-9060
izers	-9061
izing	-9062
jects	-9063
justs	-9064
jwain	-9065
laced	-9066
lakhi	-9067
lated	-9068
laxed	-9069
lcome	-9070
ldier	-9071
leman	-9072
lides	-9073
lieve	-9074
llows	-9075
lower	-9076
mbarr	-9077
mbols	-9078
mense	-9079
micom	-9080
mitha	-9081
muhur	-9082
nects	-9083
noons	-9084
ogize	-9085
oided	-9086
ollen	-9087
ollow	-9088
oogle	-9089
opped	-9090
ormed	-9091
orned	-9092
orner	-9093
osene	-9094
ospit	-9095
othly	-9096
otton	-9097
ourds	-9098
owerh	-9099
del	-9100
gus	-9101
nec	-9102
tus	-9103
ude	-9104
usk	-9105
usu	-9106
amph	-9107
aniz	-9108
atus	-9109
bait	-9110
dend	-9111
fici	-9112
gani	-9113
hodo	-9114
ilen	-9115
lene	-9116
mond	-9117
moni	-9118
orne	-9119
pani	-9120
pici	-9121
sici	-9122
tile	-9123
tric	-9124
ubai	-9125
used	-9126
utne	-9127
wamp	-9128
▁chy	-9129
▁sna	-9130
abric	-9131
alent	-9132
atoes	-9133
bance	-9134
dated	-9135
forts	-9136
ilent	-9137
natch	-9138
nered	-9139
pales	-9140
panch	-9141
perts	-9142
pling	-9143
putes	-9144
quett	-9145
quint	-9146
rated	-9147
rawal	-9148
restl	-9149
roved	-9150
sband	-9151
shipp	-9152
slide	-9153
solut	-9154
spend	-9155
spens	-9156
sthma	-9157
sures	-9158
tarak	-9159
taray	-9160
tered	-9161
terru	-9162
thrit	-9163
thwor	-9164
tiliz	-9165
tired	-9166
tling	-9167
tress	-9168
uctor	-9169
uguna	-9170
uliar	-9171
uljib	-9172
ulses	-9173
umamb	-9174
unger	-9175
untie	-9176
utrit	-9177
veled	-9178
vides	-9179
ylish	-9180
▁abus	-9181
▁achi	-9182
▁actu	-9183
▁ankl	-9184
▁anno	-9185
▁annu	-9186
▁atte	-9187
▁bagp	-9188
▁bany	-9189
▁bara	-9190
▁barg	-9191
▁benc	-9192
▁bhab	-9193
▁bhag	-9194
▁bhak	-9195
▁bhum	-9196
▁bonf	-9197
▁braz	-9198
▁carv	-9199
bra	-9200
ftn	-9201
fto	-9202
ftw	-9203
ogs	-9204
raf	-9205
tra	-9206
xtb	-9207
aise	-9208
anga	-9209
angl	-9210
angu	-9211
azed	-9212
file	-9213
itra	-9214
keys	-9215
lock	-9216
orny	-9217
rang	-9218
tise	-9219
wner	-9220
▁adj	-9221
▁adz	-9222
▁foc	-9223
▁unc	-9224
▁uni	-9225
▁unl	-9226
▁unm	-9227
▁unp	-9228
▁unu	-9229
acock	-9230
alary	-9231
anary	-9232
angur	-9233
ausea	-9234
choes	-9235
erwor	-9236
haang	-9237
mical	-9238
mitat	-9239
ndern	-9240
ocked	-9241
omise	-9242
pened	-9243
under	-9244
xture	-9245
zards	-9246
▁ceil	-9247
▁cele	-9248
▁cell	-9249
▁cham	-9250
▁chas	-9251
▁chau	-9252
▁choo	-9253
▁chun	-9254
▁coup	-9255
▁crim	-9256
▁crus	-9257
▁cuck	-9258
▁deli	-9259
▁diar	-9260
▁diff	-9261
▁disa	-9262
▁disl	-9263
▁dwar	-9264
▁engl	-9265
▁enjo	-9266
▁ente	-9267
▁entr	-9268
▁excu	-9269
▁fier	-9270
▁foll	-9271
▁funn	-9272
▁garb	-9273
▁garg	-9274
▁garl	-9275
▁godd	-9276
▁hidd	-9277
▁hilj	-9278
▁hoot	-9279
▁hote	-9280
▁impe	-9281
▁inbo	-9282
▁indi	-9283
▁inev	-9284
▁inno	-9285
▁insp	-9286
▁invo	-9287
▁jaag	-9288
▁jagg	-9289
▁jaip	-9290
▁jeev	-9291
▁kaaf	-9292
▁kany	-9293
▁kaun	-9294
▁keyb	-9295
▁kilm	-9296
▁kris	-9297
▁kurt	-9298
▁maag	-9299
beg	-9300
eci	-9301
ixt	-9302
nbe	-9303
ogg	-9304
uci	-9305
afet	-9306
alci	-9307
bmer	-9308
ccep	-9309
ccid	-9310
ccol	-9311
ccor	-9312
daug	-9313
eeps	-9314
eepu	-9315
erci	-9316
fidd	-9317
idiz	-9318
ilkm	-9319
ixes	-9320
kanc	-9321
nish	-9322
pert	-9323
rocc	-9324
rops	-9325
sper	-9326
ulti	-9327
ults	-9328
▁fod	-9329
aloes	-9330
artbe	-9331
asala	-9332
bered	-9333
ccent	-9334
eeper	-9335
ilked	-9336
itish	-9337
ivert	-9338
ndary	-9339
niver	-9340
olish	-9341
ormer	-9342
ownhi	-9343
perly	-9344
sical	-9345
ultip	-9346
ultiv	-9347
ultur	-9348
unish	-9349
urmer	-9350
zling	-9351
▁afra	-9352
▁bamb	-9353
▁brok	-9354
▁dair	-9355
▁daug	-9356
▁elep	-9357
▁elev	-9358
▁hicc	-9359
▁maal	-9360
▁maiz	-9361
▁midd	-9362
▁mirr	-9363
▁mode	-9364
▁orde	-9365
▁oven	-9366
▁paha	-9367
▁pako	-9368
▁panu	-9369
▁parr	-9370
▁parv	-9371
▁pebb	-9372
▁peep	-9373
▁peri	-9374
▁perm	-9375
▁pich	-9376
▁picn	-9377
▁pith	-9378
▁pizz	-9379
▁poin	-9380
▁pony	-9381
▁porc	-9382
▁porr	-9383
▁poss	-9384
▁punj	-9385
▁purc	-9386
▁puro	-9387
▁radi	-9388
▁rais	-9389
▁rait	-9390
▁raks	-9391
▁ramw	-9392
▁rebu	-9393
▁reci	-9394
▁reco	-9395
▁redu	-9396
▁repu	-9397
▁resp	-9398
▁runn	-9399
aip	-9400
ipa	-9401
ipl	-9402
ips	-9403
tip	-9404
udy	-9405
xty	-9406
aath	-9407
addy	-9408
aily	-9409
aliz	-9410
athv	-9411
bbly	-9412
ceip	-9413
eath	-9414
ects	-9415
eons	-9416
full	-9417
ghed	-9418
heda	-9419
hedu	-9420
ifty	-9421
ilty	-9422
ipat	-9423
iple	-9424
irty	-9425
kets	-9426
kins	-9427
oudy	-9428
site	-9429
stip	-9430
turn	-9431
umpk	-9432
vite	-9433
▁rip	-9434
anges	-9435
asily	-9436
asket	-9437
athro	-9438
avell	-9439
avily	-9440
chami	-9441
dying	-9442
ector	-9443
etwor	-9444
gally	-9445
hedul	-9446
ially	-9447
iping	-9448
ipper	-9449
llect	-9450
orite	-9451
osite	-9452
oughs	-9453
rough	-9454
stair	-9455
tains	-9456
urnag	-9457
urnim	-9458
urnit	-9459
▁colo	-9460
▁cowb	-9461
▁fung	-9462
▁hund	-9463
▁mayb	-9464
▁misc	-9465
▁sacr	-9466
▁sadh	-9467
▁samp	-9468
▁satn	-9469
▁seri	-9470
▁shad	-9471
▁shav	-9472
▁shru	-9473
▁simp	-9474
▁slic	-9475
▁slop	-9476
▁snak	-9477
▁subj	-9478
▁succ	-9479
▁sudd	-9480
▁sunn	-9481
▁swep	-9482
▁tapp	-9483
▁tapu	-9484
▁taug	-9485
▁thak	-9486
▁touc	-9487
▁tuls	-9488
▁twel	-9489
▁unbe	-9490
▁unir	-9491
▁unwe	-9492
▁uplo	-9493
▁upra	-9494
▁urin	-9495
▁verm	-9496
▁vult	-9497
▁wedd	-9498
▁wedn	-9499
aj	-9500
etw	-9501
mou	-9502
non	-9503
osa	-9504
shm	-9505
shp	-9506
▁ov	-9507
assa	-9508
aven	-9509
dult	-9510
eals	-9511
gave	-9512
hard	-9513
harg	-9514
haru	-9515
ieve	-9516
ihar	-9517
maal	-9518
osen	-9519
rave	-9520
shin	-9521
shro	-9522
tach	-9523
tens	-9524
thus	-9525
unsh	-9526
zens	-9527
▁hos	-9528
▁laz	-9529
▁unr	-9530
achar	-9531
achin	-9532
adhar	-9533
aresh	-9534
asons	-9535
ckens	-9536
ensil	-9537
ensit	-9538
entar	-9539
etely	-9540
harac	-9541
harad	-9542
harat	-9543
ideos	-9544
imals	-9545
irits	-9546
osion	-9547
pound	-9548
shine	-9549
stens	-9550
terol	-9551
thers	-9552
urren	-9553
▁barn	-9554
▁copp	-9555
▁cove	-9556
▁nave	-9557
▁pitc	-9558
▁prec	-9559
▁rott	-9560
▁tens	-9561
▁vais	-9562
▁weev	-9563
▁welf	-9564
▁winn	-9565
▁wisd	-9566
▁wrot	-9567
abbage	-9568
achine	-9569
actice	-9570
adasha	-9571
adness	-9572
adways	-9573
agical	-9574
agrant	-9575
ailure	-9576
aisakh	-9577
aiting	-9578
akoras	-9579
alance	-9580
amphor	-9581
anchay	-9582
ancing	-9583
angles	-9584
anikhe	-9585
ankets	-9586
ansact	-9587
ansfor	-9588
anuary	-9589
apsing	-9590
arable	-9591
arthen	-9592
asions	-9593
asmine	-9594
asswor	-9595
asterj	-9596
atchst	-9597
atters	-9598
atural	-9599
arh	-9600
bac	-9601
bsc	-9602
emb	-9603
emi	-9604
emm	-9605
hod	-9606
ipp	-9607
lil	-9608
sth	-9609
sti	-9610
uff	-9611
uor	-9612
urd	-9613
utt	-9614
arma	-9615
chho	-9616
ckpe	-9617
esto	-9618
etwe	-9619
ffic	-9620
garc	-9621
gles	-9622
hanf	-9623
hesh	-9624
icky	-9625
inly	-9626
ixty	-9627
kles	-9628
lank	-9629
oped	-9630
orta	-9631
otwe	-9632
pose	-9633
sort	-9634
thou	-9635
warm	-9636
weet	-9637
▁bod	-9638
▁enr	-9639
▁fla	-9640
▁gon	-9641
▁gou	-9642
▁lig	-9643
▁rus	-9644
▁unt	-9645
alked	-9646
anket	-9647
armth	-9648
ayana	-9649
edies	-9650
ented	-9651
ethon	-9652
ettle	-9653
gards	-9654
ifies	-9655
istic	-9656
lding	-9657
omegr	-9658
onies	-9659
ooked	-9660
orest	-9661
ories	-9662
ortab	-9663
ortan	-9664
ottle	-9665
pport	-9666
quenc	-9667
wings	-9668
▁boat	-9669
▁dece	-9670
▁enac	-9671
▁harv	-9672
▁hoor	-9673
▁towe	-9674
▁unpl	-9675
▁wand	-9676
ankers	-9677
arming	-9678
aughed	-9679
aulifl	-9680
ausing	-9681
aveler	-9682
brated	-9683
bruary	-9684
cended	-9685
chieve	-9686
cially	-9687
cloped	-9688
crease	-9689
ctions	-9690
cyclop	-9691
dating	-9692
daught	-9693
ddenly	-9694
dering	-9695
dingly	-9696
drawal	-9697
ecting	-9698
ective	-9699
gg	-9700
hp	-9701
wb	-9702
aci	-9703
dor	-9704
him	-9705
rct	-9706
rek	-9707
roj	-9708
sil	-9709
ssi	-9710
thu	-9711
tst	-9712
ula	-9713
wit	-9714
woo	-9715
assb	-9716
assw	-9717
gree	-9718
hess	-9719
indy	-9720
istr	-9721
mist	-9722
mori	-9723
mory	-9724
ndig	-9725
omis	-9726
owly	-9727
part	-9728
rass	-9729
sses	-9730
tock	-9731
▁agg	-9732
▁exi	-9733
▁hir	-9734
▁ina	-9735
▁nig	-9736
▁qui	-9737
▁ras	-9738
▁tes	-9739
alist	-9740
alize	-9741
arade	-9742
assed	-9743
assic	-9744
assro	-9745
aying	-9746
bside	-9747
chool	-9748
ectac	-9749
ervic	-9750
icrop	-9751
ilmor	-9752
istan	-9753
istri	-9754
istry	-9755
ithai	-9756
mpass	-9757
mport	-9758
nings	-9759
olera	-9760
ssure	-9761
▁agre	-9762
▁appl	-9763
▁bree	-9764
▁bric	-9765
▁clea	-9766
▁expe	-9767
▁gaur	-9768
▁mort	-9769
▁quil	-9770
▁quot	-9771
▁ratt	-9772
▁stem	-9773
▁stru	-9774
▁unli	-9775
ailing	-9776
asanti	-9777
assage	-9778
assing	-9779
eaking	-9780
edding	-9781
edible	-9782
edical	-9783
edicin	-9784
eezing	-9785
egally	-9786
enance	-9787
encing	-9788
eneral	-9789
enerat	-9790
enging	-9791
ensary	-9792
ensive	-9793
entary	-9794
entils	-9795
erally	-9796
erator	-9797
erchie	-9798
erries	-9799
vy	-9800
ald	-9801
apn	-9802
apt	-9803
cem	-9804
dap	-9805
eek	-9806
kic	-9807
kro	-9808
lap	-9809
lec	-9810
pap	-9811
rap	-9812
riy	-9813
tri	-9814
vil	-9815
zin	-9816
aign	-9817
anta	-9818
aphi	-9819
apht	-9820
arri	-9821
atro	-9822
azet	-9823
eful	-9824
llap	-9825
main	-9826
nger	-9827
otic	-9828
rist	-9829
sign	-9830
urve	-9831
▁arm	-9832
▁cri	-9833
▁diw	-9834
▁lef	-9835
▁map	-9836
▁mov	-9837
▁rea	-9838
▁twe	-9839
berri	-9840
crows	-9841
encil	-9842
esign	-9843
ghing	-9844
hment	-9845
htful	-9846
ields	-9847
iends	-9848
ignal	-9849
iplic	-9850
ourne	-9851
ratch	-9852
rease	-9853
rient	-9854
roach	-9855
seful	-9856
stman	-9857
tment	-9858
wards	-9859
▁arro	-9860
▁vibr	-9861
ainful	-9862
areful	-9863
arment	-9864
ayment	-9865
bition	-9866
elling	-9867
erment	-9868
ersons	-9869
ervice	-9870
essary	-9871
estock	-9872
estors	-9873
ething	-9874
etwork	-9875
fectly	-9876
fested	-9877
fforts	-9878
fields	-9879
format	-9880
ftness	-9881
gative	-9882
geable	-9883
gument	-9884
haband	-9885
hangor	-9886
hankar	-9887
haring	-9888
harity	-9889
hedule	-9890
heless	-9891
herish	-9892
hichdi	-9893
hotiya	-9894
hradun	-9895
iately	-9896
ibilty	-9897
iceman	-9898
icense	-9899
iu	-9900
abl	-9901
abr	-9902
aby	-9903
akf	-9904
ava	-9905
avr	-9906
bab	-9907
fat	-9908
icn	-9909
lab	-9910
lue	-9911
mol	-9912
ody	-9913
ols	-9914
olt	-9915
pol	-9916
rem	-9917
sue	-9918
tab	-9919
tha	-9920
vol	-9921
yol	-9922
abor	-9923
aceb	-9924
acel	-9925
acit	-9926
anci	-9927
atue	-9928
igue	-9929
iref	-9930
irew	-9931
itol	-9932
nace	-9933
nake	-9934
oles	-9935
olin	-9936
olit	-9937
olum	-9938
ousn	-9939
race	-9940
rand	-9941
rink	-9942
ulin	-9943
urem	-9944
ures	-9945
weat	-9946
wove	-9947
▁fue	-9948
▁inj	-9949
▁los	-9950
▁meh	-9951
▁onl	-9952
▁rud	-9953
▁sca	-9954
▁sco	-9955
▁sti	-9956
▁tab	-9957
▁unk	-9958
abore	-9959
ainol	-9960
aterf	-9961
aterl	-9962
aturn	-9963
cture	-9964
edure	-9965
getab	-9966
ilure	-9967
inish	-9968
inked	-9969
nment	-9970
nture	-9971
ogged	-9972
ogurt	-9973
rayed	-9974
rency	-9975
▁caug	-9976
▁fern	-9977
▁gett	-9978
▁jaul	-9979
▁marg	-9980
▁phon	-9981
▁prav	-9982
▁quit	-9983
▁reas	-9984
▁weav	-9985
gement	-9986
ictory	-9987
icture	-9988
icycle	-9989
idates	-9990
iddlem	-9991
idents	-9992
iences	-9993
igated	-9994
igging	-9995
ighbor	-9996
ightly	-9997
igolds	-9998
igrain	-9999
kb	-10000
xc	-10001
alw	-10002
auw	-10003
dau	-10004
dow	-10005
kau	-10006
mpa	-10007
oat	-10008
thr	-10009
unc	-10010
aoni	-10011
ativ	-10012
berr	-10013
case	-10014
free	-10015
ftly	-10016
hamp	-10017
herr	-10018
inan	-10019
istb	-10020
list	-10021
mper	-10022
mpit	-10023
mple	-10024
mpor	-10025
mpre	-10026
ober	-10027
olid	-10028
owme	-10029
rici	-10030
roug	-10031
tles	-10032
tune	-10033
uous	-10034
vrat	-10035
▁dau	-10036
▁emp	-10037
▁rau	-10038
▁rob	-10039
▁rod	-10040
▁rol	-10041
▁ros	-10042
▁sci	-10043
▁soa	-10044
andha	-10045
apier	-10046
arber	-10047
cceed	-10048
erget	-10049
lease	-10050
olice	-10051
oroug	-10052
rence	-10053
sease	-10054
seber	-10055
tings	-10056
tting	-10057
urbed	-10058
uting	-10059
xting	-10060
▁busi	-10061
▁conv	-10062
▁hars	-10063
▁inau	-10064
▁mart	-10065
▁preg	-10066
▁tenf	-10067
▁toug	-10068
▁whit	-10069
ainter	-10070
atched	-10071
bering	-10072
epting	-10073
etting	-10074
ficult	-10075
ilable	-10076
ilgrim	-10077
inally	-10078
inated	-10079
indset	-10080
ingals	-10081
ingerp	-10082
inions	-10083
inkler	-10084
iously	-10085
ipened	-10086
ircles	-10087
isease	-10088
isfied	-10089
istric	-10090
itamin	-10091
itchen	-10092
itical	-10093
itions	-10094
itters	-10095
itting	-10096
ituals	-10097
ivided	-10098
jamrit	-10099
dol	-10100
fal	-10101
gum	-10102
nat	-10103
olo	-10104
rox	-10105
uic	-10106
yar	-10107
▁oi	-10108
arec	-10109
aref	-10110
arew	-10111
came	-10112
care	-10113
cken	-10114
fare	-10115
hite	-10116
iate	-10117
igat	-10118
lame	-10119
late	-10120
pare	-10121
pate	-10122
ppre	-10123
rack	-10124
rate	-10125
reme	-10126
tice	-10127
uest	-10128
umbl	-10129
yone	-10130
▁blo	-10131
▁cas	-10132
▁fel	-10133
▁gaz	-10134
▁liq	-10135
▁peb	-10136
▁pec	-10137
▁smi	-10138
▁smu	-10139
▁vom	-10140
adiya	-10141
anate	-10142
arate	-10143
arely	-10144
erate	-10145
imate	-10146
onsen	-10147
orrow	-10148
otate	-10149
oundn	-10150
owder	-10151
quare	-10152
reate	-10153
verag	-10154
▁blad	-10155
▁blan	-10156
▁blun	-10157
▁chil	-10158
▁conn	-10159
▁flas	-10160
▁lady	-10161
▁manu	-10162
▁pare	-10163
▁plac	-10164
▁shre	-10165
▁smil	-10166
▁stra	-10167
▁surr	-10168
appear	-10169
hatter	-10170
iation	-10171
kauthi	-10172
keeper	-10173
lation	-10174
laxing	-10175
ldings	-10176
leased	-10177
lebrat	-10178
lehead	-10179
lesome	-10180
lieved	-10181
llaned	-10182
llenge	-10183
llness	-10184
manent	-10185
matoes	-10186
mboliz	-10187
mentar	-10188
monies	-10189
mories	-10190
mpting	-10191
nderwe	-10192
ndless	-10193
ndrons	-10194
necess	-10195
nected	-10196
nesses	-10197
niques	-10198
olding	-10199
ec	-10200
ko	-10201
anv	-10202
cam	-10203
ccu	-10204
cul	-10205
eck	-10206
ger	-10207
lot	-10208
nou	-10209
oto	-10210
pso	-10211
reg	-10212
rmp	-10213
soa	-10214
squ	-10215
adqu	-10216
agir	-10217
ahar	-10218
anak	-10219
anik	-10220
anqu	-10221
bich	-10222
cite	-10223
erou	-10224
fely	-10225
gine	-10226
hest	-10227
hine	-10228
ickl	-10229
iffe	-10230
ilak	-10231
inem	-10232
ires	-10233
ivit	-10234
leve	-10235
mine	-10236
onso	-10237
pine	-10238
qual	-10239
quen	-10240
sole	-10241
sour	-10242
vine	-10243
▁aff	-10244
▁fem	-10245
▁fes	-10246
▁gut	-10247
▁mig	-10248
▁orc	-10249
▁rag	-10250
▁til	-10251
▁wag	-10252
acked	-10253
agine	-10254
andav	-10255
chine	-10256
cream	-10257
erase	-10258
icine	-10259
icker	-10260
ickle	-10261
ickly	-10262
inary	-10263
ineer	-10264
irish	-10265
ounce	-10266
ourty	-10267
perim	-10268
quick	-10269
quill	-10270
ssive	-10271
start	-10272
stick	-10273
unhus	-10274
vance	-10275
▁abso	-10276
▁appe	-10277
▁cine	-10278
▁coff	-10279
▁meas	-10280
▁offe	-10281
▁oran	-10282
▁pens	-10283
▁vacc	-10284
▁vase	-10285
▁volt	-10286
aceful	-10287
ighten	-10288
ometim	-10289
omfort	-10290
ominal	-10291
omises	-10292
ompost	-10293
onsens	-10294
ooming	-10295
opment	-10296
opying	-10297
oragar	-10298
orated	-10299
aag	-10300
aba	-10301
aga	-10302
agg	-10303
agp	-10304
agr	-10305
bai	-10306
cou	-10307
hav	-10308
kip	-10309
lag	-10310
lep	-10311
mag	-10312
mpe	-10313
nag	-10314
ntu	-10315
orc	-10316
pel	-10317
pul	-10318
rab	-10319
upe	-10320
vor	-10321
xpe	-10322
yle	-10323
▁na	-10324
agic	-10325
ainl	-10326
amag	-10327
anat	-10328
bell	-10329
bmit	-10330
espe	-10331
hape	-10332
hway	-10333
lent	-10334
llig	-10335
ntry	-10336
ntur	-10337
olks	-10338
oolm	-10339
ooln	-10340
orag	-10341
orit	-10342
ribe	-10343
sely	-10344
ssom	-10345
tant	-10346
urnt	-10347
utri	-10348
wist	-10349
yway	-10350
▁abd	-10351
▁abu	-10352
▁clu	-10353
▁eag	-10354
▁lep	-10355
▁pag	-10356
▁sud	-10357
▁suw	-10358
▁ups	-10359
▁upt	-10360
abbit	-10361
adder	-10362
ading	-10363
adway	-10364
autif	-10365
avana	-10366
ckwhe	-10367
dkani	-10368
ebook	-10369
essag	-10370
ndron	-10371
ntain	-10372
onday	-10373
ooler	-10374
orway	-10375
ourag	-10376
ssing	-10377
▁asle	-10378
▁chut	-10379
▁doug	-10380
▁pock	-10381
▁pood	-10382
▁rela	-10383
▁roug	-10384
▁tool	-10385
▁turb	-10386
ighter	-10387
ooling	-10388
orhood	-10389
orious	-10390
ortage	-10391
orting	-10392
ottage	-10393
oughts	-10394
oulful	-10395
oundar	-10396
oundly	-10397
ounter	-10398
ourist	-10399
vr	-10400
adm	-10401
afy	-10402
amw	-10403
auv	-10404
dan	-10405
edy	-10406
ply	-10407
wed	-10408
zle	-10409
anti	-10410
apor	-10411
auty	-10412
bers	-10413
bute	-10414
cers	-10415
ders	-10416
emat	-10417
gers	-10418
iers	-10419
inds	-10420
itys	-10421
kers	-10422
ksha	-10423
lind	-10424
mers	-10425
nity	-10426
omos	-10427
pers	-10428
rite	-10429
rity	-10430
sity	-10431
ugun	-10432
uhag	-10433
zers	-10434
▁bea	-10435
▁bho	-10436
▁clo	-10437
▁deo	-10438
▁dra	-10439
▁dri	-10440
▁hic	-10441
▁pra	-10442
▁pri	-10443
acity	-10444
amily	-10445
amity	-10446
ansac	-10447
arrow	-10448
assen	-10449
eders	-10450
eters	-10451
ffort	-10452
hters	-10453
icity	-10454
indow	-10455
inute	-10456
itrog	-10457
lders	-10458
mpion	-10459
terns	-10460
unity	-10461
urity	-10462
▁bind	-10463
▁drun	-10464
▁hind	-10465
▁hist	-10466
▁jale	-10467
▁knif	-10468
▁panc	-10469
▁prac	-10470
▁pras	-10471
▁prob	-10472
▁prog	-10473
▁proj	-10474
▁prot	-10475
▁prou	-10476
▁sind	-10477
▁sund	-10478
ainers	-10479
ilment	-10480
ocking	-10481
opping	-10482
orners	-10483
outine	-10484
palese	-10485
parvat	-10486
pboard	-10487
peaker	-10488
peated	-10489
pector	-10490
pening	-10491
penses	-10492
perity	-10493
pinion	-10494
plings	-10495
ponsib	-10496
ported	-10497
ration	-10498
reated	-10499
dq	-10500
dv	-10501
jy	-10502
mo	-10503
xh	-10504
akr	-10505
ann	-10506
cur	-10507
err	-10508
eve	-10509
ewe	-10510
fie	-10511
haf	-10512
isa	-10513
lak	-10514
mad	-10515
mbl	-10516
olk	-10517
poo	-10518
rak	-10519
uir	-10520
zed	-10521
agin	-10522
akor	-10523
arak	-10524
essy	-10525
fice	-10526
haak	-10527
hand	-10528
hire	-10529
idem	-10530
inkl	-10531
isha	-10532
lide	-10533
mful	-10534
ongu	-10535
ooks	-10536
quar	-10537
reak	-10538
ride	-10539
riti	-10540
uice	-10541
vide	-10542
▁asa	-10543
▁cak	-10544
▁kep	-10545
▁mak	-10546
▁pon	-10547
▁rak	-10548
▁saf	-10549
▁sag	-10550
▁sav	-10551
▁tak	-10552
akhan	-10553
apers	-10554
atten	-10555
ected	-10556
eeply	-10557
essar	-10558
essen	-10559
ivals	-10560
ntice	-10561
onger	-10562
ongoo	-10563
ribed	-10564
sting	-10565
urday	-10566
veryd	-10567
▁adve	-10568
▁baza	-10569
▁frid	-10570
▁kend	-10571
▁leel	-10572
▁sahe	-10573
▁sare	-10574
ardess	-10575
dition	-10576
eeling	-10577
essage	-10578
essing	-10579
ickles	-10580
idered	-10581
motion	-10582
ndance	-10583
ongest	-10584
onging	-10585
reates	-10586
remoni	-10587
rences	-10588
ressed	-10589
resses	-10590
ricity	-10591
ricult	-10592
rigate	-10593
riting	-10594
rossro	-10595
roying	-10596
satisf	-10597
season	-10598
sectic	-10599
tf	-10600
wi	-10601
cep	-10602
cif	-10603
ckp	-10604
dhi	-10605
lif	-10606
oem	-10607
rif	-10608
urg	-10609
ybe	-10610
▁dh	-10611
▁dw	-10612
▁pi	-10613
ackg	-10614
alay	-10615
alin	-10616
apac	-10617
apay	-10618
ardb	-10619
artb	-10620
artn	-10621
artu	-10622
geta	-10623
hees	-10624
hent	-10625
hift	-10626
ifor	-10627
ivis	-10628
lder	-10629
mart	-10630
mpas	-10631
nack	-10632
ohan	-10633
ongr	-10634
ools	-10635
otiv	-10636
pair	-10637
rong	-10638
tenn	-10639
uard	-10640
ulif	-10641
verm	-10642
▁alm	-10643
▁coa	-10644
▁cof	-10645
▁dwa	-10646
▁gif	-10647
▁irr	-10648
▁sug	-10649
▁tra	-10650
ackac	-10651
acker	-10652
ackle	-10653
anter	-10654
ardes	-10655
arthe	-10656
artic	-10657
bleed	-10658
eeled	-10659
enous	-10660
epart	-10661
esses	-10662
eting	-10663
llent	-10664
llies	-10665
oliya	-10666
orero	-10667
ouble	-10668
prise	-10669
rayal	-10670
roble	-10671
seble	-10672
ungry	-10673
▁anyw	-10674
▁clif	-10675
▁earw	-10676
▁frie	-10677
▁gard	-10678
▁jail	-10679
▁jyot	-10680
▁sans	-10681
▁stif	-10682
▁trac	-10683
▁tran	-10684
▁tras	-10685
▁troo	-10686
▁valu	-10687
atyuri	-10688
himtal	-10689
mbling	-10690
sembly	-10691
shment	-10692
solute	-10693
stairs	-10694
sticks	-10695
stling	-10696
string	-10697
teller	-10698
tember	-10699
bu	-10700
fr	-10701
jk	-10702
mf	-10703
ahi	-10704
cce	-10705
ckl	-10706
ckw	-10707
cky	-10708
eps	-10709
fac	-10710
hig	-10711
icr	-10712
iga	-10713
inc	-10714
nee	-10715
nhi	-10716
nth	-10717
oni	-10718
pum	-10719
sum	-10720
uma	-10721
urk	-10722
vou	-10723
▁cy	-10724
ackb	-10725
aray	-10726
bhan	-10727
ckro	-10728
dles	-10729
enem	-10730
erce	-10731
eshw	-10732
ffed	-10733
hale	-10734
hani	-10735
hans	-10736
hick	-10737
hten	-10738
hurt	-10739
iage	-10740
icum	-10741
jhan	-10742
kaut	-10743
merg	-10744
reat	-10745
umid	-10746
umit	-10747
wald	-10748
▁fum	-10749
▁gen	-10750
▁gum	-10751
▁inq	-10752
▁lum	-10753
▁muf	-10754
▁pum	-10755
▁rab	-10756
▁vic	-10757
▁vid	-10758
acred	-10759
arent	-10760
ceive	-10761
hanic	-10762
hanid	-10763
idday	-10764
ishan	-10765
ongue	-10766
opper	-10767
thday	-10768
▁bhan	-10769
▁comf	-10770
▁comm	-10771
▁drou	-10772
▁grid	-10773
▁grin	-10774
▁grou	-10775
▁jhan	-10776
▁mixt	-10777
▁nois	-10778
▁pepp	-10779
▁repa	-10780
▁rupe	-10781
▁spon	-10782
▁thum	-10783
ainage	-10784
anning	-10785
arning	-10786
irmoda	-10787
mother	-10788
terest	-10789
tility	-10790
titude	-10791
uation	-10792
ucated	-10793
uesday	-10794
uggage	-10795
ughute	-10796
ulator	-10797
ulfill	-10798
ulsion	-10799
hb	-10800
mk	-10801
sq	-10802
sy	-10803
adc	-10804
arf	-10805
dha	-10806
emp	-10807
fir	-10808
haz	-10809
kee	-10810
lim	-10811
mpl	-10812
oof	-10813
orh	-10814
ppo	-10815
rue	-10816
sor	-10817
unj	-10818
wam	-10819
aand	-10820
amar	-10821
andc	-10822
andd	-10823
ande	-10824
andi	-10825
andm	-10826
andr	-10827
ands	-10828
andu	-10829
andy	-10830
astu	-10831
ateg	-10832
ayal	-10833
dand	-10834
eive	-10835
erfe	-10836
hequ	-10837
hitr	-10838
iand	-10839
iced	-10840
mast	-10841
mpro	-10842
oler	-10843
orou	-10844
phan	-10845
rons	-10846
unri	-10847
▁alw	-10848
▁ama	-10849
▁buf	-10850
▁pes	-10851
▁sme	-10852
▁tho	-10853
amine	-10854
amous	-10855
andit	-10856
andon	-10857
astor	-10858
feren	-10859
ingad	-10860
iters	-10861
stand	-10862
veget	-10863
▁alar	-10864
▁amon	-10865
▁amou	-10866
▁buil	-10867
▁butc	-10868
▁cast	-10869
▁faul	-10870
▁infe	-10871
▁majk	-10872
▁mast	-10873
▁nand	-10874
▁seep	-10875
▁sere	-10876
▁seve	-10877
▁spat	-10878
▁spee	-10879
▁spin	-10880
▁spir	-10881
▁spor	-10882
▁spre	-10883
▁thre	-10884
▁thro	-10885
▁thur	-10886
antast	-10887
hesive	-10888
mented	-10889
ortive	-10890
ribing	-10891
ulties	-10892
unched	-10893
undant	-10894
unhusk	-10895
unting	-10896
urally	-10897
urkani	-10898
urnace	-10899
fw	-10900
ka	-10901
kn	-10902
aco	-10903
dle	-10904
eak	-10905
fee	-10906
hop	-10907
htf	-10908
khi	-10909
kir	-10910
lun	-10911
omi	-10912
opm	-10913
ops	-10914
owd	-10915
pec	-10916
rip	-10917
run	-10918
sac	-10919
top	-10920
unh	-10921
unl	-10922
var	-10923
asty	-10924
atun	-10925
bors	-10926
chin	-10927
dest	-10928
esta	-10929
esti	-10930
ests	-10931
etes	-10932
haun	-10933
isak	-10934
lend	-10935
oils	-10936
onun	-10937
opul	-10938
otor	-10939
ssed	-10940
tack	-10941
tert	-10942
test	-10943
tire	-10944
unar	-10945
unch	-10946
unct	-10947
uner	-10948
unit	-10949
ured	-10950
utom	-10951
vice	-10952
▁abo	-10953
▁agr	-10954
▁aun	-10955
▁bra	-10956
▁def	-10957
▁dun	-10958
▁enm	-10959
▁est	-10960
▁fou	-10961
▁gam	-10962
▁gun	-10963
▁noi	-10964
atest	-10965
aurat	-10966
estle	-10967
estor	-10968
estro	-10969
etest	-10970
ffici	-10971
igate	-10972
ingor	-10973
irect	-10974
orted	-10975
ships	-10976
sible	-10977
▁eyel	-10978
▁haun	-10979
▁howl	-10980
▁ille	-10981
▁jung	-10982
▁stun	-10983
▁thes	-10984
▁whoo	-10985
erwork	-10986
estive	-10987
ountry	-10988
urther	-10989
usiasm	-10990
ustard	-10991
ustice	-10992
utting	-10993
vation	-10994
vening	-10995
ventur	-10996
verand	-10997
verhan	-10998
verish	-10999
pf	-11000
adw	-11001
aly	-11002
avi	-11003
emy	-11004
eop	-11005
epe	-11006
epo	-11007
ern	-11008
etc	-11009
haj	-11010
ldw	-11011
lop	-11012
lry	-11013
oac	-11014
olg	-11015
opy	-11016
ryu	-11017
try	-11018
ulg	-11019
unr	-11020
usp	-11021
uts	-11022
veh	-11023
yth	-11024
alli	-11025
ankr	-11026
arry	-11027
arty	-11028
ctiv	-11029
dent	-11030
ente	-11031
enti	-11032
entr	-11033
eper	-11034
epot	-11035
erry	-11036
hary	-11037
icom	-11038
inst	-11039
ison	-11040
onfe	-11041
opar	-11042
pent	-11043
ripp	-11044
roce	-11045
ryer	-11046
ryst	-11047
seou	-11048
stry	-11049
vant	-11050
went	-11051
▁dan	-11052
▁kar	-11053
▁ker	-11054
▁kin	-11055
ament	-11056
anent	-11057
antat	-11058
anthe	-11059
arant	-11060
entan	-11061
eping	-11062
haust	-11063
heart	-11064
heera	-11065
ndles	-11066
otent	-11067
oudly	-11068
ughut	-11069
urant	-11070
ximum	-11071
▁brou	-11072
▁chip	-11073
▁citr	-11074
▁helm	-11075
▁khat	-11076
▁leop	-11077
▁plat	-11078
▁pudd	-11079
▁scat	-11080
▁whee	-11081
ctober	-11082
entall	-11083
enting	-11084
ention	-11085
essful	-11086
inding	-11087
ingent	-11088
others	-11089
rectly	-11090
waldam	-11091
wering	-11092
ziness	-11093
▁aadha	-11094
▁accor	-11095
▁affor	-11096
▁airad	-11097
▁aksha	-11098
▁almon	-11099
lr	-11100
rs	-11101
apu	-11102
cis	-11103
dis	-11104
isl	-11105
isp	-11106
ium	-11107
kis	-11108
lis	-11109
may	-11110
mis	-11111
nan	-11112
olv	-11113
pri	-11114
sas	-11115
tie	-11116
uis	-11117
upt	-11118
wis	-11119
yun	-11120
zet	-11121
adis	-11122
agem	-11123
anis	-11124
atis	-11125
avan	-11126
bout	-11127
east	-11128
flam	-11129
give	-11130
iris	-11131
ishi	-11132
isit	-11133
itis	-11134
ived	-11135
iven	-11136
live	-11137
nuts	-11138
otis	-11139
owis	-11140
pain	-11141
raps	-11142
rick	-11143
rout	-11144
sage	-11145
sday	-11146
sive	-11147
ster	-11148
stin	-11149
uman	-11150
▁bav	-11151
▁cob	-11152
▁dut	-11153
▁elb	-11154
▁lea	-11155
▁lem	-11156
▁loc	-11157
▁ric	-11158
▁vul	-11159
▁yie	-11160
amage	-11161
anand	-11162
conds	-11163
entil	-11164
ignif	-11165
image	-11166
itage	-11167
itive	-11168
ixing	-11169
meful	-11170
oment	-11171
outed	-11172
outin	-11173
rella	-11174
▁abro	-11175
▁grav	-11176
▁lehe	-11177
▁leve	-11178
▁mark	-11179
▁reet	-11180
▁spoo	-11181
▁worr	-11182
antage	-11183
forest	-11184
uments	-11185
▁anten	-11186
▁anyth	-11187
▁appet	-11188
▁appre	-11189
▁arrog	-11190
▁asafo	-11191
▁atmos	-11192
▁autum	-11193
▁backg	-11194
▁banas	-11195
▁banqu	-11196
▁baref	-11197
▁barle	-11198
▁barny	-11199
fy	-11200
aad	-11201
bas	-11202
bid	-11203
bul	-11204
cti	-11205
ctr	-11206
cts	-11207
epp	-11208
iec	-11209
irs	-11210
nct	-11211
oam	-11212
ppe	-11213
ppi	-11214
ppl	-11215
pps	-11216
rok	-11217
spe	-11218
sul	-11219
ulj	-11220
upp	-11221
viv	-11222
vow	-11223
xce	-11224
aked	-11225
anal	-11226
aths	-11227
atul	-11228
bble	-11229
chul	-11230
ctac	-11231
cted	-11232
cure	-11233
eing	-11234
erwe	-11235
essa	-11236
happ	-11237
holi	-11238
irad	-11239
ivat	-11240
ivid	-11241
kari	-11242
ortc	-11243
pion	-11244
ppet	-11245
ppin	-11246
pple	-11247
ppor	-11248
ppro	-11249
ropp	-11250
thqu	-11251
ulat	-11252
ules	-11253
ulse	-11254
uthi	-11255
▁agi	-11256
▁ail	-11257
▁dum	-11258
▁jak	-11259
▁oct	-11260
▁sep	-11261
▁tul	-11262
▁upp	-11263
▁vie	-11264
andal	-11265
inall	-11266
ipate	-11267
ivity	-11268
lting	-11269
ooker	-11270
otten	-11271
ouder	-11272
ppery	-11273
sking	-11274
▁brac	-11275
▁bran	-11276
▁brid	-11277
▁brot	-11278
▁brow	-11279
▁cive	-11280
▁clas	-11281
▁enth	-11282
▁nect	-11283
▁outs	-11284
▁wors	-11285
anking	-11286
arking	-11287
chless	-11288
esight	-11289
ferent	-11290
haking	-11291
▁becau	-11292
▁beehi	-11293
▁benef	-11294
▁bever	-11295
▁bhait	-11296
▁bhitr	-11297
▁bhule	-11298
▁bigad	-11299
nw	-11300
cim	-11301
epf	-11302
esi	-11303
fen	-11304
fid	-11305
iml	-11306
imp	-11307
imu	-11308
isi	-11309
kan	-11310
leb	-11311
nim	-11312
ouc	-11313
pos	-11314
rev	-11315
rim	-11316
rse	-11317
sso	-11318
ssy	-11319
wim	-11320
xim	-11321
alle	-11322
allm	-11323
bore	-11324
call	-11325
cker	-11326
core	-11327
draw	-11328
erhe	-11329
etim	-11330
gion	-11331
hora	-11332
hore	-11333
iall	-11334
imar	-11335
imat	-11336
imer	-11337
imil	-11338
imur	-11339
inks	-11340
jiya	-11341
llum	-11342
lore	-11343
maid	-11344
orec	-11345
oref	-11346
otos	-11347
ppen	-11348
pply	-11349
uall	-11350
▁kam	-11351
▁les	-11352
▁ord	-11353
▁pla	-11354
▁tex	-11355
achri	-11356
allow	-11357
andar	-11358
andru	-11359
estin	-11360
hared	-11361
inion	-11362
ioner	-11363
olves	-11364
onful	-11365
orehe	-11366
ssoms	-11367
stall	-11368
urall	-11369
▁acid	-11370
▁ball	-11371
▁blou	-11372
▁grac	-11373
▁prod	-11374
▁stum	-11375
▁syst	-11376
▁teas	-11377
▁tech	-11378
▁teet	-11379
▁tele	-11380
▁vall	-11381
▁whet	-11382
acelet	-11383
alling	-11384
andhan	-11385
eshtha	-11386
illion	-11387
istake	-11388
orrect	-11389
ourney	-11390
▁artis	-11391
▁bages	-11392
▁blist	-11393
▁bloss	-11394
▁busin	-11395
▁cardb	-11396
▁ceram	-11397
▁chall	-11398
▁chanf	-11399
mw	-11400
yl	-11401
cei	-11402
cil	-11403
eil	-11404
giv	-11405
hec	-11406
igy	-11407
ilg	-11408
ilm	-11409
irt	-11410
kil	-11411
mil	-11412
nil	-11413
oil	-11414
ril	-11415
sid	-11416
web	-11417
zil	-11418
▁od	-11419
akri	-11420
artm	-11421
ceiv	-11422
fill	-11423
gust	-11424
heil	-11425
hesl	-11426
hods	-11427
igns	-11428
ilat	-11429
ilit	-11430
ilor	-11431
ilst	-11432
lant	-11433
nore	-11434
onit	-11435
onor	-11436
oute	-11437
pres	-11438
tion	-11439
uick	-11440
unis	-11441
uste	-11442
usts	-11443
usty	-11444
vain	-11445
veil	-11446
▁ani	-11447
▁bah	-11448
▁eig	-11449
▁ghe	-11450
▁hea	-11451
▁lim	-11452
▁lip	-11453
▁liv	-11454
▁req	-11455
▁vit	-11456
allet	-11457
armer	-11458
ateri	-11459
aterm	-11460
brary	-11461
heris	-11462
icket	-11463
ilver	-11464
ional	-11465
onest	-11466
ooing	-11467
ounty	-11468
owers	-11469
stake	-11470
ustar	-11471
ustic	-11472
▁anas	-11473
▁anot	-11474
▁betr	-11475
▁canc	-11476
▁cann	-11477
▁cust	-11478
▁hous	-11479
▁neit	-11480
▁remo	-11481
▁scal	-11482
▁timb	-11483
▁usel	-11484
isture	-11485
usting	-11486
▁chang	-11487
▁chani	-11488
▁chann	-11489
▁chapp	-11490
▁charc	-11491
▁chauk	-11492
▁cheap	-11493
▁chees	-11494
▁chequ	-11495
▁chhol	-11496
▁chore	-11497
▁cliff	-11498
▁cobwe	-11499
ox	-11500
uj	-11501
yc	-11502
zz	-11503
bil	-11504
cko	-11505
dat	-11506
enn	-11507
gur	-11508
hia	-11509
hre	-11510
jam	-11511
kat	-11512
kor	-11513
lur	-11514
mur	-11515
nid	-11516
pur	-11517
rod	-11518
sta	-11519
tom	-11520
tur	-11521
val	-11522
acky	-11523
akeu	-11524
caly	-11525
erim	-11526
gely	-11527
ghya	-11528
haur	-11529
held	-11530
icro	-11531
itro	-11532
kill	-11533
lust	-11534
narm	-11535
ooft	-11536
pher	-11537
quil	-11538
rero	-11539
rill	-11540
rohi	-11541
rove	-11542
stur	-11543
thul	-11544
tist	-11545
uake	-11546
uill	-11547
uran	-11548
urat	-11549
urre	-11550
uses	-11551
vail	-11552
▁hal	-11553
▁hee	-11554
▁nre	-11555
▁nur	-11556
▁soc	-11557
arrhe	-11558
atern	-11559
bserv	-11560
eater	-11561
enace	-11562
icall	-11563
ightn	-11564
ights	-11565
igned	-11566
illet	-11567
inesh	-11568
onder	-11569
onver	-11570
othbr	-11571
ouldn	-11572
plete	-11573
reill	-11574
right	-11575
ugust	-11576
veryb	-11577
▁bhad	-11578
▁driv	-11579
▁mans	-11580
▁sect	-11581
▁sill	-11582
▁stap	-11583
▁stur	-11584
attern	-11585
hutiya	-11586
ioning	-11587
onight	-11588
oulder	-11589
▁cocon	-11590
▁coloc	-11591
▁colon	-11592
▁confe	-11593
▁cornf	-11594
▁corru	-11595
▁creat	-11596
▁criss	-11597
▁crumb	-11598
▁cryst	-11599
dz	-11600
jo	-11601
mr	-11602
yd	-11603
ads	-11604
atn	-11605
dit	-11606
dry	-11607
eec	-11608
eem	-11609
eez	-11610
esp	-11611
fus	-11612
hew	-11613
jas	-11614
koo	-11615
lse	-11616
oed	-11617
opc	-11618
ota	-11619
pee	-11620
pst	-11621
rob	-11622
rof	-11623
ros	-11624
rty	-11625
ryn	-11626
seh	-11627
sen	-11628
stb	-11629
uda	-11630
yav	-11631
zon	-11632
angn	-11633
arac	-11634
atic	-11635
ault	-11636
chun	-11637
eras	-11638
erha	-11639
fway	-11640
grow	-11641
hear	-11642
hnai	-11643
icem	-11644
icid	-11645
igen	-11646
init	-11647
iyal	-11648
lass	-11649
lter	-11650
nter	-11651
onse	-11652
ostr	-11653
oura	-11654
ourc	-11655
ouri	-11656
ours	-11657
ourt	-11658
real	-11659
roke	-11660
terd	-11661
tero	-11662
usks	-11663
webs	-11664
▁afr	-11665
▁dee	-11666
▁jha	-11667
▁jou	-11668
▁lee	-11669
▁suf	-11670
▁tem	-11671
arter	-11672
ennel	-11673
ndays	-11674
orage	-11675
otter	-11676
ourse	-11677
therw	-11678
veter	-11679
▁cere	-11680
▁inqu	-11681
▁khas	-11682
▁shou	-11683
▁smug	-11684
▁ther	-11685
orking	-11686
tering	-11687
▁boast	-11688
▁conse	-11689
▁curre	-11690
▁damag	-11691
▁decid	-11692
▁decis	-11693
▁decom	-11694
▁depic	-11695
▁depos	-11696
▁desce	-11697
▁deter	-11698
▁dhuli	-11699
dn	-11700
dr	-11701
hy	-11702
lw	-11703
sd	-11704
tc	-11705
yt	-11706
acc	-11707
acl	-11708
acr	-11709
amu	-11710
chd	-11711
chh	-11712
esc	-11713
etr	-11714
irc	-11715
ird	-11716
iru	-11717
iry	-11718
lew	-11719
mam	-11720
nac	-11721
ndp	-11722
nir	-11723
owr	-11724
pay	-11725
roa	-11726
she	-11727
tir	-11728
tly	-11729
tun	-11730
vic	-11731
▁ei	-11732
ainf	-11733
augh	-11734
boug	-11735
cred	-11736
dhes	-11737
erri	-11738
gain	-11739
inic	-11740
iron	-11741
irth	-11742
lver	-11743
mind	-11744
oodn	-11745
oodp	-11746
oods	-11747
ooed	-11748
oten	-11749
owth	-11750
stac	-11751
ular	-11752
verf	-11753
yful	-11754
zard	-11755
zone	-11756
▁gac	-11757
▁mem	-11758
▁rop	-11759
▁sic	-11760
▁tir	-11761
ainer	-11762
ainly	-11763
ancer	-11764
essed	-11765
etter	-11766
hatar	-11767
ikund	-11768
iseas	-11769
ooden	-11770
reast	-11771
seous	-11772
uture	-11773
▁clic	-11774
▁lege	-11775
▁mumb	-11776
▁noth	-11777
▁plou	-11778
▁sary	-11779
▁seas	-11780
▁sham	-11781
▁stac	-11782
▁unus	-11783
icated	-11784
ilding	-11785
itched	-11786
remony	-11787
stemat	-11788
▁almor	-11789
▁betwe	-11790
▁disli	-11791
▁displ	-11792
▁distr	-11793
▁divis	-11794
▁diwal	-11795
▁donat	-11796
▁droug	-11797
▁earwa	-11798
▁enact	-11799
eo	-11800
jc	-11801
ako	-11802
api	-11803
cau	-11804
eac	-11805
ehe	-11806
ght	-11807
heq	-11808
het	-11809
htn	-11810
hts	-11811
hty	-11812
lve	-11813
pht	-11814
rac	-11815
rad	-11816
ror	-11817
roy	-11818
rve	-11819
sin	-11820
stl	-11821
tem	-11822
ton	-11823
uen	-11824
uge	-11825
urp	-11826
vac	-11827
yin	-11828
▁la	-11829
acat	-11830
adac	-11831
aino	-11832
atal	-11833
atht	-11834
ccas	-11835
chbo	-11836
cool	-11837
ctly	-11838
edge	-11839
enac	-11840
ensh	-11841
ensi	-11842
heck	-11843
hera	-11844
htam	-11845
htly	-11846
ians	-11847
jher	-11848
ller	-11849
lone	-11850
onat	-11851
onel	-11852
onou	-11853
outs	-11854
peat	-11855
reek	-11856
wice	-11857
▁bac	-11858
▁bru	-11859
▁dre	-11860
▁fav	-11861
▁iff	-11862
▁lac	-11863
▁num	-11864
▁pac	-11865
▁rac	-11866
▁urg	-11867
chiev	-11868
ensic	-11869
fting	-11870
ihood	-11871
onely	-11872
oning	-11873
store	-11874
veler	-11875
▁airt	-11876
▁belo	-11877
▁bins	-11878
▁crue	-11879
▁doct	-11880
▁goss	-11881
▁pher	-11882
▁unru	-11883
adable	-11884
andard	-11885
athing	-11886
formed	-11887
iendly	-11888
ndreds	-11889
omeone	-11890
onable	-11891
▁engag	-11892
▁enric	-11893
▁eucal	-11894
▁exerc	-11895
▁explo	-11896
▁faceb	-11897
▁fashi	-11898
▁fenug	-11899
lc	-11900
lu	-11901
rw	-11902
sb	-11903
add	-11904
amk	-11905
aml	-11906
amm	-11907
amo	-11908
amr	-11909
amv	-11910
bad	-11911
bag	-11912
but	-11913
cas	-11914
ddy	-11915
eha	-11916
hap	-11917
hie	-11918
imi	-11919
kam	-11920
kly	-11921
pic	-11922
rts	-11923
sly	-11924
ste	-11925
sur	-11926
tre	-11927
utr	-11928
utu	-11929
vad	-11930
wad	-11931
yab	-11932
▁dt	-11933
▁hy	-11934
▁ni	-11935
aden	-11936
ader	-11937
adit	-11938
adly	-11939
adow	-11940
alam	-11941
amay	-11942
amed	-11943
amin	-11944
anar	-11945
arat	-11946
ayad	-11947
cked	-11948
cond	-11949
etly	-11950
igad	-11951
illn	-11952
inut	-11953
iter	-11954
jale	-11955
lete	-11956
llin	-11957
llut	-11958
ndly	-11959
orch	-11960
renc	-11961
soil	-11962
uthe	-11963
▁aad	-11964
▁mum	-11965
▁mut	-11966
▁tam	-11967
▁wat	-11968
arpen	-11969
hicle	-11970
inkle	-11971
othes	-11972
ouris	-11973
phere	-11974
ssion	-11975
▁drin	-11976
▁fram	-11977
▁priv	-11978
▁qual	-11979
▁soci	-11980
▁spad	-11981
▁stal	-11982
cement	-11983
cument	-11984
otects	-11985
ourage	-11986
outing	-11987
riyala	-11988
umbled	-11989
urting	-11990
▁couri	-11991
▁eleve	-11992
▁fifte	-11993
▁finan	-11994
▁firef	-11995
▁firew	-11996
▁forec	-11997
▁freed	-11998
▁freez	-11999
ea	-12000
hm	-12001
ln	-12002
mm	-12003
amt	-12004
bou	-12005
chb	-12006
cho	-12007
chr	-12008
coo	-12009
did	-12010
gan	-12011
idi	-12012
idn	-12013
ids	-12014
idy	-12015
isk	-12016
lid	-12017
mid	-12018
mne	-12019
nch	-12020
sem	-12021
tch	-12022
uar	-12023
vey	-12024
xam	-12025
ype	-12026
▁du	-12027
▁ug	-12028
▁um	-12029
▁va	-12030
aina	-12031
alek	-12032
amer	-12033
amou	-12034
arts	-12035
bsid	-12036
choo	-12037
etch	-12038
etid	-12039
hait	-12040
heri	-12041
iden	-12042
igit	-12043
inch	-12044
inis	-12045
irem	-12046
irls	-12047
ited	-12048
leas	-12049
mang	-12050
mite	-12051
ndle	-12052
oice	-12053
onch	-12054
onut	-12055
ouch	-12056
ourn	-12057
unds	-12058
vert	-12059
▁anc	-12060
▁bid	-12061
▁blu	-12062
▁mes	-12063
▁mob	-12064
▁nex	-12065
▁pos	-12066
▁rej	-12067
▁san	-12068
▁und	-12069
▁utt	-12070
aming	-12071
emies	-12072
erous	-12073
thood	-12074
▁bort	-12075
▁dryn	-12076
▁exhi	-12077
▁gras	-12078
▁inde	-12079
▁jeal	-12080
▁neig	-12081
▁pati	-12082
earing	-12083
iander	-12084
inders	-12085
pposed	-12086
verage	-12087
▁arriv	-12088
▁cance	-12089
▁everg	-12090
▁funct	-12091
▁funer	-12092
▁funne	-12093
▁gangn	-12094
▁gathe	-12095
▁geetm	-12096
▁goodb	-12097
▁goodn	-12098
▁gramm	-12099
ca	-12100
gm	-12101
iy	-12102
np	-12103
zo	-12104
adq	-12105
alf	-12106
bic	-12107
hac	-12108
hau	-12109
hik	-12110
ibe	-12111
igs	-12112
isc	-12113
mac	-12114
ndi	-12115
nse	-12116
oid	-12117
ppy	-12118
rid	-12119
rth	-12120
sea	-12121
seb	-12122
sec	-12123
thd	-12124
uin	-12125
uth	-12126
veg	-12127
vig	-12128
wig	-12129
xat	-12130
▁aj	-12131
▁ly	-12132
acef	-12133
arse	-12134
arth	-12135
atig	-12136
chri	-12137
esse	-12138
hich	-12139
hild	-12140
hise	-12141
icen	-12142
icin	-12143
igor	-12144
irst	-12145
mudi	-12146
onke	-12147
opke	-12148
orld	-12149
owad	-12150
resp	-12151
sary	-12152
seas	-12153
shed	-12154
stly	-12155
thon	-12156
thoo	-12157
uvat	-12158
verg	-12159
▁boo	-12160
▁jho	-12161
▁jun	-12162
▁nie	-12163
▁usu	-12164
▁wid	-12165
acter	-12166
arall	-12167
ement	-12168
orful	-12169
verse	-12170
yment	-12171
▁buck	-12172
▁dren	-12173
▁fing	-12174
▁frig	-12175
▁fron	-12176
▁goal	-12177
▁myse	-12178
▁saha	-12179
▁sunl	-12180
▁surf	-12181
▁yest	-12182
aining	-12183
ieties	-12184
opards	-12185
shroom	-12186
▁finis	-12187
▁gover	-12188
▁gridd	-12189
▁hairc	-12190
▁haldw	-12191
▁handl	-12192
▁handm	-12193
▁hanum	-12194
▁hardw	-12195
▁haunt	-12196
▁heave	-12197
▁helpl	-12198
▁himse	-12199
bk	-12200
go	-12201
nr	-12202
rr	-12203
zl	-12204
aig	-12205
arc	-12206
bhe	-12207
chl	-12208
cro	-12209
ece	-12210
ero	-12211
hel	-12212
hos	-12213
ica	-12214
icu	-12215
igg	-12216
igu	-12217
lig	-12218
nig	-12219
nis	-12220
pir	-12221
sig	-12222
thw	-12223
tic	-12224
unn	-12225
vap	-12226
arad	-12227
arig	-12228
asis	-12229
asks	-12230
dies	-12231
epth	-12232
esht	-12233
etho	-12234
haal	-12235
huri	-12236
ican	-12237
icat	-12238
iche	-12239
icit	-12240
iges	-12241
igha	-12242
oodb	-12243
oors	-12244
shap	-12245
unic	-12246
wers	-12247
▁bou	-12248
▁bud	-12249
▁dar	-12250
▁deh	-12251
▁dip	-12252
▁feb	-12253
▁fru	-12254
▁jet	-12255
▁kan	-12256
▁sta	-12257
▁tic	-12258
▁wan	-12259
atery	-12260
esday	-12261
esson	-12262
halar	-12263
icing	-12264
mined	-12265
oomed	-12266
rowed	-12267
upine	-12268
veryw	-12269
▁arth	-12270
▁badr	-12271
▁conc	-12272
▁cred	-12273
▁dura	-12274
▁kabb	-12275
▁maha	-12276
▁stan	-12277
▁stha	-12278
▁ston	-12279
▁toil	-12280
▁weig	-12281
ackers	-12282
arding	-12283
areill	-12284
eeking	-12285
oction	-12286
ongrat	-12287
tching	-12288
vement	-12289
veryon	-12290
▁holid	-12291
▁homem	-12292
▁homew	-12293
▁ident	-12294
▁impre	-12295
▁incom	-12296
▁infor	-12297
▁inste	-12298
▁instr	-12299
('	-12300
je	-12301
kl	-12302
uf	-12303
aas	-12304
alc	-12305
alg	-12306
aln	-12307
asn	-12308
bhi	-12309
chn	-12310
dal	-12311
den	-12312
ele	-12313
eni	-12314
esa	-12315
gal	-12316
gas	-12317
jee	-12318
kal	-12319
ndw	-12320
oic	-12321
pas	-12322
seq	-12323
tas	-12324
tes	-12325
vid	-12326
zar	-12327
▁ya	-12328
adan	-12329
aith	-12330
alai	-12331
alas	-12332
alue	-12333
anam	-12334
aneu	-12335
appe	-12336
ball	-12337
died	-12338
epos	-12339
ethe	-12340
ffal	-12341
gist	-12342
harc	-12343
heap	-12344
hter	-12345
inim	-12346
ishe	-12347
jain	-12348
nels	-12349
omew	-12350
redn	-12351
reez	-12352
sist	-12353
terf	-12354
vely	-12355
▁das	-12356
▁fro	-12357
▁gra	-12358
▁jac	-12359
▁mec	-12360
▁nal	-12361
▁onc	-12362
▁oni	-12363
▁rou	-12364
▁vim	-12365
▁wea	-12366
alant	-12367
avist	-12368
eeing	-12369
entry	-12370
epers	-12371
esome	-12372
herry	-12373
icter	-12374
illow	-12375
ivine	-12376
omeon	-12377
reads	-12378
reely	-12379
rings	-12380
uence	-12381
▁bisc	-12382
▁gill	-12383
▁peop	-12384
▁reso	-12385
▁trit	-12386
amping	-12387
harpen	-12388
inting	-12389
solved	-12390
▁alway	-12391
▁arran	-12392
▁indiv	-12393
▁jakhi	-12394
▁jewel	-12395
▁kabad	-12396
▁keybo	-12397
▁keyho	-12398
▁kindl	-12399
jm	-12400
nh	-12401
nn	-12402
rc	-12403
uz	-12404
akp	-12405
asi	-12406
asy	-12407
bke	-12408
bst	-12409
cit	-12410
das	-12411
gun	-12412
ilu	-12413
itc	-12414
ith	-12415
iti	-12416
ito	-12417
its	-12418
kep	-12419
keu	-12420
lad	-12421
lee	-12422
lly	-12423
mas	-12424
pac	-12425
pid	-12426
pit	-12427
pke	-12428
sew	-12429
sic	-12430
sit	-12431
tit	-12432
urr	-12433
vas	-12434
vis	-12435
vit	-12436
alar	-12437
atit	-12438
ened	-12439
enic	-12440
fter	-12441
gore	-12442
hann	-12443
herw	-12444
hila	-12445
inue	-12446
itat	-12447
itha	-12448
ithe	-12449
itth	-12450
lood	-12451
orew	-12452
reet	-12453
shly	-12454
soor	-12455
xist	-12456
▁eit	-12457
▁ens	-12458
▁fas	-12459
▁hes	-12460
▁hin	-12461
▁hor	-12462
▁kad	-12463
▁mil	-12464
▁reo	-12465
▁roy	-12466
▁sau	-12467
▁tas	-12468
▁vad	-12469
avels	-12470
ckets	-12471
ckoos	-12472
hting	-12473
ingly	-12474
iting	-12475
oking	-12476
reath	-12477
sters	-12478
unshi	-12479
▁amav	-12480
▁depe	-12481
▁exce	-12482
▁ghug	-12483
▁kart	-12484
▁melo	-12485
igning	-12486
jected	-12487
mitted	-12488
▁handw	-12489
▁happi	-12490
▁laksh	-12491
▁lands	-12492
▁langu	-12493
▁lefto	-12494
▁legum	-12495
▁lengt	-12496
▁lepro	-12497
▁letha	-12498
▁licor	-12499
eb	-12500
oi	-12501
pb	-12502
adl	-12503
asa	-12504
bro	-12505
eal	-12506
ett	-12507
ffl	-12508
hom	-12509
hoo	-12510
itt	-12511
kit	-12512
lds	-12513
ndo	-12514
oog	-12515
roo	-12516
thy	-12517
tiv	-12518
too	-12519
vei	-12520
wee	-12521
▁ec	-12522
▁eg	-12523
▁ep	-12524
▁eu	-12525
▁nu	-12526
anag	-12527
apad	-12528
atar	-12529
bhit	-12530
enly	-12531
essf	-12532
gugg	-12533
hatc	-12534
helf	-12535
iber	-12536
iety	-12537
mein	-12538
onal	-12539
onig	-12540
oost	-12541
orar	-12542
orns	-12543
orre	-12544
otee	-12545
rain	-12546
rary	-12547
redi	-12548
rust	-12549
stes	-12550
stoo	-12551
▁bef	-12552
▁cro	-12553
▁doo	-12554
▁env	-12555
▁foo	-12556
▁hem	-12557
▁mod	-12558
▁ove	-12559
▁ray	-12560
▁tau	-12561
▁tig	-12562
aller	-12563
asion	-12564
dendr	-12565
erity	-12566
estic	-12567
ingal	-12568
oming	-12569
orous	-12570
otiya	-12571
outst	-12572
stant	-12573
▁beha	-12574
▁coac	-12575
▁flak	-12576
▁forb	-12577
▁forw	-12578
▁gent	-12579
▁hell	-12580
▁shaw	-12581
▁slep	-12582
▁wate	-12583
akness	-12584
ausani	-12585
itable	-12586
opscot	-12587
▁livel	-12588
▁lohag	-12589
▁lonel	-12590
▁louds	-12591
▁majkh	-12592
▁makeu	-12593
▁manis	-12594
▁mantr	-12595
▁marig	-12596
▁meanw	-12597
▁measu	-12598
▁milkm	-12599
ez	-12600
iq	-12601
nm	-12602
rt	-12603
tl	-12604
yw	-12605
cen	-12606
enj	-12607
enl	-12608
env	-12609
ere	-12610
jac	-12611
kha	-12612
ldl	-12613
onu	-12614
oon	-12615
ork	-12616
pad	-12617
pam	-12618
reb	-12619
rov	-12620
tat	-12621
uil	-12622
umm	-12623
wen	-12624
wic	-12625
xur	-12626
▁rh	-12627
acha	-12628
ahat	-12629
ainm	-12630
alan	-12631
alty	-12632
aten	-12633
avam	-12634
bles	-12635
eday	-12636
enes	-12637
enou	-12638
etic	-12639
hatk	-12640
hats	-12641
idit	-12642
ingl	-12643
isis	-12644
khat	-12645
lded	-12646
nand	-12647
ndic	-12648
oult	-12649
pide	-12650
reen	-12651
sten	-12652
umam	-12653
verc	-12654
veri	-12655
wber	-12656
▁ahe	-12657
▁buc	-12658
▁den	-12659
▁dol	-12660
▁gos	-12661
▁sar	-12662
alled	-12663
amera	-12664
ardam	-12665
asses	-12666
ctors	-12667
entre	-12668
idies	-12669
ignat	-12670
igyan	-12671
ingen	-12672
lever	-12673
ogram	-12674
rever	-12675
veran	-12676
verhe	-12677
▁bhat	-12678
▁chir	-12679
▁cous	-12680
▁driz	-12681
▁init	-12682
▁jain	-12683
▁palt	-12684
▁pret	-12685
▁pric	-12686
▁spar	-12687
cumber	-12688
entire	-12689
ilomet	-12690
lingad	-12691
▁jakha	-12692
▁minim	-12693
▁minut	-12694
▁moder	-12695
▁monit	-12696
▁monke	-12697
▁monso	-12698
▁moonl	-12699
gl	-12700
kk	-12701
oa	-12702
tu	-12703
anf	-12704
ayb	-12705
ayg	-12706
cef	-12707
chu	-12708
eig	-12709
erp	-12710
fle	-12711
hil	-12712
ige	-12713
ima	-12714
jay	-12715
lay	-12716
leg	-12717
lek	-12718
lem	-12719
lev	-12720
lex	-12721
mle	-12722
mse	-12723
oir	-12724
ras	-12725
rge	-12726
sle	-12727
uss	-12728
wep	-12729
yon	-12730
▁bd	-12731
acem	-12732
ainy	-12733
aliv	-12734
aves	-12735
ayan	-12736
ayed	-12737
ayer	-12738
cour	-12739
eric	-12740
ette	-12741
hade	-12742
harm	-12743
hatu	-12744
hile	-12745
iasm	-12746
lean	-12747
lear	-12748
leed	-12749
llar	-12750
oray	-12751
otas	-12752
rele	-12753
sani	-12754
unne	-12755
utum	-12756
▁jum	-12757
▁oft	-12758
▁pee	-12759
▁wen	-12760
ackal	-12761
alend	-12762
erver	-12763
iable	-12764
inety	-12765
ingle	-12766
isast	-12767
itter	-12768
olite	-12769
orewe	-12770
perat	-12771
regul	-12772
tocks	-12773
▁amar	-12774
▁buff	-12775
▁coil	-12776
▁kauv	-12777
▁lett	-12778
▁limp	-12779
▁sack	-12780
▁vish	-12781
▁volv	-12782
bleeds	-12783
ccount	-12784
ownish	-12785
ripped	-12786
unning	-12787
▁diarr	-12788
▁mosqu	-12789
▁motiv	-12790
▁napht	-12791
▁nearb	-12792
▁neare	-12793
▁needl	-12794
▁neigh	-12795
▁newsp	-12796
▁notic	-12797
▁notif	-12798
▁nutri	-12799
km	-12800
mn	-12801
pd	-12802
yh	-12803
ahu	-12804
akn	-12805
bol	-12806
dly	-12807
gen	-12808
gry	-12809
hic	-12810
hif	-12811
hiv	-12812
hiy	-12813
hri	-12814
hta	-12815
jir	-12816
ldn	-12817
lhi	-12818
loy	-12819
lum	-12820
mth	-12821
ohi	-12822
owa	-12823
owb	-12824
owf	-12825
owi	-12826
phi	-12827
rch	-12828
rin	-12829
thi	-12830
xhi	-12831
yad	-12832
yer	-12833
▁ud	-12834
acil	-12835
aday	-12836
ampa	-12837
ardi	-12838
deal	-12839
edle	-12840
gher	-12841
hion	-12842
ilts	-12843
ites	-12844
nant	-12845
oole	-12846
star	-12847
vehi	-12848
▁inb	-12849
▁inf	-12850
▁ini	-12851
▁inl	-12852
▁inn	-12853
▁nau	-12854
▁plu	-12855
▁syr	-12856
▁tal	-12857
acher	-12858
ainit	-12859
ausha	-12860
ayers	-12861
erful	-12862
eries	-12863
ested	-12864
ilter	-12865
inted	-12866
lence	-12867
oodpe	-12868
owish	-12869
reamt	-12870
stood	-12871
▁anym	-12872
▁fant	-12873
▁inha	-12874
▁itch	-12875
▁larg	-12876
▁mann	-12877
▁stoo	-12878
▁syru	-12879
▁vive	-12880
▁weat	-12881
antern	-12882
attery	-12883
hikesh	-12884
▁bhary	-12885
▁enoug	-12886
▁grate	-12887
▁knowl	-12888
▁mulet	-12889
▁occup	-12890
▁offic	-12891
▁optim	-12892
▁organ	-12893
▁ornam	-12894
▁ourse	-12895
▁outst	-12896
▁overc	-12897
▁overf	-12898
▁overn	-12899
ei	-12900
of	-12901
rb	-12902
yr	-12903
alm	-12904
boo	-12905
epy	-12906
erl	-12907
eta	-12908
etl	-12909
etm	-12910
eto	-12911
fet	-12912
goo	-12913
hid	-12914
hst	-12915
ili	-12916
jet	-12917
jor	-12918
lst	-12919
nas	-12920
ndn	-12921
nit	-12922
now	-12923
nst	-12924
owl	-12925
rav	-12926
sep	-12927
stc	-12928
str	-12929
sts	-12930
tro	-12931
uav	-12932
wly	-12933
xed	-12934
xer	-12935
artr	-12936
bery	-12937
erst	-12938
eter	-12939
fied	-12940
forg	-12941
heet	-12942
idne	-12943
iful	-12944
laps	-12945
lici	-12946
lila	-12947
lled	-12948
oint	-12949
roac	-12950
shes	-12951
sory	-12952
stan	-12953
stom	-12954
term	-12955
usti	-12956
▁beh	-12957
▁cin	-12958
▁cit	-12959
▁fra	-12960
▁ful	-12961
▁len	-12962
▁mir	-12963
▁moc	-12964
▁ont	-12965
▁pet	-12966
▁ren	-12967
ccoli	-12968
erved	-12969
ingha	-12970
karac	-12971
licor	-12972
shing	-12973
unded	-12974
xpect	-12975
▁affe	-12976
▁caut	-12977
▁chim	-12978
▁fain	-12979
▁naul	-12980
▁nost	-12981
▁paks	-12982
asture	-12983
egible	-12984
illing	-12985
orever	-12986
ulsory	-12987
▁overg	-12988
▁overw	-12989
▁pahar	-12990
▁pakod	-12991
▁pakor	-12992
▁pande	-12993
▁panje	-12994
▁papay	-12995
▁parat	-12996
▁parti	-12997
▁partr	-12998
▁passb	-12999
aa	-13000
df	-13001
fu	-13002
gp	-13003
jh	-13004
ph	-13005
rm	-13006
wo	-13007
ye	-13008
adn	-13009
asp	-13010
col	-13011
cot	-13012
edi	-13013
eti	-13014
gag	-13015
had	-13016
hip	-13017
ked	-13018
kid	-13019
mot	-13020
ndm	-13021
omm	-13022
omo	-13023
pth	-13024
rah	-13025
rec	-13026
sef	-13027
sty	-13028
vot	-13029
ampf	-13030
aned	-13031
arin	-13032
edar	-13033
eded	-13034
essn	-13035
gage	-13036
ghat	-13037
hanc	-13038
hist	-13039
idat	-13040
ipel	-13041
ithi	-13042
ldly	-13043
naja	-13044
oard	-13045
ogiz	-13046
olds	-13047
onin	-13048
otat	-13049
oted	-13050
othe	-13051
ramp	-13052
stor	-13053
vill	-13054
wing	-13055
▁bli	-13056
▁cou	-13057
▁rig	-13058
▁sod	-13059
▁tar	-13060
▁vas	-13061
▁wic	-13062
▁wre	-13063
archy	-13064
aterp	-13065
banas	-13066
educt	-13067
entif	-13068
hwali	-13069
igent	-13070
ilted	-13071
▁alre	-13072
▁mopp	-13073
▁noti	-13074
▁pers	-13075
▁spid	-13076
▁toot	-13077
▁trum	-13078
▁weal	-13079
......	-13080
airing	-13081
anjeev	-13082
estion	-13083
lutter	-13084
mation	-13085
▁branc	-13086
▁immed	-13087
▁indig	-13088
▁partn	-13089
▁patro	-13090
▁perfe	-13091
▁perha	-13092
▁perio	-13093
▁picka	-13094
▁pithi	-13095
▁playg	-13096
▁pleas	-13097
▁plent	-13098
▁ploug	-13099
bh	-13100
hh	-13101
lb	-13102
lg	-13103
oj	-13104
rp	-13105
vt	-13106
wh	-13107
anm	-13108
ari	-13109
arl	-13110
arn	-13111
arv	-13112
cra	-13113
dve	-13114
fre	-13115
haw	-13116
hem	-13117
hul	-13118
iap	-13119
iou	-13120
jar	-13121
kac	-13122
kle	-13123
lar	-13124
nak	-13125
nda	-13126
nde	-13127
ndk	-13128
rar	-13129
rul	-13130
thq	-13131
uot	-13132
vem	-13133
vet	-13134
alou	-13135
aran	-13136
arre	-13137
ashe	-13138
aush	-13139
bhab	-13140
cent	-13141
enth	-13142
esce	-13143
esid	-13144
fere	-13145
hach	-13146
hall	-13147
hend	-13148
hilj	-13149
ipha	-13150
itiz	-13151
llet	-13152
mitt	-13153
ndre	-13154
oned	-13155
onst	-13156
pful	-13157
rowd	-13158
sand	-13159
stic	-13160
ubke	-13161
umin	-13162
urif	-13163
▁fad	-13164
▁nic	-13165
▁oce	-13166
▁pie	-13167
▁shr	-13168
▁sid	-13169
▁tod	-13170
▁upl	-13171
▁wip	-13172
▁wom	-13173
adish	-13174
hatke	-13175
itten	-13176
kking	-13177
nding	-13178
ustif	-13179
▁anci	-13180
▁anyt	-13181
▁dran	-13182
▁flut	-13183
▁foug	-13184
▁pois	-13185
▁stee	-13186
hitaul	-13187
ndrink	-13188
ropped	-13189
ursery	-13190
xtbook	-13191
▁broad	-13192
▁plowm	-13193
▁postc	-13194
▁potas	-13195
▁potat	-13196
▁pover	-13197
▁prais	-13198
▁preci	-13199
iw	-13200
yp	-13201
ata	-13202
atc	-13203
atr	-13204
atu	-13205
aty	-13206
eit	-13207
erc	-13208
gor	-13209
hut	-13210
ifu	-13211
kki	-13212
las	-13213
lat	-13214
lch	-13215
llm	-13216
llu	-13217
loo	-13218
mat	-13219
mom	-13220
net	-13221
ona	-13222
orw	-13223
pat	-13224
pbo	-13225
qui	-13226
roc	-13227
som	-13228
urc	-13229
utc	-13230
wat	-13231
▁fu	-13232
▁oo	-13233
▁op	-13234
▁ta	-13235
acre	-13236
ainb	-13237
amit	-13238
athe	-13239
epic	-13240
erat	-13241
eser	-13242
esom	-13243
hare	-13244
hute	-13245
icor	-13246
inat	-13247
iner	-13248
inet	-13249
kanj	-13250
ndan	-13251
ntal	-13252
omat	-13253
omot	-13254
oran	-13255
orry	-13256
reed	-13257
rely	-13258
reve	-13259
umor	-13260
▁dom	-13261
▁gom	-13262
▁hab	-13263
▁ham	-13264
▁hap	-13265
▁hav	-13266
▁ite	-13267
▁kab	-13268
▁nat	-13269
▁toi	-13270
▁wei	-13271
▁yat	-13272
ctive	-13273
ekeep	-13274
idays	-13275
ighty	-13276
iture	-13277
lfway	-13278
ukaal	-13279
▁cobb	-13280
▁exac	-13281
▁proc	-13282
▁stom	-13283
arless	-13284
essent	-13285
igital	-13286
merged	-13287
orning	-13288
quired	-13289
veryth	-13290
weater	-13291
▁anasu	-13292
▁deser	-13293
▁grant	-13294
▁pregn	-13295
▁presc	-13296
▁pries	-13297
▁proce	-13298
▁quill	-13299
ao	-13300
bd	-13301
ju	-13302
ni	-13303
ob	-13304
uo	-13305
aan	-13306
anq	-13307
aru	-13308
aze	-13309
dhe	-13310
ean	-13311
edd	-13312
eon	-13313
erw	-13314
esm	-13315
eso	-13316
ien	-13317
imb	-13318
ino	-13319
lan	-13320
lre	-13321
nar	-13322
nds	-13323
nif	-13324
oad	-13325
oan	-13326
onn	-13327
orr	-13328
phe	-13329
rei	-13330
san	-13331
sto	-13332
ued	-13333
vom	-13334
yed	-13335
▁bh	-13336
▁ny	-13337
▁oa	-13338
▁ow	-13339
amps	-13340
anan	-13341
anes	-13342
apes	-13343
arom	-13344
date	-13345
eran	-13346
erly	-13347
gant	-13348
ideo	-13349
khan	-13350
lain	-13351
lour	-13352
omer	-13353
omes	-13354
rive	-13355
ssro	-13356
urns	-13357
weep	-13358
▁bin	-13359
▁gan	-13360
▁hil	-13361
▁ine	-13362
▁kur	-13363
▁lor	-13364
▁mys	-13365
▁puj	-13366
▁som	-13367
▁tot	-13368
▁wil	-13369
▁zil	-13370
aises	-13371
anage	-13372
aning	-13373
apsed	-13374
olded	-13375
roves	-13376
tingu	-13377
umans	-13378
▁asad	-13379
▁deat	-13380
▁deve	-13381
▁symb	-13382
▁tric	-13383
▁uphi	-13384
▁yell	-13385
▁yout	-13386
ission	-13387
roving	-13388
rowing	-13389
slides	-13390
umping	-13391
▁radis	-13392
▁rainb	-13393
▁rainw	-13394
▁rakes	-13395
▁rames	-13396
▁ramle	-13397
▁react	-13398
▁reall	-13399
cd	-13400
ij	-13401
lh	-13402
sa	-13403
tv	-13404
yg	-13405
ahe	-13406
arw	-13407
atf	-13408
bor	-13409
cor	-13410
ech	-13411
ein	-13412
esd	-13413
esn	-13414
far	-13415
fes	-13416
gem	-13417
hha	-13418
ias	-13419
kes	-13420
kin	-13421
lor	-13422
nor	-13423
oar	-13424
oct	-13425
oha	-13426
onf	-13427
orf	-13428
otc	-13429
rom	-13430
rro	-13431
uly	-13432
yes	-13433
zes	-13434
▁ox	-13435
▁si	-13436
▁ti	-13437
abil	-13438
amic	-13439
ares	-13440
auti	-13441
dang	-13442
enan	-13443
gall	-13444
heat	-13445
illa	-13446
indl	-13447
mmed	-13448
omeg	-13449
onds	-13450
oric	-13451
tent	-13452
uted	-13453
xing	-13454
▁ans	-13455
▁bui	-13456
▁nan	-13457
▁nea	-13458
▁nou	-13459
▁obs	-13460
▁pha	-13461
▁phe	-13462
▁soi	-13463
▁tok	-13464
▁wif	-13465
actic	-13466
ffler	-13467
hange	-13468
inues	-13469
posed	-13470
ummer	-13471
veryt	-13472
▁alon	-13473
▁crum	-13474
▁loha	-13475
▁pron	-13476
▁sock	-13477
▁thou	-13478
allies	-13479
essive	-13480
inning	-13481
lowing	-13482
orable	-13483
ortant	-13484
ottoms	-13485
▁accid	-13486
▁nowad	-13487
▁progr	-13488
▁reced	-13489
▁recep	-13490
▁recog	-13491
▁recor	-13492
▁refre	-13493
▁regre	-13494
▁relat	-13495
▁relig	-13496
▁remem	-13497
▁remot	-13498
▁repre	-13499
fs	-13500
gi	-13501
hn	-13502
nk	-13503
rj	-13504
rk	-13505
tk	-13506
tn	-13507
za	-13508
dea	-13509
eda	-13510
edu	-13511
gou	-13512
hay	-13513
heh	-13514
hle	-13515
iar	-13516
iha	-13517
lln	-13518
llt	-13519
mpt	-13520
oll	-13521
ooj	-13522
ori	-13523
rea	-13524
stu	-13525
tam	-13526
tor	-13527
xes	-13528
▁gw	-13529
▁ig	-13530
▁jh	-13531
▁oc	-13532
▁yi	-13533
ahes	-13534
amle	-13535
ctic	-13536
eder	-13537
gins	-13538
hate	-13539
ilom	-13540
inga	-13541
inge	-13542
ingo	-13543
ingu	-13544
itic	-13545
olis	-13546
omin	-13547
ooja	-13548
otch	-13549
ourd	-13550
ques	-13551
shiv	-13552
terr	-13553
than	-13554
▁aas	-13555
▁dak	-13556
▁dha	-13557
▁gha	-13558
▁gop	-13559
▁hai	-13560
▁han	-13561
▁hay	-13562
▁orn	-13563
▁tog	-13564
▁tom	-13565
▁upc	-13566
arend	-13567
arewe	-13568
atric	-13569
enter	-13570
hance	-13571
inite	-13572
iredn	-13573
nting	-13574
pects	-13575
sture	-13576
▁chit	-13577
▁dhot	-13578
▁grad	-13579
▁laun	-13580
▁mant	-13581
▁obst	-13582
▁worm	-13583
ancham	-13584
etings	-13585
finite	-13586
ractor	-13587
voking	-13588
▁devel	-13589
▁foref	-13590
▁kalek	-13591
▁manag	-13592
▁repub	-13593
▁respe	-13594
▁restl	-13595
▁retir	-13596
▁retur	-13597
▁revis	-13598
▁rooft	-13599
ef	-13600
hq	-13601
lp	-13602
pm	-13603
ags	-13604
ama	-13605
anu	-13606
bly	-13607
chc	-13608
cip	-13609
eam	-13610
eas	-13611
eet	-13612
enf	-13613
enr	-13614
eou	-13615
erg	-13616
ffo	-13617
ghe	-13618
gon	-13619
iat	-13620
inb	-13621
jou	-13622
ldh	-13623
ldi	-13624
lit	-13625
lon	-13626
mos	-13627
nha	-13628
onc	-13629
onk	-13630
onm	-13631
onv	-13632
opp	-13633
por	-13634
ran	-13635
uga	-13636
ulb	-13637
▁ca	-13638
▁ci	-13639
alit	-13640
ampn	-13641
arve	-13642
asel	-13643
eans	-13644
eels	-13645
ench	-13646
eout	-13647
esan	-13648
esig	-13649
ffer	-13650
haad	-13651
iloy	-13652
ingh	-13653
inka	-13654
irec	-13655
lice	-13656
lute	-13657
mand	-13658
mble	-13659
ming	-13660
oner	-13661
oser	-13662
peak	-13663
shik	-13664
wain	-13665
▁als	-13666
▁cer	-13667
▁fis	-13668
▁fon	-13669
▁jas	-13670
▁nee	-13671
ainst	-13672
anker	-13673
cific	-13674
count	-13675
cting	-13676
ering	-13677
haran	-13678
ingin	-13679
onsor	-13680
orers	-13681
uster	-13682
▁apol	-13683
▁kick	-13684
▁prim	-13685
▁webs	-13686
▁youn	-13687
ensils	-13688
munity	-13689
orters	-13690
▁preve	-13691
▁saliv	-13692
▁samos	-13693
▁satis	-13694
▁sayan	-13695
▁scaff	-13696
▁scarc	-13697
▁schem	-13698
▁scoot	-13699
),	-13700
bw	-13701
cn	-13702
dp	-13703
dw	-13704
nj	-13705
pk	-13706
rn	-13707
wm	-13708
aha	-13709
ara	-13710
edn	-13711
erd	-13712
erf	-13713
erh	-13714
erj	-13715
erm	-13716
ert	-13717
evi	-13718
haa	-13719
hah	-13720
hak	-13721
how	-13722
ifi	-13723
igo	-13724
irm	-13725
jan	-13726
kas	-13727
ker	-13728
lle	-13729
owt	-13730
pha	-13731
pie	-13732
pre	-13733
qua	-13734
rhe	-13735
sat	-13736
ser	-13737
tac	-13738
uch	-13739
xha	-13740
zer	-13741
▁aa	-13742
▁ba	-13743
▁bi	-13744
▁bs	-13745
andp	-13746
asha	-13747
asht	-13748
chst	-13749
enug	-13750
erin	-13751
hell	-13752
heng	-13753
ilos	-13754
indn	-13755
noon	-13756
onth	-13757
oodw	-13758
sent	-13759
stle	-13760
tive	-13761
urit	-13762
▁aha	-13763
▁bam	-13764
▁cul	-13765
▁hau	-13766
▁lin	-13767
▁lov	-13768
▁mer	-13769
▁pam	-13770
▁ses	-13771
▁tol	-13772
▁wha	-13773
▁wir	-13774
acket	-13775
inner	-13776
istur	-13777
lying	-13778
tness	-13779
umaon	-13780
ustac	-13781
▁adhi	-13782
▁bann	-13783
▁heer	-13784
▁satv	-13785
anting	-13786
armers	-13787
othing	-13788
ybrids	-13789
▁broug	-13790
▁cowbe	-13791
▁heavi	-13792
▁resid	-13793
▁seedl	-13794
▁seren	-13795
▁sever	-13796
▁shant	-13797
▁sharm	-13798
▁sheil	-13799
fo	-13800
gw	-13801
hc	-13802
ku	-13803
lv	-13804
mt	-13805
nv	-13806
sk	-13807
aal	-13808
aiz	-13809
bre	-13810
cid	-13811
dre	-13812
eke	-13813
ely	-13814
gad	-13815
hou	-13816
idg	-13817
igi	-13818
inf	-13819
inl	-13820
jat	-13821
lou	-13822
nin	-13823
nre	-13824
omf	-13825
oos	-13826
pot	-13827
pou	-13828
rst	-13829
sag	-13830
sou	-13831
stm	-13832
ths	-13833
tke	-13834
umi	-13835
win	-13836
yot	-13837
▁lu	-13838
▁vu	-13839
adle	-13840
adri	-13841
anen	-13842
ansp	-13843
arge	-13844
edit	-13845
enge	-13846
fess	-13847
halg	-13848
icel	-13849
icka	-13850
icul	-13851
iger	-13852
inar	-13853
lful	-13854
oral	-13855
orbe	-13856
orth	-13857
othp	-13858
ract	-13859
reng	-13860
stri	-13861
sult	-13862
utif	-13863
wake	-13864
▁bel	-13865
▁med	-13866
▁nec	-13867
▁rew	-13868
andat	-13869
arted	-13870
ensar	-13871
erall	-13872
hamed	-13873
hutes	-13874
munic	-13875
ounds	-13876
sects	-13877
verha	-13878
▁chec	-13879
▁clut	-13880
▁dang	-13881
▁hybr	-13882
▁itse	-13883
▁sque	-13884
▁visi	-13885
▁wast	-13886
angely	-13887
icates	-13888
▁chise	-13889
▁handp	-13890
▁shift	-13891
▁shoot	-13892
▁shopp	-13893
▁shove	-13894
▁shred	-13895
▁shyam	-13896
▁silen	-13897
▁simil	-13898
▁simpl	-13899
cb	-13900
ej	-13901
ew	-13902
ex	-13903
fc	-13904
hv	-13905
oh	-13906
ok	-13907
rf	-13908
rg	-13909
rv	-13910
wr	-13911
arg	-13912
des	-13913
din	-13914
edg	-13915
gir	-13916
git	-13917
hin	-13918
hir	-13919
ilo	-13920
ini	-13921
inn	-13922
inu	-13923
lac	-13924
mly	-13925
mpo	-13926
ndl	-13927
nge	-13928
nwe	-13929
ono	-13930
oub	-13931
rep	-13932
riv	-13933
sse	-13934
uou	-13935
urm	-13936
uro	-13937
▁ah	-13938
▁au	-13939
▁ax	-13940
▁ic	-13941
alon	-13942
andf	-13943
aund	-13944
back	-13945
inin	-13946
ixed	-13947
kies	-13948
lodi	-13949
ntly	-13950
omem	-13951
sion	-13952
urga	-13953
vity	-13954
▁cab	-13955
▁cag	-13956
▁cod	-13957
▁fri	-13958
▁leo	-13959
▁pom	-13960
▁	-13961
e	-13962
t	-13963
o	-13964
a	-13965
i	-13966
s	-13967
r	-13968
n	-13969
h	-13970
l	-13971
d	-13972
y	-13973
u	-13974
m	-13975
w	-13976
g	-13977
c	-13978
f	-13979
p	-13980
.	-13981
b	-13982
k	-13983
v	-13984
,	-13985
'	-13986
?	-13987
j	-13988
x	-13989
!	-13990
q	-13991
-	-13992
z	-13993
(	-13994
)	-13995
0	-13996
