<unk>	0
<s>	0
</s>	0
▁t	-0
he	-1
▁i	-2
▁a	-3
▁the	-4
▁w	-5
▁s	-6
in	-7
re	-8
ou	-9
▁f	-10
▁m	-11
er	-12
▁b	-13
ha	-14
▁c	-15
on	-16
ing	-17
▁y	-18
▁d	-19
ll	-20
▁to	-21
▁g	-22
or	-23
▁p	-24
es	-25
▁is	-26
▁it	-27
▁n	-28
▁you	-29
▁l	-30
an	-31
om	-32
at	-33
▁o	-34
▁ha	-35
nd	-36
ve	-37
ar	-38
▁wi	-39
ed	-40
ot	-41
et	-42
st	-43
ow	-44
hi	-45
▁in	-46
le	-47
ay	-48
en	-49
ver	-50
▁of	-51
hat	-52
oo	-53
ld	-54
▁and	-55
▁he	-56
▁r	-57
▁be	-58
▁will	-59
▁e	-60
▁for	-61
▁h	-62
ke	-63
it	-64
as	-65
▁we	-66
▁on	-67
ome	-68
al	-69
▁st	-70
very	-71
ic	-72
▁are	-73
▁my	-74
ig	-75
th	-76
▁have	-77
▁yes	-78
▁fr	-79
▁go	-80
▁do	-81
se	-82
id	-83
his	-84
▁ne	-85
▁u	-86
ch	-87
am	-88
ad	-89
ut	-90
ly	-91
▁re	-92
▁very	-93
▁this	-94
ht	-95
her	-96
one	-97
▁that	-98
ge	-99
ac	-100
▁me	-101
▁what	-102
ood	-103
▁not	-104
▁from	-105
ain	-106
ir	-107
ter	-108
ee	-109
▁sh	-110
▁j	-111
our	-112
ro	-113
ake	-114
ur	-115
▁with	-116
ould	-117
ight	-118
▁so	-119
ill	-120
▁they	-121
ater	-122
▁li	-123
il	-124
▁your	-125
▁v	-126
▁can	-127
▁an	-128
ust	-129
ion	-130
all	-131
▁was	-132
ore	-133
im	-134
▁there	-135
▁water	-136
▁te	-137
pp	-138
ul	-139
king	-140
▁br	-141
▁has	-142
ct	-143
ie	-144
age	-145
▁at	-146
▁get	-147
▁good	-148
▁le	-149
▁wor	-150
is	-151
ive	-152
▁some	-153
out	-154
ant	-155
▁whe	-156
ent	-157
▁k	-158
▁come	-159
ep	-160
ry	-161
op	-162
▁how	-163
est	-164
▁our	-165
▁wh	-166
▁should	-167
un	-168
▁now	-169
▁pl	-170
ast	-171
▁al	-172
and	-173
▁bu	-174
▁th	-175
▁am	-176
▁se	-177
▁but	-178
▁sp	-179
um	-180
▁gr	-181
▁no	-182
▁com	-183
other	-184
▁them	-185
▁did	-186
day	-187
▁vill	-188
han	-189
▁need	-190
ck	-191
red	-192
▁let	-193
ning	-194
ce	-195
ble	-196
▁tr	-197
▁co	-198
▁all	-199
▁us	-200
ard	-201
▁village	-202
art	-203
▁every	-204
ack	-205
▁tim	-206
if	-207
▁one	-208
ong	-209
▁sa	-210
▁day	-211
ook	-212
▁take	-213
ess	-214
ide	-215
ak	-216
▁ke	-217
ice	-218
eel	-219
▁de	-220
▁hi	-221
▁here	-222
ity	-223
▁new	-224
▁pro	-225
ers	-226
▁mu	-227
▁dr	-228
▁like	-229
ind	-230
▁pr	-231
▁time	-232
▁feel	-233
▁just	-234
▁make	-235
▁su	-236
way	-237
▁cl	-238
▁give	-239
▁too	-240
pe	-241
▁as	-242
▁up	-243
ool	-244
▁ab	-245
nt	-246
▁when	-247
ag	-248
fe	-249
▁today	-250
▁or	-251
▁going	-252
so	-253
▁fe	-254
▁don	-255
ick	-256
▁eat	-257
ine	-258
▁af	-259
▁see	-260
iv	-261
ream	-262
qu	-263
▁if	-264
▁man	-265
▁keep	-266
▁work	-267
ate	-268
▁hou	-269
▁pe	-270
are	-271
ame	-272
▁sm	-273
ound	-274
ation	-275
▁fore	-276
▁about	-277
▁chi	-278
▁mon	-279
▁bl	-280
▁con	-281
▁much	-282
mp	-283
ting	-284
▁who	-285
row	-286
▁why	-287
▁any	-288
▁want	-289
au	-290
▁whi	-291
▁must	-292
▁dream	-293
get	-294
▁ro	-295
▁bec	-296
▁house	-297
▁brother	-298
▁ple	-299
▁happ	-300
ase	-301
ber	-302
oug	-303
av	-304
▁sch	-305
▁school	-306
ace	-307
ink	-308
▁forest	-309
▁eve	-310
▁had	-311
▁after	-312
▁ru	-313
ab	-314
▁ok	-315
▁lot	-316
ous	-317
▁ph	-318
▁lo	-319
▁then	-320
ire	-321
ol	-322
▁'	-323
▁rain	-324
ue	-325
ure	-326
▁sc	-327
ment	-328
▁home	-329
▁tell	-330
▁say	-331
▁ar	-332
▁only	-333
▁please	-334
ign	-335
ield	-336
ri	-337
ful	-338
▁kn	-339
iend	-340
▁also	-341
▁friend	-342
▁by	-343
▁mo	-344
▁mar	-345
▁where	-346
ap	-347
oney	-348
▁she	-349
hing	-350
▁out	-351
▁comp	-352
ss	-353
▁ag	-354
▁qu	-355
▁str	-356
▁tea	-357
▁field	-358
ass	-359
ist	-360
▁cle	-361
▁child	-362
▁look	-363
▁ex	-364
▁ve	-365
▁mor	-366
ather	-367
▁okay	-368
▁used	-369
ree	-370
▁saw	-371
▁call	-372
▁sign	-373
▁start	-374
mor	-375
▁fir	-376
▁sit	-377
aking	-378
▁well	-379
side	-380
▁app	-381
▁big	-382
▁old	-383
▁their	-384
▁morning	-385
ans	-386
ank	-387
arm	-388
ort	-389
▁har	-390
▁him	-391
thing	-392
▁back	-393
▁money	-394
▁first	-395
em	-396
▁hel	-397
▁away	-398
▁night	-399
ings	-400
▁know	-401
▁bo	-402
▁en	-403
hes	-404
ies	-405
les	-406
▁fl	-407
ff	-408
we	-409
alk	-410
der	-411
tle	-412
▁off	-413
▁hand	-414
▁would	-415
▁ye	-416
ople	-417
▁rem	-418
▁people	-419
▁tw	-420
▁been	-421
▁than	-422
ens	-423
▁che	-424
▁gre	-425
ade	-426
ason	-427
ount	-428
aut	-429
▁pre	-430
▁his	-431
▁city	-432
morrow	-433
▁tomorrow	-434
os	-435
omet	-436
▁again	-437
▁beaut	-438
▁cold	-439
▁days	-440
▁more	-441
ren	-442
▁bus	-443
▁chan	-444
▁somet	-445
▁everyone	-446
▁right	-447
ach	-448
als	-449
ther	-450
▁dur	-451
▁her	-452
▁help	-453
▁year	-454
▁become	-455
sh	-456
har	-457
pees	-458
▁does	-459
▁even	-460
▁phone	-461
▁small	-462
▁rupees	-463
ave	-464
ect	-465
fore	-466
▁mis	-467
▁drink	-468
▁beautif	-469
dy	-470
la	-471
ty	-472
▁hu	-473
able	-474
ding	-475
ough	-476
▁wed	-477
▁many	-478
▁were	-479
▁these	-480
▁during	-481
lf	-482
hed	-483
ily	-484
urn	-485
▁two	-486
▁bring	-487
ite	-488
▁bet	-489
▁may	-490
▁might	-491
▁plant	-492
▁sl	-493
▁lit	-494
▁before	-495
aste	-496
blem	-497
▁sle	-498
▁use	-499
▁care	-500
▁veget	-501
▁problem	-502
ip	-503
ath	-504
ket	-505
ally	-506
▁put	-507
▁other	-508
▁beautiful	-509
▁which	-510
cc	-511
ci	-512
ish	-513
ways	-514
▁its	-515
▁win	-516
▁temp	-517
eep	-518
mer	-519
own	-520
ult	-521
iver	-522
▁long	-523
▁miss	-524
▁always	-525
ix	-526
▁po	-527
▁spe	-528
▁fest	-529
▁made	-530
▁near	-531
air	-532
ilk	-533
▁pot	-534
▁son	-535
▁stu	-536
▁won	-537
▁done	-538
▁play	-539
▁sleep	-540
▁festiv	-541
▁wedding	-542
aug	-543
▁wr	-544
▁cow	-545
▁fam	-546
▁find	-547
▁food	-548
▁life	-549
▁clean	-550
▁fields	-551
▁little	-552
▁market	-553
▁getting	-554
be	-555
▁(	-556
ull	-557
▁got	-558
▁last	-559
▁milk	-560
▁feeling	-561
▁everything	-562
per	-563
rop	-564
▁dry	-565
▁ele	-566
▁try	-567
▁apply	-568
alo	-569
▁bro	-570
ember	-571
ffalo	-572
▁clot	-573
▁over	-574
▁means	-575
▁better	-576
▁buffalo	-577
ra	-578
wn	-579
key	-580
pen	-581
▁god	-582
▁res	-583
▁monkey	-584
▁season	-585
▁fo	-586
▁spr	-587
▁sun	-588
▁compl	-589
▁coming	-590
▁mother	-591
▁someone	-592
▁children	-593
▁remember	-594
ang	-595
ock	-596
▁ce	-597
nder	-598
▁per	-599
▁swe	-600
ought	-601
ary	-602
▁ad	-603
▁bad	-604
▁leav	-605
▁true	-606
▁great	-607
▁thank	-608
▁temple	-609
xt	-610
▁un	-611
▁dif	-612
▁way	-613
owing	-614
▁read	-615
▁sing	-616
▁elect	-617
▁grand	-618
▁under	-619
ft	-620
ise	-621
▁oh	-622
ooking	-623
▁worry	-624
▁happen	-625
▁winter	-626
ains	-627
ause	-628
▁rep	-629
▁roo	-630
ables	-631
aught	-632
▁best	-633
▁fire	-634
▁seed	-635
▁check	-636
de	-637
ani	-638
ici	-639
▁jo	-640
▁bag	-641
▁car	-642
▁own	-643
ndred	-644
▁next	-645
▁shop	-646
▁hundred	-647
▁dep	-648
▁hot	-649
▁roof	-650
▁making	-651
▁vegetables	-652
us	-653
ait	-654
amp	-655
▁sal	-656
ition	-657
▁bank	-658
▁road	-659
▁stor	-660
▁talk	-661
▁feels	-662
▁mount	-663
▁quick	-664
▁evening	-665
ung	-666
ance	-667
atch	-668
▁arr	-669
▁sha	-670
▁fill	-671
▁fine	-672
▁same	-673
▁warm	-674
▁month	-675
▁sound	-676
▁while	-677
▁strong	-678
ric	-679
▁cha	-680
▁run	-681
▁came	-682
▁down	-683
▁main	-684
▁whole	-685
▁eating	-686
▁family	-687
▁something	-688
ato	-689
mon	-690
▁buy	-691
▁rice	-692
▁wind	-693
▁river	-694
▁inside	-695
ne	-696
ile	-697
▁sn	-698
▁farm	-699
▁gone	-700
▁hear	-701
▁list	-702
▁wood	-703
▁could	-704
▁change	-705
br	-706
ell	-707
shi	-708
▁cr	-709
akes	-710
▁fin	-711
▁imp	-712
umber	-713
▁anim	-714
▁door	-715
▁hard	-716
▁open	-717
▁stop	-718
▁wait	-719
inking	-720
▁think	-721
▁without	-722
ail	-723
wor	-724
▁ji	-725
▁del	-726
erson	-727
▁book	-728
▁rest	-729
▁stay	-730
▁wall	-731
▁still	-732
▁sweet	-733
▁person	-734
▁because	-735
▁festival	-736
▁ch	-737
▁giv	-738
▁meet	-739
▁news	-740
▁soil	-741
gether	-742
▁black	-743
▁light	-744
▁never	-745
▁together	-746
iz	-747
act	-748
cre	-749
ied	-750
ken	-751
ope	-752
ared	-753
fect	-754
here	-755
ired	-756
self	-757
ving	-758
▁bre	-759
▁cut	-760
▁fre	-761
opard	-762
▁sist	-763
▁spring	-764
▁leopard	-765
▁monkeys	-766
▁quickly	-767
▁working	-768
cle	-769
old	-770
ated	-771
ctor	-772
ness	-773
ower	-774
atter	-775
▁crop	-776
▁full	-777
▁love	-778
▁path	-779
▁song	-780
▁walk	-781
terday	-782
▁smell	-783
▁clothes	-784
▁yesterday	-785
ds	-786
orn	-787
▁ey	-788
▁gu	-789
alth	-790
ange	-791
vern	-792
▁ear	-793
▁ram	-794
▁tur	-795
▁card	-796
▁cook	-797
▁prep	-798
▁tree	-799
▁trou	-800
▁heard	-801
▁leave	-802
aughter	-803
▁around	-804
▁govern	-805
▁government	-806
ten	-807
▁acc	-808
▁ter	-809
▁tre	-810
▁grow	-811
▁left	-812
▁mean	-813
▁part	-814
▁doing	-815
▁looks	-816
▁maybe	-817
▁broken	-818
▁proper	-819
▁anything	-820
ms	-821
pt	-822
fic	-823
lie	-824
▁ask	-825
▁bit	-826
▁ent	-827
where	-828
▁cont	-829
▁heav	-830
▁said	-831
▁show	-832
▁sure	-833
▁trad	-834
▁turn	-835
icious	-836
▁happy	-837
▁diffic	-838
▁animals	-839
▁careful	-840
▁daughter	-841
te	-842
anc	-843
ump	-844
ved	-845
▁el	-846
ried	-847
▁bir	-848
▁few	-849
▁hey	-850
▁hur	-851
▁sick	-852
▁teac	-853
▁needs	-854
▁seeds	-855
▁father	-856
▁leaves	-857
▁sister	-858
▁underst	-859
▁weather	-860
▁tradition	-861
ya	-862
int	-863
▁hol	-864
▁sum	-865
▁wee	-866
▁cour	-867
▁else	-868
▁head	-869
▁land	-870
▁clear	-871
▁paste	-872
▁place	-873
▁ready	-874
▁number	-875
▁sometim	-876
▁electric	-877
▁difficult	-878
ng	-879
ug	-880
che	-881
med	-882
cial	-883
ship	-884
▁fix	-885
▁coll	-886
▁deep	-887
▁lear	-888
▁live	-889
▁pass	-890
▁fresh	-891
▁stand	-892
▁listen	-893
▁potato	-894
▁teacher	-895
ery	-896
law	-897
ont	-898
▁sk	-899
edic	-900
room	-901
work	-902
▁due	-903
▁late	-904
▁name	-905
▁send	-906
▁side	-907
▁heavy	-908
▁scared	-909
▁summer	-910
▁sometimes	-911
▁electricity	-912
aw	-913
gr	-914
ark	-915
ete	-916
ild	-917
ost	-918
oth	-919
▁cu	-920
ince	-921
▁job	-922
▁rad	-923
▁form	-924
▁pain	-925
▁salt	-926
▁wear	-927
alking	-928
ations	-929
▁front	-930
▁medic	-931
▁peace	-932
▁asking	-933
▁doctor	-934
▁import	-935
▁wonder	-936
▁looking	-937
▁trouble	-938
▁understand	-939
cess	-940
pped	-941
read	-942
ress	-943
soon	-944
▁add	-945
▁dis	-946
▁fun	-947
▁mix	-948
ature	-949
meric	-950
▁didn	-951
▁fall	-952
▁sell	-953
▁terr	-954
▁went	-955
▁hands	-956
▁plast	-957
▁thing	-958
▁three	-959
▁trees	-960
▁using	-961
▁health	-962
▁monsoon	-963
▁turmeric	-964
az	-965
oun	-966
▁gl	-967
omen	-968
vest	-969
▁dec	-970
▁far	-971
▁gar	-972
▁oil	-973
▁ret	-974
▁vis	-975
ction	-976
▁half	-977
▁wild	-978
▁block	-979
▁bride	-980
▁incre	-981
▁stone	-982
▁wheat	-983
▁things	-984
▁brought	-985
▁collect	-986
▁important	-987
io	-988
ale	-989
ney	-990
oor	-991
▁sw	-992
lebr	-993
▁cur	-994
▁dog	-995
▁hig	-996
▁rot	-997
▁sir	-998
inger	-999
▁cost	-1000
▁crow	-1001
▁most	-1002
▁week	-1003
▁build	-1004
▁makes	-1005
▁price	-1006
▁seems	-1007
▁since	-1008
▁study	-1009
artment	-1010
▁called	-1011
▁celebr	-1012
▁dreamt	-1013
▁enough	-1014
▁repair	-1015
▁special	-1016
▁started	-1017
▁complain	-1018
'.	-1019
pl	-1020
ars	-1021
iet	-1022
ilt	-1023
ipe	-1024
not	-1025
ute	-1026
ves	-1027
▁ir	-1028
▁int	-1029
▁thi	-1030
iness	-1031
▁five	-1032
▁soon	-1033
▁times	-1034
▁cannot	-1035
▁grandm	-1036
▁window	-1037
▁account	-1038
▁farming	-1039
▁harvest	-1040
▁outside	-1041
▁properly	-1042
▁mountains	-1043
▁wonderful	-1044
▁department	-1045
aon	-1046
erv	-1047
for	-1048
gar	-1049
ose	-1050
wer	-1051
▁av	-1052
ably	-1053
iece	-1054
ones	-1055
osed	-1056
pper	-1057
▁bar	-1058
▁cry	-1059
▁sto	-1060
otect	-1061
▁char	-1062
▁eyes	-1063
▁goat	-1064
▁hill	-1065
▁hour	-1066
▁room	-1067
▁shar	-1068
▁grass	-1069
▁store	-1070
▁watch	-1071
▁young	-1072
picious	-1073
sidered	-1074
▁arrive	-1075
▁seeing	-1076
▁protect	-1077
▁considered	-1078
..	-1079
ls	-1080
mb	-1081
ils	-1082
mit	-1083
uit	-1084
ages	-1085
ible	-1086
▁cat	-1087
▁eld	-1088
▁kil	-1089
▁kum	-1090
▁rub	-1091
▁shi	-1092
ished	-1093
▁face	-1094
▁forg	-1095
▁phot	-1096
▁slow	-1097
▁tank	-1098
▁tick	-1099
▁wash	-1100
father	-1101
▁being	-1102
▁belie	-1103
▁floor	-1104
▁keeps	-1105
▁learn	-1106
▁piece	-1107
▁entire	-1108
▁kumaon	-1109
▁office	-1110
▁really	-1111
▁nothing	-1112
▁playing	-1113
▁complete	-1114
▁drinking	-1115
bs	-1116
▁pu	-1117
dder	-1118
ence	-1119
ions	-1120
▁bur	-1121
▁cal	-1122
▁col	-1123
▁dal	-1124
▁dev	-1125
▁ide	-1126
▁pay	-1127
▁red	-1128
▁tap	-1129
▁hope	-1130
▁nice	-1131
▁pack	-1132
▁pray	-1133
▁fever	-1134
▁rains	-1135
▁speak	-1136
▁sugar	-1137
▁taste	-1138
▁visit	-1139
▁years	-1140
▁giving	-1141
▁sitting	-1142
▁mountain	-1143
fin	-1144
ict	-1145
llo	-1146
ons	-1147
ors	-1148
rat	-1149
ses	-1150
▁ja	-1151
▁ma	-1152
aper	-1153
fort	-1154
less	-1155
wise	-1156
▁air	-1157
▁aus	-1158
▁pad	-1159
▁sad	-1160
omach	-1161
▁damp	-1162
▁dung	-1163
▁each	-1164
▁feed	-1165
▁four	-1166
▁idea	-1167
▁inst	-1168
▁into	-1169
▁mess	-1170
▁pand	-1171
▁pine	-1172
▁built	-1173
▁class	-1174
▁fruit	-1175
▁hello	-1176
▁write	-1177
▁closed	-1178
▁letter	-1179
▁saying	-1180
▁ticket	-1181
▁happens	-1182
▁stomach	-1183
▁planting	-1184
▁festivals	-1185
▁auspicious	-1186
ho	-1187
hee	-1188
ift	-1189
itu	-1190
iya	-1191
▁im	-1192
▁sy	-1193
ased	-1194
cket	-1195
ense	-1196
pens	-1197
rela	-1198
rent	-1199
ross	-1200
wood	-1201
▁boy	-1202
▁lar	-1203
▁mot	-1204
▁sho	-1205
▁sim	-1206
▁spo	-1207
adhan	-1208
anger	-1209
ching	-1210
▁bell	-1211
▁bigg	-1212
▁dire	-1213
▁ever	-1214
▁fair	-1215
▁free	-1216
▁gift	-1217
▁hold	-1218
▁once	-1219
▁plow	-1220
▁requ	-1221
▁root	-1222
▁break	-1223
▁groom	-1224
▁heart	-1225
▁least	-1226
▁offer	-1227
▁paddy	-1228
▁radio	-1229
▁songs	-1230
▁stick	-1231
▁story	-1232
▁tired	-1233
▁fodder	-1234
▁matter	-1235
▁cooking	-1236
▁friends	-1237
▁leaving	-1238
▁pradhan	-1239
▁strange	-1240
▁finished	-1241
▁otherwise	-1242
▁vegetable	-1243
')	-1244
af	-1245
ash	-1246
esh	-1247
ner	-1248
▁('	-1249
agar	-1250
chen	-1251
ical	-1252
▁ann	-1253
▁dir	-1254
▁kit	-1255
▁min	-1256
▁pol	-1257
▁rec	-1258
▁set	-1259
▁thr	-1260
▁yet	-1261
itely	-1262
▁dist	-1263
▁gets	-1264
▁hair	-1265
▁high	-1266
▁kept	-1267
▁kind	-1268
▁stud	-1269
▁such	-1270
▁vehi	-1271
▁weak	-1272
▁bless	-1273
▁cloth	-1274
▁large	-1275
▁noise	-1276
▁anyone	-1277
▁filled	-1278
▁harela	-1279
▁prepar	-1280
▁return	-1281
▁sickle	-1282
▁comfort	-1283
▁kitchen	-1284
▁married	-1285
▁plastic	-1286
▁thinking	-1287
▁grandfather	-1288
▁grandmother	-1289
ja	-1290
og	-1291
ru	-1292
ua	-1293
any	-1294
con	-1295
oud	-1296
oup	-1297
hood	-1298
ling	-1299
mpty	-1300
raid	-1301
▁act	-1302
▁eng	-1303
▁leg	-1304
▁mud	-1305
▁sol	-1306
ately	-1307
remon	-1308
▁boil	-1309
▁cool	-1310
▁drop	-1311
▁dust	-1312
▁ghee	-1313
▁seat	-1314
▁seen	-1315
▁wife	-1316
▁wish	-1317
▁defin	-1318
▁delhi	-1319
▁diffe	-1320
▁doesn	-1321
▁empty	-1322
▁fight	-1323
▁flour	-1324
▁gives	-1325
▁power	-1326
▁short	-1327
▁walls	-1328
▁afraid	-1329
▁grains	-1330
▁taking	-1331
▁wooden	-1332
▁blocked	-1333
▁ceremon	-1334
▁perfect	-1335
▁running	-1336
▁definitely	-1337
▁traditional	-1338
app	-1339
met	-1340
uck	-1341
unt	-1342
vel	-1343
wal	-1344
▁ju	-1345
ards	-1346
ever	-1347
ging	-1348
hind	-1349
iday	-1350
idge	-1351
nday	-1352
oose	-1353
tern	-1354
ully	-1355
▁aut	-1356
▁end	-1357
▁fer	-1358
▁gir	-1359
▁net	-1360
▁ser	-1361
▁tou	-1362
arden	-1363
▁cand	-1364
▁corn	-1365
▁cows	-1366
▁hald	-1367
▁heat	-1368
▁jeep	-1369
▁ones	-1370
▁ruin	-1371
▁supp	-1372
▁tast	-1373
▁weed	-1374
▁carry	-1375
▁comes	-1376
▁const	-1377
▁dirty	-1378
▁found	-1379
▁glass	-1380
▁mason	-1381
▁photo	-1382
▁wrong	-1383
▁behind	-1384
▁course	-1385
▁forgot	-1386
▁garden	-1387
▁ginger	-1388
▁helmet	-1389
▁sunday	-1390
▁another	-1391
▁arrived	-1392
▁through	-1393
▁walking	-1394
▁worship	-1395
▁happened	-1396
00	-1397
li	-1398
lt	-1399
chi	-1400
ize	-1401
lic	-1402
man	-1403
ory	-1404
til	-1405
▁da	-1406
▁di	-1407
▁es	-1408
ates	-1409
gram	-1410
pect	-1411
wani	-1412
▁atm	-1413
▁din	-1414
▁exc	-1415
▁ill	-1416
▁low	-1417
▁ref	-1418
▁reg	-1419
▁sli	-1420
▁sow	-1421
▁ten	-1422
▁top	-1423
ancha	-1424
azing	-1425
ready	-1426
ually	-1427
▁clim	-1428
▁dark	-1429
▁dest	-1430
▁exam	-1431
▁feet	-1432
▁hung	-1433
▁hurt	-1434
▁kilo	-1435
▁lock	-1436
▁neem	-1437
▁post	-1438
▁ritu	-1439
▁safe	-1440
▁scre	-1441
▁took	-1442
▁alone	-1443
▁crack	-1444
▁eaten	-1445
▁given	-1446
▁guest	-1447
▁motor	-1448
▁point	-1449
▁pract	-1450
▁press	-1451
▁quiet	-1452
▁bucket	-1453
▁forget	-1454
▁houses	-1455
▁pancha	-1456
▁plants	-1457
▁sowing	-1458
ulations	-1459
▁already	-1460
▁biggest	-1461
▁kumaoni	-1462
▁process	-1463
▁building	-1464
▁firewood	-1465
▁haldwani	-1466
▁medicine	-1467
▁sleeping	-1468
▁somewhere	-1469
▁completely	-1470
ai	-1471
by	-1472
me	-1473
up	-1474
wa	-1475
ask	-1476
aul	-1477
ded	-1478
umb	-1479
war	-1480
▁ut	-1481
bile	-1482
chie	-1483
form	-1484
head	-1485
ines	-1486
llow	-1487
medi	-1488
peci	-1489
roat	-1490
▁inv	-1491
▁jag	-1492
▁mus	-1493
▁nam	-1494
▁pin	-1495
▁vot	-1496
asant	-1497
ccess	-1498
▁cong	-1499
▁fell	-1500
▁flow	-1501
▁iron	-1502
▁jour	-1503
▁lang	-1504
▁lost	-1505
▁luck	-1506
▁mine	-1507
▁pick	-1508
▁roti	-1509
▁till	-1510
▁writ	-1511
ousand	-1512
▁broke	-1513
▁climb	-1514
▁early	-1515
▁fixed	-1516
▁guard	-1517
▁helps	-1518
▁juice	-1519
▁reach	-1520
▁women	-1521
▁announ	-1522
▁dinner	-1523
▁direct	-1524
▁especi	-1525
▁expens	-1526
▁handle	-1527
▁hungry	-1528
▁immedi	-1529
▁mobile	-1530
▁signif	-1531
▁slowly	-1532
▁stones	-1533
▁throat	-1534
▁arrange	-1535
▁burning	-1536
▁congrat	-1537
▁holiday	-1538
▁journey	-1539
▁meeting	-1540
▁success	-1541
▁ceremony	-1542
▁thousand	-1543
▁different	-1544
▁happiness	-1545
▁increased	-1546
▁especially	-1547
▁comfortably	-1548
▁immediately	-1549
▁congratulations	-1550
cy	-1551
di	-1552
ey	-1553
ma	-1554
ier	-1555
led	-1556
nts	-1557
ove	-1558
set	-1559
umn	-1560
▁ed	-1561
▁gh	-1562
aken	-1563
gery	-1564
ided	-1565
nect	-1566
osit	-1567
utes	-1568
ying	-1569
▁alr	-1570
▁ban	-1571
▁bha	-1572
▁cor	-1573
▁dam	-1574
▁pan	-1575
▁pat	-1576
▁pow	-1577
▁sur	-1578
▁ton	-1579
ustom	-1580
▁area	-1581
▁calf	-1582
▁cond	-1583
▁nose	-1584
▁rate	-1585
▁real	-1586
▁ring	-1587
▁says	-1588
▁sour	-1589
▁told	-1590
▁avail	-1591
▁birds	-1592
▁boars	-1593
▁close	-1594
▁cross	-1595
▁hours	-1596
▁scare	-1597
▁taken	-1598
▁tower	-1599
▁white	-1600
▁autumn	-1601
▁batter	-1602
▁custom	-1603
▁danger	-1604
▁famous	-1605
▁fertil	-1606
▁ground	-1607
▁myself	-1608
▁needed	-1609
▁powder	-1610
▁screen	-1611
▁signal	-1612
▁sweets	-1613
▁trying	-1614
▁alright	-1615
▁company	-1616
▁flowers	-1617
▁jaggery	-1618
▁mustard	-1619
▁singing	-1620
▁tonight	-1621
▁vehicle	-1622
▁waiting	-1623
▁starting	-1624
▁available	-1625
▁expensive	-1626
no	-1627
ced	-1628
gth	-1629
khe	-1630
osp	-1631
ott	-1632
rig	-1633
rit	-1634
urs	-1635
avor	-1636
band	-1637
book	-1638
iest	-1639
line	-1640
mato	-1641
mora	-1642
▁ang	-1643
▁bab	-1644
▁ben	-1645
▁box	-1646
▁cuc	-1647
▁ext	-1648
▁eye	-1649
▁fan	-1650
▁key	-1651
▁lab	-1652
▁lun	-1653
▁met	-1654
▁rel	-1655
▁sky	-1656
▁smo	-1657
▁tor	-1658
illed	-1659
ument	-1660
vered	-1661
▁both	-1662
▁busy	-1663
▁conf	-1664
▁coun	-1665
▁foot	-1666
▁goes	-1667
▁hail	-1668
▁holi	-1669
▁lent	-1670
▁less	-1671
▁omen	-1672
▁pipe	-1673
▁pros	-1674
▁pump	-1675
▁rani	-1676
▁rece	-1677
▁sand	-1678
▁shiv	-1679
rength	-1680
ternet	-1681
▁birth	-1682
▁books	-1683
▁caref	-1684
▁daily	-1685
▁deepu	-1686
▁favor	-1687
▁feast	-1688
▁green	-1689
▁lemon	-1690
▁mater	-1691
▁often	-1692
▁paper	-1693
▁quest	-1694
▁remed	-1695
▁share	-1696
▁singh	-1697
▁snake	-1698
▁tasty	-1699
▁thick	-1700
▁works	-1701
▁candid	-1702
▁crying	-1703
▁dreams	-1704
▁driver	-1705
▁itself	-1706
▁manage	-1707
▁manure	-1708
▁nature	-1709
▁ruined	-1710
▁stream	-1711
▁tomato	-1712
▁battery	-1713
▁believe	-1714
▁connect	-1715
▁covered	-1716
▁crowded	-1717
▁deposit	-1718
▁message	-1719
▁network	-1720
▁prepare	-1721
▁stopped	-1722
▁talking	-1723
▁terrace	-1724
▁washing	-1725
▁worried	-1726
▁election	-1727
▁fertiliz	-1728
▁homework	-1729
▁internet	-1730
▁standing	-1731
▁strength	-1732
▁studying	-1733
▁whatever	-1734
▁procession	-1735
bo	-1736
da	-1737
dd	-1738
gy	-1739
ks	-1740
mi	-1741
aps	-1742
cal	-1743
gle	-1744
ial	-1745
nal	-1746
ple	-1747
rib	-1748
sol	-1749
ura	-1750
▁pm	-1751
adha	-1752
ched	-1753
come	-1754
ious	-1755
irit	-1756
khet	-1757
lief	-1758
lish	-1759
mbol	-1760
sapp	-1761
ssip	-1762
wali	-1763
▁ate	-1764
▁bor	-1765
▁cre	-1766
▁des	-1767
▁eas	-1768
▁hum	-1769
▁law	-1770
▁org	-1771
▁pit	-1772
▁ste	-1773
▁tie	-1774
asted	-1775
ative	-1776
pping	-1777
▁bear	-1778
▁body	-1779
▁burn	-1780
▁chew	-1781
▁danc	-1782
▁dead	-1783
▁dear	-1784
▁ener	-1785
▁gram	-1786
▁huge	-1787
▁mand	-1788
▁mill	-1789
▁poor	-1790
▁rope	-1791
▁snow	-1792
▁spic	-1793
▁thir	-1794
▁wake	-1795
adhaar	-1796
▁becom	-1797
▁cough	-1798
▁crops	-1799
▁dance	-1800
▁elder	-1801
▁honey	-1802
▁invit	-1803
▁later	-1804
▁rainy	-1805
▁teach	-1806
▁trans	-1807
▁almora	-1808
▁bright	-1809
▁cattle	-1810
▁cooked	-1811
▁elders	-1812
▁gossip	-1813
▁living	-1814
▁nearby	-1815
▁pandit	-1816
▁relief	-1817
▁spirit	-1818
▁symbol	-1819
▁aadhaar	-1820
▁counter	-1821
▁leaking	-1822
▁minutes	-1823
▁plowing	-1824
▁prosper	-1825
▁stories	-1826
▁ranikhet	-1827
▁whatsapp	-1828
▁childhood	-1829
▁dangerous	-1830
cl	-1831
enc	-1832
eng	-1833
era	-1834
fit	-1835
ich	-1836
igh	-1837
ins	-1838
mun	-1839
res	-1840
uce	-1841
urt	-1842
xen	-1843
▁ac	-1844
▁ef	-1845
▁ga	-1846
▁ge	-1847
▁ki	-1848
▁ur	-1849
▁vo	-1850
aced	-1851
atur	-1852
avel	-1853
cest	-1854
ides	-1855
ises	-1856
ital	-1857
rant	-1858
sect	-1859
swer	-1860
ween	-1861
well	-1862
▁avo	-1863
▁bat	-1864
▁bed	-1865
▁bon	-1866
▁dig	-1867
▁gol	-1868
▁hus	-1869
▁ind	-1870
▁joy	-1871
▁men	-1872
▁mou	-1873
▁pal	-1874
▁sor	-1875
▁sub	-1876
▁tru	-1877
▁wet	-1878
▁wow	-1879
aight	-1880
ating	-1881
ities	-1882
iving	-1883
riage	-1884
▁aunt	-1885
▁bath	-1886
▁boys	-1887
▁felt	-1888
▁file	-1889
▁girl	-1890
▁gold	-1891
▁laug	-1892
▁leaf	-1893
▁line	-1894
▁mang	-1895
▁oxen	-1896
▁past	-1897
▁ripe	-1898
▁vide	-1899
arents	-1900
ssible	-1901
▁angry	-1902
▁earth	-1903
▁enter	-1904
▁extra	-1905
▁grind	-1906
▁level	-1907
▁local	-1908
▁lunch	-1909
▁mohan	-1910
▁roots	-1911
▁sharp	-1912
▁spoon	-1913
▁storm	-1914
▁stuck	-1915
▁takes	-1916
▁trust	-1917
▁uncle	-1918
▁upset	-1919
▁utens	-1920
▁voice	-1921
cessary	-1922
▁ancest	-1923
▁answer	-1924
▁bought	-1925
▁commun	-1926
▁destro	-1927
▁diwali	-1928
▁effect	-1929
▁having	-1930
▁inform	-1931
▁insect	-1932
▁ritual	-1933
▁afterno	-1934
▁against	-1935
▁amazing	-1936
▁between	-1937
▁cowshed	-1938
▁decided	-1939
▁english	-1940
▁healthy	-1941
▁husband	-1942
▁windows	-1943
▁anywhere	-1944
▁directly	-1945
▁favorite	-1946
▁marriage	-1947
▁problems	-1948
▁straight	-1949
▁delicious	-1950
▁prosperity	-1951
'?	-1952
).	-1953
ny	-1954
oy	-1955
ps	-1956
ts	-1957
uk	-1958
ets	-1959
ged	-1960
hai	-1961
hol	-1962
hor	-1963
lls	-1964
oes	-1965
oom	-1966
sel	-1967
ulf	-1968
use	-1969
yat	-1970
▁ho	-1971
▁kg	-1972
▁ty	-1973
ache	-1974
anch	-1975
anda	-1976
arch	-1977
ered	-1978
ighb	-1979
ipan	-1980
ipur	-1981
mber	-1982
ntil	-1983
oman	-1984
pons	-1985
ries	-1986
▁adv	-1987
▁art	-1988
▁dei	-1989
▁fet	-1990
▁fif	-1991
▁isn	-1992
▁kne	-1993
▁lou	-1994
▁por	-1995
▁pun	-1996
▁pur	-1997
▁ran	-1998
▁ris	-1999
▁sac	-2000
▁tin	-2001
▁var	-2002
▁vol	-2003
▁wis	-2004
▁yog	-2005
ality	-2006
aster	-2007
bably	-2008
harge	-2009
ience	-2010
ments	-2011
tyard	-2012
utely	-2013
ution	-2014
▁ache	-2015
▁baby	-2016
▁bags	-2017
▁curd	-2018
▁fare	-2019
▁fulf	-2020
▁gave	-2021
▁lamp	-2022
▁loss	-2023
▁pest	-2024
▁plan	-2025
▁prom	-2026
▁prov	-2027
▁puja	-2028
▁roam	-2029
▁sile	-2030
▁skin	-2031
▁soft	-2032
▁subs	-2033
▁test	-2034
▁thin	-2035
ulture	-2036
▁absol	-2037
▁avoid	-2038
▁blood	-2039
▁dried	-2040
▁hills	-2041
▁hurry	-2042
▁knows	-2043
▁lucky	-2044
▁secon	-2045
▁shiva	-2046
▁shoes	-2047
▁spent	-2048
▁thorn	-2049
▁those	-2050
▁tooth	-2051
▁touch	-2052
▁woman	-2053
▁finger	-2054
▁finish	-2055
▁guests	-2056
▁jaipur	-2057
▁neighb	-2058
▁others	-2059
▁priest	-2060
▁reserv	-2061
▁simple	-2062
▁variet	-2063
▁yellow	-2064
▁compost	-2065
▁contain	-2066
▁dancing	-2067
▁install	-2068
▁lentils	-2069
▁letters	-2070
▁motorcy	-2071
▁parents	-2072
▁plaster	-2073
▁program	-2074
▁quality	-2075
▁raining	-2076
▁studies	-2077
▁brothers	-2078
▁constant	-2079
▁maternal	-2080
▁peaceful	-2081
▁pleasant	-2082
▁potatoes	-2083
▁practice	-2084
▁probably	-2085
▁tomatoes	-2086
▁watching	-2087
▁yourself	-2088
▁blessings	-2089
▁candidate	-2090
▁carefully	-2091
▁community	-2092
▁courtyard	-2093
▁happening	-2094
▁medicines	-2095
▁necessary	-2096
▁panchayat	-2097
▁signifies	-2098
▁absolutely	-2099
▁fertilizer	-2100
▁reservation	-2101
eg	-2102
ib	-2103
my	-2104
xe	-2105
ais	-2106
aus	-2107
eev	-2108
gin	-2109
idd	-2110
oop	-2111
rol	-2112
une	-2113
vie	-2114
▁ev	-2115
▁id	-2116
....	-2117
acks	-2118
ener	-2119
fire	-2120
hatt	-2121
icer	-2122
indi	-2123
llen	-2124
most	-2125
pump	-2126
rect	-2127
vent	-2128
▁ago	-2129
▁ash	-2130
▁bot	-2131
▁fil	-2132
▁lak	-2133
▁oak	-2134
▁occ	-2135
▁pak	-2136
▁pap	-2137
▁par	-2138
▁vac	-2139
▁val	-2140
aired	-2141
eding	-2142
iling	-2143
orary	-2144
ranti	-2145
▁army	-2146
▁bore	-2147
▁camp	-2148
▁chem	-2149
▁clay	-2150
▁cott	-2151
▁date	-2152
▁fear	-2153
▁fort	-2154
▁gods	-2155
▁golu	-2156
▁haha	-2157
▁hosp	-2158
▁legs	-2159
▁mind	-2160
▁moon	-2161
▁nurs	-2162
▁pill	-2163
▁rare	-2164
▁rent	-2165
▁sank	-2166
▁save	-2167
▁sche	-2168
▁sent	-2169
▁shir	-2170
▁soap	-2171
▁sore	-2172
▁bloom	-2173
▁brave	-2174
▁chick	-2175
▁condu	-2176
▁curry	-2177
▁deity	-2178
▁drive	-2179
▁eight	-2180
▁excit	-2181
▁fifty	-2182
▁gener	-2183
▁grown	-2184
▁illeg	-2185
▁loose	-2186
▁mixed	-2187
▁mouth	-2188
▁movie	-2189
▁party	-2190
▁phool	-2191
▁shall	-2192
▁slipp	-2193
▁spade	-2194
▁stain	-2195
▁truth	-2196
▁until	-2197
▁upper	-2198
▁whose	-2199
▁world	-2200
▁almost	-2201
▁auntie	-2202
▁borrow	-2203
▁caught	-2204
▁channe	-2205
▁common	-2206
▁fridge	-2207
▁fruits	-2208
▁garlic	-2209
▁gather	-2210
▁mandua	-2211
▁nights	-2212
▁online	-2213
▁pandey	-2214
▁ramesh	-2215
▁remedy	-2216
▁sacred	-2217
▁second	-2218
▁stored	-2219
▁thirst	-2220
▁wealth	-2221
▁yogurt	-2222
▁barking	-2223
▁calling	-2224
▁destroy	-2225
▁hurting	-2226
▁insects	-2227
▁mischie	-2228
▁nursery	-2229
▁officer	-2230
▁reading	-2231
▁require	-2232
▁respect	-2233
▁respons	-2234
▁station	-2235
▁studied	-2236
▁thought	-2237
▁believed	-2238
▁climbing	-2239
▁handpump	-2240
▁increase	-2241
▁learning	-2242
▁pressure	-2243
▁repaired	-2244
▁spoonful	-2245
▁afternoon	-2246
▁complaint	-2247
▁effective	-2248
▁sankranti	-2249
▁temporary	-2250
▁celebrated	-2251
▁everywhere	-2252
▁friendship	-2253
▁celebration	-2254
▁preparations	-2255
ga	-2256
gs	-2257
ta	-2258
amb	-2259
ana	-2260
bha	-2261
com	-2262
ept	-2263
eth	-2264
ges	-2265
hen	-2266
nce	-2267
ned	-2268
ord	-2269
orm	-2270
ted	-2271
ues	-2272
ugg	-2273
ugh	-2274
uls	-2275
ven	-2276
▁ap	-2277
aces	-2278
ails	-2279
ames	-2280
asad	-2281
dden	-2282
edom	-2283
enty	-2284
eted	-2285
hang	-2286
keep	-2287
uage	-2288
zing	-2289
▁ank	-2290
▁axe	-2291
▁bas	-2292
▁bee	-2293
▁dat	-2294
▁enj	-2295
▁fly	-2296
▁fol	-2297
▁hit	-2298
▁ins	-2299
▁kid	-2300
▁lay	-2301
▁lik	-2302
▁mag	-2303
▁mit	-2304
▁nut	-2305
▁tow	-2306
▁war	-2307
asing	-2308
asure	-2309
board	-2310
haura	-2311
lings	-2312
rance	-2313
ribut	-2314
utney	-2315
vings	-2316
▁apps	-2317
▁beat	-2318
▁bird	-2319
▁devi	-2320
▁draw	-2321
▁drum	-2322
▁expl	-2323
▁fast	-2324
▁frag	-2325
▁geet	-2326
▁hall	-2327
▁harm	-2328
▁hasn	-2329
▁hire	-2330
▁lead	-2331
▁lone	-2332
▁lose	-2333
▁loud	-2334
▁note	-2335
▁pres	-2336
▁pure	-2337
▁quar	-2338
▁rout	-2339
▁serv	-2340
▁soak	-2341
▁step	-2342
▁stre	-2343
▁tall	-2344
▁task	-2345
▁tied	-2346
▁vote	-2347
engers	-2348
ension	-2349
penter	-2350
umbers	-2351
▁activ	-2352
▁aipan	-2353
▁begin	-2354
▁blank	-2355
▁cards	-2356
▁chair	-2357
▁chand	-2358
▁chill	-2359
▁color	-2360
▁decor	-2361
▁drank	-2362
▁fence	-2363
▁fetch	-2364
▁ghugh	-2365
▁goats	-2366
▁group	-2367
▁hindi	-2368
▁irrig	-2369
▁lower	-2370
▁order	-2371
▁owner	-2372
▁plate	-2373
▁proud	-2374
▁secre	-2375
▁sight	-2376
▁sorry	-2377
▁stops	-2378
▁table	-2379
▁tapuk	-2380
▁tight	-2381
▁train	-2382
▁troub	-2383
▁waste	-2384
▁weeds	-2385
▁animal	-2386
▁bottle	-2387
▁butter	-2388
▁cement	-2389
▁clever	-2390
▁contin	-2391
▁energy	-2392
▁fallen	-2393
▁harish	-2394
▁higher	-2395
▁jaagar	-2396
▁mithai	-2397
▁papers	-2398
▁phones	-2399
▁played	-2400
▁prasad	-2401
▁profit	-2402
▁reason	-2403
▁result	-2404
▁salary	-2405
▁shared	-2406
▁single	-2407
▁starts	-2408
▁strict	-2409
▁subsid	-2410
▁twenty	-2411
▁washed	-2412
▁wishes	-2413
ichhaura	-2414
▁becomes	-2415
▁bonfire	-2416
▁chutney	-2417
▁correct	-2418
▁entered	-2419
▁fortune	-2420
▁freedom	-2421
▁growing	-2422
▁meaning	-2423
▁missing	-2424
▁prayers	-2425
▁putting	-2426
▁receive	-2427
▁roasted	-2428
▁sharpen	-2429
▁support	-2430
▁thirsty	-2431
▁wearing	-2432
▁written	-2433
▁younger	-2434
▁borewell	-2435
▁cucumber	-2436
▁headache	-2437
▁language	-2438
▁question	-2439
▁requires	-2440
▁solution	-2441
▁utensils	-2442
▁ancestors	-2443
▁carpenter	-2444
▁listening	-2445
▁harvesting	-2446
▁invitation	-2447
ax	-2448
ia	-2449
sl	-2450
uc	-2451
aff	-2452
aid	-2453
ays	-2454
bow	-2455
ems	-2456
end	-2457
ety	-2458
hot	-2459
ida	-2460
iew	-2461
iod	-2462
ote	-2463
que	-2464
tar	-2465
ual	-2466
ube	-2467
und	-2468
▁ka	-2469
aged	-2470
ager	-2471
anic	-2472
ases	-2473
ator	-2474
cell	-2475
cles	-2476
dern	-2477
dess	-2478
erve	-2479
ffee	-2480
hoda	-2481
icip	-2482
illi	-2483
ipen	-2484
ives	-2485
ject	-2486
ldam	-2487
oras	-2488
orer	-2489
orse	-2490
ping	-2491
rest	-2492
sing	-2493
word	-2494
ycle	-2495
▁age	-2496
▁bal	-2497
▁ble	-2498
▁cap	-2499
▁cup	-2500
▁div	-2501
▁doc	-2502
▁fut	-2503
▁gwa	-2504
▁lat	-2505
▁liz	-2506
▁maj	-2507
▁mom	-2508
▁nav	-2509
▁sat	-2510
▁une	-2511
▁wel	-2512
actor	-2513
adays	-2514
aries	-2515
cious	-2516
cking	-2517
dings	-2518
gress	-2519
ishes	-2520
ivate	-2521
light	-2522
ratri	-2523
story	-2524
ushed	-2525
water	-2526
▁able	-2527
▁bare	-2528
▁cage	-2529
▁cash	-2530
▁cons	-2531
▁disc	-2532
▁easy	-2533
▁evil	-2534
▁fail	-2535
▁fenc	-2536
▁fold	-2537
▁folk	-2538
▁game	-2539
▁glad	-2540
▁hang	-2541
▁king	-2542
▁lime	-2543
▁loan	-2544
▁mist	-2545
▁move	-2546
▁neck	-2547
▁nerv	-2548
▁peac	-2549
▁pict	-2550
▁repl	-2551
▁risk	-2552
▁shed	-2553
▁slip	-2554
▁soup	-2555
▁tong	-2556
▁torn	-2557
▁view	-2558
ingers	-2559
ounder	-2560
selves	-2561
▁ahead	-2562
▁beans	-2563
▁bench	-2564
▁bigha	-2565
▁catch	-2566
▁cause	-2567
▁clock	-2568
▁cover	-2569
▁crows	-2570
▁devta	-2571
▁doors	-2572
▁enjoy	-2573
▁exper	-2574
▁frame	-2575
▁geeta	-2576
▁gifts	-2577
▁gilli	-2578
▁grain	-2579
▁greet	-2580
▁headm	-2581
▁horse	-2582
▁jhoda	-2583
▁known	-2584
▁labor	-2585
▁lives	-2586
▁maize	-2587
▁meter	-2588
▁muddy	-2589
▁music	-2590
▁natur	-2591
▁occas	-2592
▁onion	-2593
▁polit	-2594
▁ripen	-2595
▁route	-2596
▁salty	-2597
▁scold	-2598
▁shade	-2599
▁sheet	-2600
▁shirt	-2601
▁slept	-2602
▁smoke	-2603
▁spicy	-2604
▁stays	-2605
▁steal	-2606
▁steep	-2607
▁video	-2608
cellent	-2609
ruction	-2610
▁basket	-2611
▁beauty	-2612
▁branch	-2613
▁brings	-2614
▁bushes	-2615
▁coffee	-2616
▁colors	-2617
▁confir	-2618
▁cotton	-2619
▁couldn	-2620
▁damage	-2621
▁design	-2622
▁dishes	-2623
▁eighty	-2624
▁excuse	-2625
▁future	-2626
▁greens	-2627
▁hahaha	-2628
▁landsl	-2629
▁latest	-2630
▁member	-2631
▁modern	-2632
▁months	-2633
▁period	-2634
▁photos	-2635
▁remove	-2636
▁search	-2637
▁singer	-2638
▁smells	-2639
▁smooth	-2640
▁sounds	-2641
▁source	-2642
▁spread	-2643
▁sudden	-2644
▁supply	-2645
▁thread	-2646
▁worshi	-2647
▁advance	-2648
▁buckets	-2649
▁chandan	-2650
▁changed	-2651
▁cracked	-2652
▁crushed	-2653
▁cutting	-2654
▁falling	-2655
▁farmers	-2656
▁fencing	-2657
▁flowing	-2658
▁goddess	-2659
▁grandma	-2660
▁gwaldam	-2661
▁happily	-2662
▁hearing	-2663
▁history	-2664
▁illegal	-2665
▁illness	-2666
▁keeping	-2667
▁laborer	-2668
▁mangoes	-2669
▁nervous	-2670
▁organic	-2671
▁picture	-2672
▁planted	-2673
▁ringing	-2674
▁savings	-2675
▁setting	-2676
▁sweater	-2677
▁turning	-2678
▁usually	-2679
▁writing	-2680
▁actually	-2681
▁announce	-2682
▁bleeding	-2683
▁bringing	-2684
▁carrying	-2685
▁charging	-2686
▁document	-2687
▁holidays	-2688
▁hospital	-2689
▁leopards	-2690
▁neighbor	-2691
▁nowadays	-2692
▁particip	-2693
▁passbook	-2694
▁precious	-2695
▁required	-2696
▁shopkeep	-2697
▁vacation	-2698
▁villages	-2699
▁weddings	-2700
▁announced	-2701
▁destroyed	-2702
▁excellent	-2703
▁compounder	-2704
▁connection	-2705
▁foundation	-2706
▁passengers	-2707
▁successful	-2708
▁beautifully	-2709
▁preparation	-2710
bb	-2711
cr	-2712
do	-2713
gn	-2714
hu	-2715
ik	-2716
jw	-2717
lo	-2718
ub	-2719
wl	-2720
ze	-2721
abb	-2722
aks	-2723
ala	-2724
anj	-2725
arr	-2726
bes	-2727
cer	-2728
cto	-2729
ead	-2730
ggs	-2731
hag	-2732
hal	-2733
hit	-2734
ics	-2735
ifl	-2736
ime	-2737
kar	-2738
lax	-2739
lla	-2740
nut	-2741
oke	-2742
pal	-2743
ush	-2744
vat	-2745
wan	-2746
wel	-2747
ybr	-2748
▁je	-2749
▁pa	-2750
▁ra	-2751
▁tv	-2752
afal	-2753
airs	-2754
aker	-2755
arua	-2756
atra	-2757
auli	-2758
avas	-2759
ccup	-2760
crow	-2761
dspe	-2762
ends	-2763
epar	-2764
hold	-2765
ibil	-2766
idai	-2767
ider	-2768
illy	-2769
inal	-2770
kani	-2771
land	-2772
laws	-2773
made	-2774
male	-2775
mbre	-2776
mith	-2777
ndar	-2778
opes	-2779
orts	-2780
owed	-2781
owry	-2782
rise	-2783
stem	-2784
ters	-2785
utke	-2786
vive	-2787
▁ajw	-2788
▁ber	-2789
▁bow	-2790
▁fur	-2791
▁gat	-2792
▁hon	-2793
▁ink	-2794
▁lic	-2795
▁lif	-2796
▁mad	-2797
▁nar	-2798
▁pen	-2799
▁pig	-2800
▁poo	-2801
▁pul	-2802
▁scr	-2803
▁shy	-2804
▁sil	-2805
▁spl	-2806
▁upd	-2807
▁upi	-2808
affic	-2809
agarh	-2810
agers	-2811
aging	-2812
cient	-2813
clock	-2814
ently	-2815
icial	-2816
iddle	-2817
inach	-2818
ledge	-2819
paper	-2820
plant	-2821
ption	-2822
smith	-2823
terin	-2824
ungle	-2825
ybrid	-2826
▁band	-2827
▁bene	-2828
▁bill	-2829
▁bull	-2830
▁bund	-2831
▁caul	-2832
▁chur	-2833
▁cris	-2834
▁deer	-2835
▁dise	-2836
▁dish	-2837
▁dogs	-2838
▁edge	-2839
▁educ	-2840
▁eggs	-2841
▁hari	-2842
▁idol	-2843
▁impo	-2844
▁jack	-2845
▁jump	-2846
▁kids	-2847
▁knew	-2848
▁lend	-2849
▁libr	-2850
▁mela	-2851
▁octo	-2852
▁peel	-2853
▁pots	-2854
▁ramu	-2855
▁rash	-2856
▁rock	-2857
▁rule	-2858
▁sapl	-2859
▁scar	-2860
▁seal	-2861
▁sold	-2862
▁spot	-2863
▁star	-2864
▁suff	-2865
▁unif	-2866
▁ways	-2867
▁wire	-2868
action	-2869
anches	-2870
atures	-2871
eshwar	-2872
fected	-2873
liness	-2874
▁achie	-2875
▁agric	-2876
▁along	-2877
▁appro	-2878
▁areas	-2879
▁asked	-2880
▁bhatt	-2881
▁bidai	-2882
▁broom	-2883
▁chait	-2884
▁chili	-2885
▁costs	-2886
▁count	-2887
▁dowry	-2888
▁dress	-2889
▁exams	-2890
▁games	-2891
▁ghost	-2892
▁grace	-2893
▁gutke	-2894
▁holes	-2895
▁humid	-2896
▁impro	-2897
▁items	-2898
▁liked	-2899
▁marks	-2900
▁memor	-2901
▁pinch	-2902
▁pride	-2903
▁pumpk	-2904
▁relax	-2905
▁reset	-2906
▁rotis	-2907
▁sense	-2908
▁separ	-2909
▁sings	-2910
▁space	-2911
▁stall	-2912
▁stars	-2913
▁sweep	-2914
▁swell	-2915
▁throw	-2916
▁tools	-2917
▁topic	-2918
▁torch	-2919
▁troop	-2920
▁umbre	-2921
▁value	-2922
▁votes	-2923
▁whist	-2924
▁words	-2925
hatarua	-2926
iflower	-2927
ritious	-2928
tenance	-2929
▁aching	-2930
▁across	-2931
▁ajwain	-2932
▁bridge	-2933
▁chance	-2934
▁copper	-2935
▁corner	-2936
▁digest	-2937
▁female	-2938
▁hiccup	-2939
▁hybrid	-2940
▁jungle	-2941
▁langur	-2942
▁loudly	-2943
▁menace	-2944
▁minute	-2945
▁missed	-2946
▁moving	-2947
▁opened	-2948
▁organi	-2949
▁packed	-2950
▁pepper	-2951
▁pithor	-2952
▁police	-2953
▁quarre	-2954
▁radish	-2955
▁remain	-2956
▁silver	-2957
▁slight	-2958
▁snacks	-2959
▁sprain	-2960
▁stress	-2961
▁submit	-2962
▁system	-2963
▁tapuki	-2964
▁thorny	-2965
▁travel	-2966
▁wanted	-2967
dspeaker	-2968
ensation	-2969
ributing	-2970
▁ancient	-2971
▁berries	-2972
▁channel	-2973
▁control	-2974
▁corners	-2975
▁crossed	-2976
▁depends	-2977
▁driving	-2978
▁explain	-2979
▁fingers	-2980
▁fulfill	-2981
▁further	-2982
▁grazing	-2983
▁instead	-2984
▁justice	-2985
▁manager	-2986
▁mistake	-2987
▁natural	-2988
▁needles	-2989
▁october	-2990
▁painful	-2991
▁pension	-2992
▁postman	-2993
▁prevent	-2994
▁provide	-2995
▁rainbow	-2996
▁request	-2997
▁results	-2998
▁seasons	-2999
▁selling	-3000
▁service	-3001
▁silence	-3002
▁sisters	-3003
▁spinach	-3004
▁teasing	-3005
▁telling	-3006
▁towards	-3007
▁traffic	-3008
▁variety	-3009
▁veterin	-3010
▁weeding	-3011
▁welcome	-3012
▁winning	-3013
▁birthday	-3014
▁blessing	-3015
▁branches	-3016
▁breaking	-3017
▁changing	-3018
▁cleaning	-3019
▁dampness	-3020
▁distance	-3021
▁evenings	-3022
▁forehead	-3023
▁kilogram	-3024
▁laborers	-3025
▁laughing	-3026
▁mischief	-3027
▁offering	-3028
▁panchami	-3029
▁possible	-3030
▁prepared	-3031
▁received	-3032
▁recharge	-3033
▁shortage	-3034
▁slippery	-3035
▁sunlight	-3036
▁terraces	-3037
▁touching	-3038
▁umbrella	-3039
▁vehicles	-3040
▁visiting	-3041
▁celebrate	-3042
▁completed	-3043
▁condition	-3044
▁conductor	-3045
▁confirmed	-3046
▁cucumbers	-3047
▁fragrance	-3048
▁greetings	-3049
▁household	-3050
▁knowledge	-3051
▁landslide	-3052
▁newspaper	-3053
▁pichhaura	-3054
▁questions	-3055
▁rainwater	-3056
▁scarecrow	-3057
▁seedlings	-3058
▁signature	-3059
▁villagers	-3060
▁blacksmith	-3061
▁impossible	-3062
▁motorcycle	-3063
▁nutritious	-3064
▁shopkeeper	-3065
▁traditions	-3066
▁transplant	-3067
▁worshipped	-3068
▁cauliflower	-3069
▁loudspeaker	-3070
▁maintenance	-3071
▁pithoragarh	-3072
▁remembering	-3073
▁responsibil	-3074
▁announcement	-3075
▁arrangements	-3076
▁construction	-3077
el	-3078
fl	-3079
ns	-3080
oc	-3081
▁z	-3082
').	-3083
adh	-3084
adi	-3085
ami	-3086
arp	-3087
att	-3088
axi	-3089
azy	-3090
bit	-3091
cha	-3092
cup	-3093
dra	-3094
els	-3095
ene	-3096
gic	-3097
hya	-3098
ife	-3099
igr	-3100
ike	-3101
iny	-3102
ior	-3103
irr	-3104
izz	-3105
ler	-3106
mes	-3107
min	-3108
ndr	-3109
nty	-3110
oli	-3111
oot	-3112
rew	-3113
ris	-3114
ule	-3115
uli	-3116
ume	-3117
uty	-3118
▁fa	-3119
▁fi	-3120
akha	-3121
arks	-3122
ashi	-3123
bear	-3124
cast	-3125
chan	-3126
ches	-3127
city	-3128
eech	-3129
eros	-3130
fall	-3131
gent	-3132
hant	-3133
hoot	-3134
hwar	-3135
ices	-3136
iled	-3137
iles	-3138
imla	-3139
isan	-3140
ival	-3141
just	-3142
kend	-3143
ocks	-3144
oves	-3145
rega	-3146
tage	-3147
tery	-3148
tube	-3149
ulsi	-3150
umes	-3151
urdy	-3152
urse	-3153
wari	-3154
▁ant	-3155
▁att	-3156
▁cam	-3157
▁cen	-3158
▁det	-3159
▁fac	-3160
▁fit	-3161
▁ice	-3162
▁iss	-3163
▁kha	-3164
▁lad	-3165
▁lan	-3166
▁nap	-3167
▁opp	-3168
▁pic	-3169
▁raw	-3170
▁reb	-3171
▁rid	-3172
▁rul	-3173
▁sam	-3174
▁soy	-3175
▁swo	-3176
▁tha	-3177
▁vet	-3178
▁wit	-3179
ached	-3180
aised	-3181
amboo	-3182
ander	-3183
anged	-3184
berry	-3185
clist	-3186
conut	-3187
crack	-3188
crete	-3189
danda	-3190
eepal	-3191
eevan	-3192
fered	-3193
getic	-3194
gnant	-3195
hered	-3196
ician	-3197
icked	-3198
ident	-3199
ified	-3200
igold	-3201
irror	-3202
ither	-3203
itude	-3204
otion	-3205
ouple	-3206
ously	-3207
redit	-3208
rible	-3209
rping	-3210
storm	-3211
uggle	-3212
▁asks	-3213
▁bark	-3214
▁beds	-3215
▁bike	-3216
▁blue	-3217
▁boar	-3218
▁brit	-3219
▁calm	-3220
▁clou	-3221
▁cult	-3222
▁data	-3223
▁deco	-3224
▁duty	-3225
▁ears	-3226
▁eart	-3227
▁fish	-3228
▁gain	-3229
▁gang	-3230
▁gran	-3231
▁held	-3232
▁horn	-3233
▁host	-3234
▁inte	-3235
▁kale	-3236
▁lack	-3237
▁lazy	-3238
▁leak	-3239
▁link	-3240
▁lips	-3241
▁lord	-3242
▁mach	-3243
▁male	-3244
▁mass	-3245
▁meal	-3246
▁melt	-3247
▁migr	-3248
▁mint	-3249
▁moss	-3250
▁pair	-3251
▁pige	-3252
▁pull	-3253
▁race	-3254
▁role	-3255
▁runs	-3256
▁sanj	-3257
▁shel	-3258
▁shoe	-3259
▁situ	-3260
▁soot	-3261
▁stat	-3262
▁stit	-3263
▁tail	-3264
▁taxi	-3265
▁team	-3266
▁town	-3267
▁trip	-3268
▁tues	-3269
▁whom	-3270
▁wrap	-3271
akhand	-3272
alwood	-3273
anding	-3274
ashion	-3275
atives	-3276
chanic	-3277
cupine	-3278
ential	-3279
ground	-3280
haghat	-3281
holiya	-3282
ically	-3283
ishing	-3284
pected	-3285
rument	-3286
urning	-3287
▁bells	-3288
▁bhoot	-3289
▁blunt	-3290
▁board	-3291
▁bound	-3292
▁bread	-3293
▁brown	-3294
▁cream	-3295
▁cubes	-3296
▁cycle	-3297
▁dense	-3298
▁drops	-3299
▁fault	-3300
▁gahat	-3301
▁girls	-3302
▁grows	-3303
▁habit	-3304
▁harsh	-3305
▁inspe	-3306
▁jeeps	-3307
▁joint	-3308
▁knife	-3309
▁landl	-3310
▁laugh	-3311
▁layer	-3312
▁leads	-3313
▁limit	-3314
▁lines	-3315
▁major	-3316
▁match	-3317
▁metho	-3318
▁moist	-3319
▁moved	-3320
▁nails	-3321
▁names	-3322
▁navel	-3323
▁nrega	-3324
▁nurse	-3325
▁pages	-3326
▁paint	-3327
▁paths	-3328
▁pests	-3329
▁pills	-3330
▁plans	-3331
▁pooja	-3332
▁print	-3333
▁resin	-3334
▁roads	-3335
▁rough	-3336
▁round	-3337
▁saree	-3338
▁satur	-3339
▁sauce	-3340
▁saved	-3341
▁scary	-3342
▁serve	-3343
▁shops	-3344
▁shout	-3345
▁slope	-3346
▁smart	-3347
▁stool	-3348
▁stove	-3349
▁teeth	-3350
▁tulsi	-3351
▁uttar	-3352
▁worse	-3353
▁wound	-3354
fection	-3355
ishment	-3356
osphere	-3357
reshing	-3358
ulation	-3359
▁adjust	-3360
▁bamboo	-3361
▁banana	-3362
▁basant	-3363
▁bigger	-3364
▁bitter	-3365
▁boiled	-3366
▁breath	-3367
▁bundle	-3368
▁burans	-3369
▁camera	-3370
▁candle	-3371
▁center	-3372
▁chilli	-3373
▁cloves	-3374
▁commit	-3375
▁couple	-3376
▁credit	-3377
▁drinks	-3378
▁drying	-3379
▁farmer	-3380
▁filter	-3381
▁flower	-3382
▁flying	-3383
▁follow	-3384
▁gargle	-3385
▁jeevan	-3386
▁killed	-3387
▁liters	-3388
▁lonely	-3389
▁longer	-3390
▁louder	-3391
▁lovely	-3392
▁millet	-3393
▁mirror	-3394
▁monday	-3395
▁naming	-3396
▁narrow	-3397
▁onions	-3398
▁peepal	-3399
▁perman	-3400
▁plenty	-3401
▁pocket	-3402
▁prayer	-3403
▁rarely	-3404
▁reduce	-3405
▁report	-3406
▁scheme	-3407
▁secret	-3408
▁silent	-3409
▁solved	-3410
▁spices	-3411
▁sports	-3412
▁street	-3413
▁sturdy	-3414
▁tongue	-3415
▁turned	-3416
▁unbear	-3417
▁urgent	-3418
▁videos	-3419
▁volume	-3420
▁walked	-3421
▁wasted	-3422
▁weight	-3423
crackers	-3424
gressive	-3425
lication	-3426
▁achieve	-3427
▁allowed	-3428
▁balance	-3429
▁blanket	-3430
▁chaitra	-3431
▁challen	-3432
▁checked	-3433
▁cleaned	-3434
▁coconut	-3435
▁courage	-3436
▁current	-3437
▁customs	-3438
▁damaged	-3439
▁doctors	-3440
▁drawing	-3441
▁drought	-3442
▁earthen	-3443
▁excited	-3444
▁fashion	-3445
▁feeding	-3446
▁forests	-3447
▁forever	-3448
▁forgive	-3449
▁garland	-3450
▁hiccups	-3451
▁holding	-3452
▁jumping	-3453
▁lantern	-3454
▁learned	-3455
▁library	-3456
▁lizards	-3457
▁lottery	-3458
▁magical	-3459
▁musical	-3460
▁offered	-3461
▁pakoras	-3462
▁peacock	-3463
▁private	-3464
▁regards	-3465
▁restart	-3466
▁rituals	-3467
▁roaming	-3468
▁sanjeev	-3469
▁schemes	-3470
▁slipped	-3471
▁spirits	-3472
▁survive	-3473
▁swollen	-3474
▁tractor	-3475
▁tuesday	-3476
▁visible	-3477
▁voltage	-3478
▁warning	-3479
▁weekend	-3480
▁withdra	-3481
▁youtube	-3482
▁affected	-3483
▁arranged	-3484
▁becoming	-3485
▁blooming	-3486
▁chholiya	-3487
▁chirping	-3488
▁churkani	-3489
▁concrete	-3490
▁diseases	-3491
▁exciting	-3492
▁fearless	-3493
▁fighting	-3494
▁goodness	-3495
▁grinding	-3496
▁helpless	-3497
▁interest	-3498
▁lohaghat	-3499
▁marigold	-3500
▁mechanic	-3501
▁memories	-3502
▁messages	-3503
▁navratri	-3504
▁notebook	-3505
▁password	-3506
▁patience	-3507
▁pleasure	-3508
▁politics	-3509
▁pregnant	-3510
▁promises	-3511
▁provides	-3512
▁radishes	-3513
▁remedies	-3514
▁returned	-3515
▁saplings	-3516
▁saturday	-3517
▁scarcity	-3518
▁speaking	-3519
▁sprained	-3520
▁stopping	-3521
▁stronger	-3522
▁struggle	-3523
▁terraced	-3524
▁terrible	-3525
▁troubles	-3526
▁watering	-3527
▁weakness	-3528
▁whenever	-3529
▁bageshwar	-3530
▁beginning	-3531
▁classroom	-3532
▁collected	-3533
▁container	-3534
▁decoction	-3535
▁elections	-3536
▁energetic	-3537
▁forgotten	-3538
▁fulfilled	-3539
▁hailstorm	-3540
▁ourselves	-3541
▁porcupine	-3542
▁preparing	-3543
▁receiving	-3544
▁relatives	-3545
▁returning	-3546
▁situation	-3547
▁varieties	-3548
▁aggressive	-3549
▁atmosphere	-3550
▁containers	-3551
▁headmaster	-3552
▁instrument	-3553
▁organizing	-3554
▁profitable	-3555
▁sandalwood	-3556
▁unbearable	-3557
▁understood	-3558
▁veterinary	-3559
▁agriculture	-3560
▁complaining	-3561
▁information	-3562
▁participate	-3563
▁firecrackers	-3564
▁motorcyclist	-3565
ah	-3566
ba	-3567
bi	-3568
co	-3569
fi	-3570
hr	-3571
ki	-3572
na	-3573
to	-3574
000	-3575
ada	-3576
agh	-3577
ane	-3578
ape	-3579
ats	-3580
bal	-3581
ban	-3582
box	-3583
bye	-3584
ces	-3585
cri	-3586
cus	-3587
cut	-3588
ear	-3589
eds	-3590
eed	-3591
een	-3592
ela	-3593
ese	-3594
gul	-3595
hma	-3596
ian	-3597
iff	-3598
ika	-3599
ila	-3600
ley	-3601
lwa	-3602
mar	-3603
nic	-3604
num	-3605
odi	-3606
ogn	-3607
ond	-3608
ora	-3609
ots	-3610
oul	-3611
ows	-3612
par	-3613
pin	-3614
ral	-3615
ret	-3616
sha	-3617
swe	-3618
tan	-3619
tee	-3620
uct	-3621
ugm	-3622
ums	-3623
urb	-3624
whe	-3625
yal	-3626
yan	-3627
▁aw	-3628
▁em	-3629
▁et	-3630
▁py	-3631
▁vi	-3632
▁vl	-3633
▁wo	-3634
adas	-3635
adun	-3636
airy	-3637
akar	-3638
akhi	-3639
asia	-3640
atha	-3641
bean	-3642
bidd	-3643
ceed	-3644
chdi	-3645
cipe	-3646
cook	-3647
ctar	-3648
dode	-3649
eral	-3650
eyed	-3651
fast	-3652
fest	-3653
five	-3654
gend	-3655
ghar	-3656
grap	-3657
grim	-3658
harp	-3659
hill	-3660
ific	-3661
ills	-3662
imum	-3663
ists	-3664
leep	-3665
lets	-3666
load	-3667
more	-3668
nath	-3669
ndra	-3670
olog	-3671
ored	-3672
ores	-3673
osas	-3674
pend	-3675
quet	-3676
ring	-3677
shmi	-3678
sure	-3679
tain	-3680
tend	-3681
uary	-3682
uild	-3683
unks	-3684
ural	-3685
uter	-3686
uwan	-3687
vati	-3688
vous	-3689
ward	-3690
▁ass	-3691
▁ast	-3692
▁baz	-3693
▁bis	-3694
▁bye	-3695
▁cho	-3696
▁cop	-3697
▁deb	-3698
▁dem	-3699
▁dub	-3700
▁eff	-3701
▁emb	-3702
▁enc	-3703
▁ess	-3704
▁fab	-3705
▁fee	-3706
▁fle	-3707
▁fog	-3708
▁fox	-3709
▁gas	-3710
▁goo	-3711
▁gro	-3712
▁inc	-3713
▁jam	-3714
▁kal	-3715
▁kau	-3716
▁khe	-3717
▁khi	-3718
▁mel	-3719
▁mos	-3720
▁mul	-3721
▁nin	-3722
▁pil	-3723
▁pop	-3724
▁raj	-3725
▁rev	-3726
▁rho	-3727
▁sen	-3728
▁squ	-3729
▁sty	-3730
▁tan	-3731
▁thu	-3732
▁tif	-3733
▁ver	-3734
▁vig	-3735
aches	-3736
acles	-3737
alebi	-3738
anyan	-3739
askar	-3740
ators	-3741
aving	-3742
bhatt	-3743
compl	-3744
ences	-3745
ening	-3746
etida	-3747
etite	-3748
icide	-3749
ision	-3750
ister	-3751
ivers	-3752
leela	-3753
ndara	-3754
neath	-3755
numan	-3756
ooter	-3757
orice	-3758
ortun	-3759
otees	-3760
oting	-3761
paste	-3762
phant	-3763
pired	-3764
reeze	-3765
riger	-3766
rishi	-3767
rooms	-3768
sweet	-3769
using	-3770
utiya	-3771
utter	-3772
velop	-3773
vents	-3774
▁alas	-3775
▁aloo	-3776
▁ants	-3777
▁asaf	-3778
▁bees	-3779
▁bond	-3780
▁bowl	-3781
▁butt	-3782
▁cabb	-3783
▁cake	-3784
▁caps	-3785
▁caus	-3786
▁chal	-3787
▁chol	-3788
▁code	-3789
▁cori	-3790
▁dehr	-3791
▁dhol	-3792
▁disp	-3793
▁dont	-3794
▁enem	-3795
▁fate	-3796
▁flat	-3797
▁fund	-3798
▁garh	-3799
▁ghar	-3800
▁glue	-3801
▁gour	-3802
▁gums	-3803
▁heal	-3804
▁hemp	-3805
▁herd	-3806
▁hole	-3807
▁icon	-3808
▁jeth	-3809
▁kite	-3810
▁laid	-3811
▁lakh	-3812
▁laws	-3813
▁lift	-3814
▁lugg	-3815
▁mask	-3816
▁math	-3817
▁matt	-3818
▁mong	-3819
▁mult	-3820
▁mush	-3821
▁nain	-3822
▁nine	-3823
▁nons	-3824
▁numb	-3825
▁opin	-3826
▁palm	-3827
▁pant	-3828
▁park	-3829
▁peas	-3830
▁poll	-3831
▁pugm	-3832
▁rele	-3833
▁repe	-3834
▁rose	-3835
▁rust	-3836
▁sarp	-3837
▁seek	-3838
▁shoo	-3839
▁snee	-3840
▁sown	-3841
▁spec	-3842
▁suck	-3843
▁surp	-3844
▁swit	-3845
▁tear	-3846
▁tent	-3847
▁text	-3848
▁tore	-3849
▁tour	-3850
▁twig	-3851
▁type	-3852
▁unex	-3853
▁upst	-3854
▁vict	-3855
▁wage	-3856
▁ward	-3857
▁wick	-3858
▁wipe	-3859
▁wise	-3860
▁worn	-3861
ampani	-3862
arrass	-3863
ateful	-3864
bidden	-3865
cedure	-3866
cooked	-3867
gharat	-3868
icient	-3869
idence	-3870
istant	-3871
itauli	-3872
jaagar	-3873
lihood	-3874
ocasia	-3875
ognize	-3876
ording	-3877
rician	-3878
uously	-3879
▁above	-3880
▁aches	-3881
▁agree	-3882
▁alive	-3883
▁aller	-3884
▁among	-3885
▁ankle	-3886
▁apart	-3887
▁apple	-3888
▁bears	-3889
▁bimla	-3890
▁breat	-3891
▁calls	-3892
▁charm	-3893
▁chest	-3894
▁cloud	-3895
▁clove	-3896
▁coins	-3897
▁confl	-3898
▁contr	-3899
▁cramp	-3900
▁dairy	-3901
▁delay	-3902
▁dough	-3903
▁drums	-3904
▁exact	-3905
▁exist	-3906
▁flies	-3907
▁focus	-3908
▁forty	-3909
▁fried	-3910
▁funny	-3911
▁gaura	-3912
▁goods	-3913
▁gopal	-3914
▁halwa	-3915
▁haven	-3916
▁herbs	-3917
▁honor	-3918
▁inaus	-3919
▁indic	-3920
▁issue	-3921
▁jages	-3922
▁jhang	-3923
▁kafal	-3924
▁keros	-3925
▁kisan	-3926
▁lying	-3927
▁madua	-3928
▁makar	-3929
▁mango	-3930
▁named	-3931
▁nause	-3932
▁patch	-3933
▁poori	-3934
▁pulse	-3935
▁quilt	-3936
▁quite	-3937
▁rates	-3938
▁refle	-3939
▁regul	-3940
▁risky	-3941
▁rules	-3942
▁sacks	-3943
▁seven	-3944
▁shake	-3945
▁shawl	-3946
▁shine	-3947
▁shiny	-3948
▁silly	-3949
▁slate	-3950
▁smile	-3951
▁speed	-3952
▁spray	-3953
▁stage	-3954
▁steam	-3955
▁steel	-3956
▁steps	-3957
▁straw	-3958
▁stret	-3959
▁stuff	-3960
▁sunny	-3961
▁talks	-3962
▁tells	-3963
▁threw	-3964
▁tough	-3965
▁trave	-3966
▁tried	-3967
▁urine	-3968
▁wants	-3969
▁woods	-3970
▁yield	-3971
agement	-3972
dodendr	-3973
fathers	-3974
grimage	-3975
harpani	-3976
ologize	-3977
osition	-3978
singals	-3979
▁accept	-3980
▁active	-3981
▁anyway	-3982
▁asleep	-3983
▁attach	-3984
▁attend	-3985
▁banned	-3986
▁banyan	-3987
▁barely	-3988
▁battle	-3989
▁breeze	-3990
▁charge	-3991
▁childs	-3992
▁choose	-3993
▁chores	-3994
▁chunks	-3995
▁cities	-3996
▁create	-3997
▁crisis	-3998
▁delete	-3999
▁disapp	-4000
▁drains	-4001
▁easily	-4002
▁ensure	-4003
▁expect	-4004
▁fabric	-4005
▁facing	-4006
▁folded	-4007
▁fought	-4008
▁google	-4009
▁gotten	-4010
▁guavas	-4011
▁hearth	-4012
▁helped	-4013
▁income	-4014
▁indeed	-4015
▁infest	-4016
▁jacket	-4017
▁legend	-4018
▁lentil	-4019
▁mainly	-4020
▁manish	-4021
▁masons	-4022
▁mature	-4023
▁middle	-4024
▁moment	-4025
▁mostly	-4026
▁nectar	-4027
▁needle	-4028
▁ninety	-4029
▁noises	-4030
▁paltan	-4031
▁patter	-4032
▁perfor	-4033
▁picked	-4034
▁picnic	-4035
▁plains	-4036
▁plough	-4037
▁plowed	-4038
▁polish	-4039
▁raised	-4040
▁ranger	-4041
▁recipe	-4042
▁regret	-4043
▁rivers	-4044
▁seemed	-4045
▁senior	-4046
▁served	-4047
▁sharma	-4048
▁sheets	-4049
▁shovel	-4050
▁shower	-4051
▁sleepy	-4052
▁slopes	-4053
▁snatch	-4054
▁spider	-4055
▁sprink	-4056
▁starch	-4057
▁status	-4058
▁sticks	-4059
▁tastes	-4060
▁taught	-4061
▁tiffin	-4062
▁upload	-4063
▁waking	-4064
▁warmth	-4065
........	-4066
atically	-4067
bhandara	-4068
complete	-4069
▁address	-4070
▁anklets	-4071
▁anymore	-4072
▁arrival	-4073
▁benefit	-4074
▁boiling	-4075
▁british	-4076
▁cabbage	-4077
▁camphor	-4078
▁chemist	-4079
▁colored	-4080
▁compuls	-4081
▁conduct	-4082
▁content	-4083
▁culture	-4084
▁designs	-4085
▁details	-4086
▁develop	-4087
▁disturb	-4088
▁failure	-4089
▁fighter	-4090
▁finally	-4091
▁funeral	-4092
▁glasses	-4093
▁goodbye	-4094
▁hanuman	-4095
▁heavily	-4096
▁helping	-4097
▁himself	-4098
▁howling	-4099
▁itching	-4100
▁khichdi	-4101
▁lakshmi	-4102
▁letting	-4103
▁lighter	-4104
▁listens	-4105
▁luggage	-4106
▁machine	-4107
▁massage	-4108
▁measure	-4109
▁melting	-4110
▁neither	-4111
▁noseble	-4112
▁opening	-4113
▁panuwan	-4114
▁patwari	-4115
▁perform	-4116
▁pigeons	-4117
▁practic	-4118
▁printed	-4119
▁promise	-4120
▁pumpkin	-4121
▁quarrel	-4122
▁reached	-4123
▁rebuild	-4124
▁replace	-4125
▁ripened	-4126
▁samosas	-4127
▁science	-4128
▁scooter	-4129
▁secrets	-4130
▁serious	-4131
▁serving	-4132
▁showing	-4133
▁signify	-4134
▁smaller	-4135
▁smiling	-4136
▁soybean	-4137
▁spoiled	-4138
▁springs	-4139
▁storage	-4140
▁subsidy	-4141
▁sunrise	-4142
▁uniform	-4143
▁updated	-4144
▁useless	-4145
▁utensil	-4146
▁victory	-4147
▁whether	-4148
▁whistle	-4149
▁worries	-4150
ationship	-4151
▁activity	-4152
▁appetite	-4153
▁applying	-4154
▁business	-4155
▁carefree	-4156
▁channels	-4157
▁chemical	-4158
▁chickens	-4159
▁computer	-4160
▁consumes	-4161
▁continue	-4162
▁customer	-4163
▁dehradun	-4164
▁devotees	-4165
▁differen	-4166
▁dreaming	-4167
▁elephant	-4168
▁forecast	-4169
▁function	-4170
▁gathered	-4171
▁ghughute	-4172
▁grateful	-4173
▁hardship	-4174
▁homemade	-4175
▁husbands	-4176
▁irrigate	-4177
▁jhangora	-4178
▁kerosene	-4179
▁khatarua	-4180
▁landlord	-4181
▁lighting	-4182
▁material	-4183
▁mattress	-4184
▁moisture	-4185
▁mongoose	-4186
▁mornings	-4187
▁nainital	-4188
▁namaskar	-4189
▁occasion	-4190
▁official	-4191
▁opportun	-4192
▁overcome	-4193
▁planning	-4194
▁preserve	-4195
▁prevents	-4196
▁pugmarks	-4197
▁refriger	-4198
▁relative	-4199
▁replaced	-4200
▁sarpanch	-4201
▁scolding	-4202
▁slippers	-4203
▁stitched	-4204
▁stranger	-4205
▁suddenly	-4206
▁swelling	-4207
▁symboliz	-4208
▁upstairs	-4209
▁withdraw	-4210
▁according	-4211
▁activated	-4212
▁ancestral	-4213
▁apologize	-4214
▁bhaitauli	-4215
▁breakfast	-4216
▁challenge	-4217
▁colocasia	-4218
▁committee	-4219
▁connected	-4220
▁coriander	-4221
▁creatures	-4222
▁direction	-4223
▁documents	-4224
▁education	-4225
▁embarrass	-4226
▁essential	-4227
▁forbidden	-4228
▁garampani	-4229
▁gossiping	-4230
▁granaries	-4231
▁jageshwar	-4232
▁marigolds	-4233
▁medicinal	-4234
▁mushrooms	-4235
▁neighbors	-4236
▁occasions	-4237
▁paharpani	-4238
▁paperwork	-4239
▁perfectly	-4240
▁permanent	-4241
▁procedure	-4242
▁recognize	-4243
▁repairing	-4244
▁resistant	-4245
▁subsidies	-4246
▁blackboard	-4247
▁boundaries	-4248
▁candidates	-4249
▁incomplete	-4250
▁inspection	-4251
▁irrigation	-4252
▁livelihood	-4253
▁loneliness	-4254
▁pilgrimage	-4255
▁plastering	-4256
▁protection	-4257
▁punishment	-4258
▁reflection	-4259
▁refreshing	-4260
▁restarting	-4261
▁rhododendr	-4262
▁sufficient	-4263
▁underneath	-4264
▁unexpected	-4265
▁application	-4266
▁electrician	-4267
▁fertilizers	-4268
▁interesting	-4269
▁mischievous	-4270
▁responsible	-4271
▁uttarakhand	-4272
▁compensation	-4273
▁continuously	-4274
▁distributing	-4275
▁inauspicious	-4276
▁neighborhood	-4277
▁relationship	-4278
▁transplanting	-4279
▁understanding	-4280
▁responsibility	-4281
',	-4282
kh	-4283
pr	-4284
'),	-4285
')?	-4286
aat	-4287
akh	-4288
asu	-4289
aun	-4290
avy	-4291
bak	-4292
bur	-4293
cin	-4294
cks	-4295
cum	-4296
dom	-4297
fri	-4298
hea	-4299
ji	-4300
vo	-4301
ena	-4302
hum	-4303
hur	-4304
ify	-4305
iri	-4306
isf	-4307
iss	-4308
ita	-4309
jab	-4310
jau	-4311
kur	-4312
len	-4313
low	-4314
ode	-4315
oms	-4316
ony	-4317
pak	-4318
pil	-4319
pro	-4320
rog	-4321
sed	-4322
tal	-4323
uel	-4324
una	-4325
unk	-4326
upy	-4327
van	-4328
whi	-4329
yur	-4330
▁ku	-4331
▁ul	-4332
▁wa	-4333
▁zi	-4334
abad	-4335
adhi	-4336
ales	-4337
alks	-4338
ansk	-4339
baal	-4340
bage	-4341
bagh	-4342
cane	-4343
cend	-4344
cher	-4345
ckoo	-4346
crib	-4347
cuit	-4348
dget	-4349
duce	-4350
eela	-4351
embe	-4352
ents	-4353
eram	-4354
face	-4355
fair	-4356
fety	-4357
ghee	-4358
gran	-4359
hala	-4360
hami	-4361
hase	-4362
htha	-4363
humi	-4364
icks	-4365
idal	-4366
ilar	-4367
ilet	-4368
imen	-4369
inum	-4370
ique	-4371
itam	-4372
lies	-4373
like	-4374
lmed	-4375
maad	-4376
mbly	-4377
milk	-4378
miss	-4379
mney	-4380
mony	-4381
ners	-4382
nted	-4383
omit	-4384
oode	-4385
orms	-4386
otha	-4387
pler	-4388
port	-4389
ptic	-4390
quit	-4391
rice	-4392
road	-4393
ruct	-4394
ruff	-4395
ryun	-4396
sequ	-4397
soap	-4398
stal	-4399
sc	-4400
ali	-4401
alp	-4402
ams	-4403
awn	-4404
aye	-4405
chy	-4406
hib	-4407
hki	-4408
ibs	-4409
itr	-4410
let	-4411
lin	-4412
mic	-4413
omp	-4414
pet	-4415
ray	-4416
▁er	-4417
asur	-4418
bhat	-4419
cing	-4420
etha	-4421
haps	-4422
over	-4423
resh	-4424
teen	-4425
tell	-4426
ties	-4427
ture	-4428
uced	-4429
ulty	-4430
urry	-4431
urta	-4432
wear	-4433
writ	-4434
▁alt	-4435
▁arg	-4436
▁bic	-4437
▁bul	-4438
▁cau	-4439
▁cir	-4440
▁ded	-4441
▁die	-4442
▁dro	-4443
▁dug	-4444
▁era	-4445
▁fat	-4446
▁fed	-4447
▁fig	-4448
▁gaj	-4449
▁gil	-4450
▁hen	-4451
▁hom	-4452
▁hun	-4453
▁imm	-4454
▁jai	-4455
▁jat	-4456
▁jio	-4457
▁lid	-4458
▁lie	-4459
▁mic	-4460
▁mid	-4461
▁moo	-4462
▁nag	-4463
▁neg	-4464
▁odd	-4465
▁owl	-4466
▁phy	-4467
▁pim	-4468
▁rav	-4469
▁sec	-4470
▁sip	-4471
▁six	-4472
▁suc	-4473
▁sus	-4474
▁toe	-4475
▁toy	-4476
▁typ	-4477
▁upw	-4478
▁vow	-4479
▁wal	-4480
acted	-4481
aipan	-4482
akhia	-4483
aksha	-4484
alley	-4485
amrit	-4486
andas	-4487
angal	-4488
angar	-4489
apped	-4490
arian	-4491
aring	-4492
arten	-4493
ashes	-4494
aulty	-4495
bakri	-4496
bborn	-4497
brush	-4498
bsite	-4499
ev	-4500
mu	-4501
yo	-4502
aar	-4503
agi	-4504
alu	-4505
aro	-4506
bar	-4507
eri	-4508
heb	-4509
nel	-4510
nes	-4511
rot	-4512
the	-4513
uni	-4514
vin	-4515
▁dj	-4516
▁mr	-4517
▁ob	-4518
▁ot	-4519
aita	-4520
aloo	-4521
coal	-4522
gule	-4523
haan	-4524
hone	-4525
ient	-4526
ised	-4527
llan	-4528
ouse	-4529
rees	-4530
▁bes	-4531
▁bhu	-4532
▁dad	-4533
▁ech	-4534
▁etc	-4535
▁jan	-4536
▁mas	-4537
▁mun	-4538
▁nor	-4539
▁otp	-4540
▁sof	-4541
arest	-4542
armed	-4543
avesh	-4544
cribe	-4545
cuits	-4546
ddles	-4547
dered	-4548
eared	-4549
ellig	-4550
entle	-4551
essel	-4552
ester	-4553
etime	-4554
field	-4555
gahat	-4556
hells	-4557
htami	-4558
ierce	-4559
iment	-4560
inate	-4561
inter	-4562
iring	-4563
irrig	-4564
ising	-4565
itals	-4566
itory	-4567
ivery	-4568
lfare	-4569
lined	-4570
monds	-4571
mping	-4572
night	-4573
oolen	-4574
ooper	-4575
otted	-4576
ousin	-4577
outer	-4578
oying	-4579
print	-4580
quake	-4581
ridge	-4582
round	-4583
tight	-4584
tilak	-4585
uable	-4586
ucted	-4587
umble	-4588
umpet	-4589
ungus	-4590
unted	-4591
venth	-4592
welry	-4593
welve	-4594
▁aart	-4595
▁alum	-4596
▁aren	-4597
▁arom	-4598
▁asha	-4599
)?	-4600
lj	-4601
od	-4602
va	-4603
yu	-4604
▁?	-4605
asm	-4606
aur	-4607
car	-4608
ina	-4609
rub	-4610
son	-4611
▁cm	-4612
▁jy	-4613
alls	-4614
hive	-4615
hole	-4616
lers	-4617
raun	-4618
vere	-4619
vils	-4620
ware	-4621
▁dap	-4622
▁dou	-4623
▁fen	-4624
▁hat	-4625
▁tet	-4626
atory	-4627
icals	-4628
jhang	-4629
rohit	-4630
while	-4631
▁asse	-4632
▁babu	-4633
▁bait	-4634
▁bang	-4635
▁bhit	-4636
▁bhot	-4637
▁born	-4638
▁bott	-4639
▁brah	-4640
▁bulb	-4641
▁calc	-4642
▁cale	-4643
▁case	-4644
▁chat	-4645
▁cher	-4646
▁cock	-4647
▁coop	-4648
▁copy	-4649
▁cubs	-4650
▁cuts	-4651
▁dand	-4652
▁debt	-4653
▁dent	-4654
▁desi	-4655
▁dirt	-4656
▁dizz	-4657
▁doli	-4658
▁drag	-4659
▁dump	-4660
▁earn	-4661
▁ends	-4662
▁exer	-4663
▁fact	-4664
▁fake	-4665
▁fans	-4666
▁febr	-4667
▁film	-4668
▁flew	-4669
▁foil	-4670
▁frit	-4671
▁furn	-4672
▁fuse	-4673
▁gate	-4674
▁grat	-4675
▁grew	-4676
▁hara	-4677
▁hide	-4678
▁hira	-4679
▁join	-4680
▁keys	-4681
▁knee	-4682
▁lake	-4683
▁lean	-4684
▁leng	-4685
▁lion	-4686
▁logs	-4687
▁maps	-4688
▁ment	-4689
▁mule	-4690
▁nare	-4691
▁noon	-4692
▁onto	-4693
▁ours	-4694
▁page	-4695
▁paly	-4696
▁pane	-4697
▁panj	-4698
▁peon	-4699
▁phys	-4700
▁plum	-4701
▁pole	-4702
▁pome	-4703
▁pour	-4704
▁prof	-4705
▁puri	-4706
▁purn	-4707
▁push	-4708
▁rail	-4709
▁raye	-4710
▁reop	-4711
▁ribs	-4712
▁rich	-4713
▁ride	-4714
▁sale	-4715
▁scam	-4716
▁scen	-4717
▁sear	-4718
▁sens	-4719
▁sept	-4720
▁sera	-4721
▁shan	-4722
▁size	-4723
▁skip	-4724
▁slab	-4725
▁snat	-4726
▁soda	-4727
▁sofa	-4728
▁sole	-4729
▁soul	-4730
▁stri	-4731
▁suit	-4732
▁swim	-4733
▁tale	-4734
▁taro	-4735
▁term	-4736
▁tika	-4737
▁tire	-4738
▁tube	-4739
▁tyre	-4740
▁unse	-4741
▁upon	-4742
▁urad	-4743
▁vain	-4744
▁woke	-4745
▁wool	-4746
▁word	-4747
abaddi	-4748
aching	-4749
ainted	-4750
aising	-4751
ancial	-4752
apping	-4753
arrhea	-4754
ashing	-4755
asonal	-4756
asters	-4757
asting	-4758
athers	-4759
ceries	-4760
charge	-4761
cumamb	-4762
eramic	-4763
erving	-4764
ficial	-4765
former	-4766
hargic	-4767
hering	-4768
icance	-4769
icials	-4770
inging	-4771
isters	-4772
ivated	-4773
jalebi	-4774
lakhia	-4775
ljatra	-4776
minute	-4777
nesday	-4778
oetida	-4779
resent	-4780
ribute	-4781
rients	-4782
uggles	-4783
ursday	-4784
▁aarti	-4785
▁abund	-4786
▁adult	-4787
▁agile	-4788
▁alarm	-4789
▁aroma	-4790
▁asadh	-4791
▁autom	-4792
▁awake	-4793
▁badly	-4794
▁balls	-4795
▁based	-4796
▁bathe	-4797
▁beats	-4798
▁below	-4799
▁bhumi	-4800
▁blows	-4801
▁boats	-4802
▁braid	-4803
▁brain	-4804
▁brush	-4805
▁burns	-4806
▁burnt	-4807
▁cable	-4808
▁cages	-4809
▁cakes	-4810
▁carom	-4811
▁chalk	-4812
▁champ	-4813
▁charu	-4814
▁chase	-4815
▁coach	-4816
▁conch	-4817
▁crowd	-4818
▁crown	-4819
▁cured	-4820
▁dates	-4821
▁datun	-4822
▁death	-4823
▁dolls	-4824
▁drain	-4825
▁drill	-4826
▁dubai	-4827
▁dusty	-4828
▁edges	-4829
▁ended	-4830
▁exhib	-4831
▁falls	-4832
▁fiber	-4833
▁final	-4834
▁finds	-4835
▁fined	-4836
▁flame	-4837
▁gajar	-4838
▁giloy	-4839
▁goose	-4840
▁gourd	-4841
▁gravy	-4842
▁greed	-4843
▁haris	-4844
▁heels	-4845
▁himal	-4846
▁homes	-4847
▁horns	-4848
▁hotel	-4849
▁idols	-4850
▁itchy	-4851
▁jagar	-4852
▁jatra	-4853
▁jeans	-4854
▁kadhi	-4855
▁kauva	-4856
▁kheer	-4857
▁kilos	-4858
▁knead	-4859
▁knees	-4860
▁kufri	-4861
▁lamps	-4862
▁latch	-4863
▁leafy	-4864
▁leech	-4865
▁leela	-4866
▁lifes	-4867
▁likes	-4868
▁loved	-4869
▁loves	-4870
▁lunar	-4871
▁magic	-4872
▁march	-4873
▁marry	-4874
▁meals	-4875
▁melts	-4876
▁messy	-4877
▁miles	-4878
▁momos	-4879
▁mossy	-4880
▁mouse	-4881
▁mulch	-4882
▁nanda	-4883
▁nepal	-4884
▁notes	-4885
▁opens	-4886
▁parts	-4887
▁pater	-4888
▁peaks	-4889
▁phase	-4890
▁poode	-4891
▁punct	-4892
▁pupil	-4893
▁pyoli	-4894
▁queen	-4895
▁raita	-4896
▁refus	-4897
▁resol	-4898
▁rests	-4899
▁roams	-4900
▁roast	-4901
▁rocks	-4902
▁roofs	-4903
▁rooms	-4904
▁ropes	-4905
▁runny	-4906
▁rusty	-4907
▁saheb	-4908
▁salad	-4909
▁sansk	-4910
▁scalp	-4911
▁sched	-4912
▁scrap	-4913
▁seats	-4914
▁shell	-4915
▁shows	-4916
▁sneez	-4917
▁socks	-4918
▁solid	-4919
▁solve	-4920
▁spark	-4921
▁spect	-4922
▁spend	-4923
▁stack	-4924
▁stale	-4925
▁state	-4926
▁stiff	-4927
▁stock	-4928
▁stole	-4929
▁stung	-4930
▁style	-4931
▁swale	-4932
▁swall	-4933
▁swing	-4934
▁sword	-4935
▁tales	-4936
▁tanks	-4937
▁tense	-4938
▁tiles	-4939
▁tongs	-4940
▁trade	-4941
▁trash	-4942
▁treat	-4943
▁truck	-4944
▁truly	-4945
▁turns	-4946
▁twigs	-4947
▁tying	-4948
▁types	-4949
▁udder	-4950
▁ulcer	-4951
▁unity	-4952
▁usual	-4953
▁vadas	-4954
▁vitam	-4955
▁vomit	-4956
▁wages	-4957
▁waist	-4958
▁wedge	-4959
▁winds	-4960
▁worms	-4961
▁worth	-4962
▁wrest	-4963
▁youth	-4964
astered	-4965
comfort	-4966
embered	-4967
etition	-4968
flowing	-4969
forting	-4970
granate	-4971
grapher	-4972
ignment	-4973
ination	-4974
ingshot	-4975
ipation	-4976
iseptic	-4977
llowing	-4978
mission	-4979
ometers	-4980
othache	-4981
otional	-4982
pakoras	-4983
pending	-4984
pensary	-4985
quitoes	-4986
ributed	-4987
rophone	-4988
rounded	-4989
ructive	-4990
ruption	-4991
soapnut	-4992
vestock	-4993
whelmed	-4994
writing	-4995
▁adding	-4996
▁advent	-4997
▁airadi	-4998
▁amount	-4999
▁annual	-5000
▁apples	-5001
▁artist	-5002
▁asthma	-5003
▁baking	-5004
▁baraat	-5005
▁barley	-5006
▁barren	-5007
▁bazaar	-5008
▁beaten	-5009
▁became	-5010
▁belief	-5011
▁betray	-5012
▁bhakar	-5013
▁blurry	-5014
▁boring	-5015
▁breaks	-5016
▁bridal	-5017
▁budget	-5018
▁button	-5019
▁buying	-5020
▁carpet	-5021
▁carved	-5022
▁causes	-5023
▁chairs	-5024
▁chanfi	-5025
▁cheese	-5026
▁cheque	-5027
▁clouds	-5028
▁cloudy	-5029
▁cooper	-5030
▁cousin	-5031
▁cuckoo	-5032
▁dangar	-5033
▁daught	-5034
▁deeper	-5035
▁depict	-5036
▁divine	-5037
▁drives	-5038
▁duster	-5039
▁easier	-5040
▁effort	-5041
▁encour	-5042
▁engine	-5043
▁enters	-5044
▁excess	-5045
▁experi	-5046
▁famine	-5047
▁faulty	-5048
▁fierce	-5049
▁figure	-5050
▁frames	-5051
▁friday	-5052
▁fright	-5053
▁fungus	-5054
▁gentle	-5055
▁gently	-5056
▁girish	-5057
▁golden	-5058
▁growth	-5059
▁harder	-5060
▁hariya	-5061
▁hearts	-5062
▁hiding	-5063
▁honest	-5064
▁humble	-5065
▁invoke	-5066
▁itches	-5067
▁jackal	-5068
▁joints	-5069
▁joyful	-5070
▁kaafal	-5071
▁kendra	-5072
▁kicked	-5073
▁kidney	-5074
▁krishi	-5075
▁laying	-5076
▁leader	-5077
▁leaked	-5078
▁lesson	-5079
▁lights	-5080
▁limits	-5081
▁linked	-5082
▁litter	-5083
▁lively	-5084
▁lizard	-5085
▁locked	-5086
▁looked	-5087
▁master	-5088
▁method	-5089
▁mixing	-5090
▁mortar	-5091
▁multip	-5092
▁munshi	-5093
▁muscle	-5094
▁nandas	-5095
▁nettle	-5096
▁notice	-5097
▁occupy	-5098
▁option	-5099
▁orange	-5100
▁pakodi	-5101
▁patrol	-5102
▁paying	-5103
▁pestle	-5104
▁pillow	-5105
▁pimple	-5106
▁placed	-5107
▁plates	-5108
▁prices	-5109
▁prince	-5110
▁pulses	-5111
▁punjab	-5112
▁purity	-5113
▁rained	-5114
▁raksha	-5115
▁ration	-5116
▁recite	-5117
▁region	-5118
▁remind	-5119
▁remote	-5120
▁rental	-5121
▁reside	-5122
▁rising	-5123
▁rotate	-5124
▁rubber	-5125
▁safety	-5126
▁saving	-5127
▁scares	-5128
▁severe	-5129
▁sharad	-5130
▁shirts	-5131
▁shoots	-5132
▁signed	-5133
▁social	-5134
▁sorrow	-5135
▁speech	-5136
▁sprout	-5137
▁stairs	-5138
▁stalks	-5139
▁starry	-5140
▁sticky	-5141
▁strain	-5142
▁sunita	-5143
▁suppor	-5144
▁surely	-5145
▁switch	-5146
▁tables	-5147
▁tanned	-5148
▁temper	-5149
▁thakur	-5150
▁thanks	-5151
▁though	-5152
▁thrice	-5153
▁timber	-5154
▁toilet	-5155
▁towers	-5156
▁turban	-5157
▁twelve	-5158
▁typing	-5159
▁unique	-5160
▁uphill	-5161
▁upraun	-5162
▁useful	-5163
▁vaccin	-5164
▁valley	-5165
▁vessel	-5166
▁vigyan	-5167
▁wallet	-5168
▁walnut	-5169
▁wildly	-5170
▁woolen	-5171
▁wouldn	-5172
▁zipper	-5173
elligent	-5174
iversity	-5175
jhangore	-5176
khatarua	-5177
standing	-5178
▁abusing	-5179
▁allergy	-5180
▁almonds	-5181
▁ashamed	-5182
▁bangles	-5183
▁banquet	-5184
▁barging	-5185
▁baskets	-5186
▁bathing	-5187
▁beehive	-5188
▁besides	-5189
▁bharyun	-5190
▁bhotiya	-5191
▁bicycle	-5192
▁bloomed	-5193
▁booking	-5194
▁busiest	-5195
▁causing	-5196
▁ceiling	-5197
▁ceramic	-5198
▁challan	-5199
▁changes	-5200
▁chanida	-5201
▁chapped	-5202
▁charges	-5203
▁chasing	-5204
▁chatter	-5205
▁cheaper	-5206
▁chicken	-5207
▁chilies	-5208
▁chimney	-5209
▁cholera	-5210
▁collaps	-5211
▁consequ	-5212
▁contact	-5213
▁cooling	-5214
▁cottage	-5215
▁courier	-5216
▁created	-5217
▁deities	-5218
▁deleted	-5219
▁deliver	-5220
▁dentist	-5221
▁descend	-5222
▁distant	-5223
▁divided	-5224
▁donated	-5225
▁doorway	-5226
▁enemies	-5227
▁engaged	-5228
▁enjoyed	-5229
▁explode	-5230
▁felling	-5231
▁finding	-5232
▁forward	-5233
▁freshly	-5234
▁garbage	-5235
▁garhwal	-5236
▁harmful	-5237
▁harmony	-5238
▁haunted	-5239
▁immense	-5240
▁instant	-5241
▁jewelry	-5242
▁kabaddi	-5243
▁langurs	-5244
▁leveled	-5245
▁license	-5246
▁limping	-5247
▁manners	-5248
▁marking	-5249
▁matchst	-5250
▁mention	-5251
▁methods	-5252
▁minimum	-5253
▁mixture	-5254
▁nearest	-5255
▁numbers	-5256
▁opinion	-5257
▁ordered	-5258
▁paining	-5259
▁partner	-5260
▁parvati	-5261
▁payment	-5262
▁peaches	-5263
▁pecking	-5264
▁perhaps	-5265
▁persons	-5266
▁pickles	-5267
▁plumber	-5268
▁pockets	-5269
▁porting	-5270
▁pravesh	-5271
▁pricked	-5272
▁produce	-5273
▁puddles	-5274
▁purohit	-5275
▁quarter	-5276
▁quietly	-5277
▁railing	-5278
▁reduced	-5279
▁regions	-5280
▁regular	-5281
▁reserve	-5282
▁scolded	-5283
▁scratch	-5284
▁section	-5285
▁sending	-5286
▁shelter	-5287
▁shelves	-5288
▁shooing	-5289
▁signals	-5290
▁similar	-5291
▁simpler	-5292
▁skilled	-5293
▁slipper	-5294
▁soaking	-5295
▁speaker	-5296
▁spotted	-5297
▁stained	-5298
▁storing	-5299
▁stretch	-5300
▁subject	-5301
▁succeed	-5302
▁surface	-5303
▁teaches	-5304
▁tension	-5305
▁threads	-5306
▁thunder	-5307
▁tightly	-5308
▁touched	-5309
▁travels	-5310
▁trumpet	-5311
▁trusted	-5312
▁unirrig	-5313
▁upwards	-5314
▁visited	-5315
▁vulture	-5316
▁weaving	-5317
▁website	-5318
▁weevils	-5319
▁welfare	-5320
▁winters	-5321
▁witness	-5322
▁wrapped	-5323
fectioner	-5324
identally	-5325
pichhaura	-5326
▁airtight	-5327
▁allowing	-5328
▁altitude	-5329
▁aluminum	-5330
▁argument	-5331
▁assembly	-5332
▁barberry	-5333
▁bareilly	-5334
▁bhumiyal	-5335
▁biscuits	-5336
▁blankets	-5337
▁blisters	-5338
▁boasting	-5339
▁borrowed	-5340
▁brightly	-5341
▁bullocks	-5342
▁calendar	-5343
▁cemented	-5344
▁charcoal	-5345
▁checking	-5346
▁chopping	-5347
▁colorful	-5348
▁compress	-5349
▁conflict	-5350
▁consider	-5351
▁credited	-5352
▁crossing	-5353
▁cultural	-5354
▁cupboard	-5355
▁dandruff	-5356
▁decision	-5357
▁deducted	-5358
▁delivery	-5359
▁diarrhea	-5360
▁director	-5361
▁discount	-5362
▁duration	-5363
▁educated	-5364
▁eleventh	-5365
▁entrance	-5366
▁eyesight	-5367
▁farewell	-5368
▁feathers	-5369
▁february	-5370
▁feverish	-5371
▁fighters	-5372
▁fragrant	-5373
▁fritters	-5374
▁grandson	-5375
▁greenery	-5376
▁handmade	-5377
▁improves	-5378
▁infested	-5379
▁inspired	-5380
▁jagariya	-5381
▁kindness	-5382
▁lanterns	-5383
▁leftover	-5384
▁licorice	-5385
▁lifetime	-5386
▁migrated	-5387
▁nauseous	-5388
▁nonsense	-5389
▁painting	-5390
▁paternal	-5391
▁patterns	-5392
▁porridge	-5393
▁position	-5394
▁powerful	-5395
▁praising	-5396
▁progress	-5397
▁pumpkins	-5398
▁punished	-5399
▁quarrels	-5400
▁ramleela	-5401
▁reaction	-5402
▁recently	-5403
▁relaxing	-5404
▁released	-5405
▁resident	-5406
▁restless	-5407
▁revising	-5408
▁ripening	-5409
▁rotation	-5410
▁sanskrit	-5411
▁separate	-5412
▁settings	-5413
▁shortcut	-5414
▁slightly	-5415
▁smelling	-5416
▁smoothly	-5417
▁snatched	-5418
▁snowfall	-5419
▁software	-5420
▁sometime	-5421
▁specimen	-5422
▁splinter	-5423
▁spoiling	-5424
▁stubborn	-5425
▁surprise	-5426
▁talented	-5427
▁teachers	-5428
▁thursday	-5429
▁tourists	-5430
▁troubled	-5431
▁uniforms	-5432
▁valuable	-5433
▁worrying	-5434
▁benefited	-5435
▁buildings	-5436
▁celebrity	-5437
▁chemicals	-5438
▁chemistry	-5439
▁cornfield	-5440
▁correctly	-5441
▁cultivate	-5442
▁dangariya	-5443
▁daughters	-5444
▁demanding	-5445
▁digestion	-5446
▁digestive	-5447
▁disappear	-5448
▁discharge	-5449
▁dumplings	-5450
▁eggshells	-5451
▁emotional	-5452
▁financial	-5453
▁finishing	-5454
▁gratitude	-5455
▁groceries	-5456
▁hospitals	-5457
▁illnesses	-5458
▁impending	-5459
▁increases	-5460
▁indicates	-5461
▁infection	-5462
▁installed	-5463
▁lethargic	-5464
▁livestock	-5465
▁mandatory	-5466
▁motivated	-5467
▁nutrients	-5468
▁officials	-5469
▁overnight	-5470
▁performed	-5471
▁pesticide	-5472
▁plastered	-5473
▁political	-5474
▁practical	-5475
▁protected	-5476
▁protector	-5477
▁respected	-5478
▁searching	-5479
▁sensation	-5480
▁september	-5481
▁seriously	-5482
▁shivratri	-5483
▁slingshot	-5484
▁snatching	-5485
▁spreading	-5486
▁sprinkler	-5487
▁stainless	-5488
▁storeroom	-5489
▁storytell	-5490
▁struggles	-5491
▁sugarcane	-5492
▁terrified	-5493
▁territory	-5494
▁tethering	-5495
▁therefore	-5496
▁toothache	-5497
▁transport	-5498
▁waterfall	-5499
▁wednesday	-5500
▁whistling	-5501
▁afternoons	-5502
▁announcing	-5503
▁antiseptic	-5504
▁asafoetida	-5505
▁assignment	-5506
▁beneficial	-5507
▁buttermilk	-5508
▁ceremonies	-5509
▁collecting	-5510
▁comforting	-5511
▁complained	-5512
▁compulsion	-5513
▁conditions	-5514
▁confidence	-5515
▁connecting	-5516
▁constantly	-5517
▁contractor	-5518
▁decorators	-5519
▁destroying	-5520
▁difference	-5521
▁difficulty	-5522
▁dispensary	-5523
▁distribute	-5524
▁earthquake	-5525
▁engagement	-5526
▁exhibition	-5527
▁experience	-5528
▁generation	-5529
▁ghughutiya	-5530
▁gooseberry	-5531
▁importance	-5532
▁increasing	-5533
▁installing	-5534
▁kilometers	-5535
▁microphone	-5536
▁mosquitoes	-5537
▁nosebleeds	-5538
▁permission	-5539
▁population	-5540
▁practicing	-5541
▁properties	-5542
▁remembered	-5543
▁separately	-5544
▁spectacles	-5545
▁surrounded	-5546
▁symbolizes	-5547
▁themselves	-5548
▁toothbrush	-5549
▁toothpaste	-5550
▁university	-5551
▁unseasonal	-5552
▁approaching	-5553
▁celebrating	-5554
▁cleanliness	-5555
▁comfortable	-5556
▁competition	-5557
▁cooperative	-5558
▁destructive	-5559
▁development	-5560
▁fingerprint	-5561
▁forefathers	-5562
▁frightening	-5563
▁generations	-5564
▁handwriting	-5565
▁headmasters	-5566
▁informative	-5567
▁intelligent	-5568
▁overflowing	-5569
▁overwhelmed	-5570
▁pomegranate	-5571
▁transformer	-5572
▁understands	-5573
▁unirrigated	-5574
cumambulation	-5575
▁accidentally	-5576
▁confectioner	-5577
▁consequences	-5578
▁constipation	-5579
▁contributing	-5580
▁difficulties	-5581
▁grandmothers	-5582
▁photographer	-5583
▁refrigerator	-5584
▁rhododendron	-5585
▁significance	-5586
▁automatically	-5587
▁opportunities	-5588
▁participating	-5589
aji	-5590
hyo	-5591
jyu	-5592
log	-5593
mma	-5594
nai	-5595
noc	-5596
oda	-5597
uka	-5598
ukh	-5599
gia	-5600
wax	-5601
ahug	-5602
anaj	-5603
apsi	-5604
aula	-5605
auwa	-5606
blic	-5607
chak	-5608
clop	-5609
dels	-5610
diya	-5611
edia	-5612
ercy	-5613
evit	-5614
foot	-5615
ghur	-5616
gwan	-5617
hadi	-5618
hoti	-5619
huli	-5620
huni	-5621
hyan	-5622
iffs	-5623
jhal	-5624
jhol	-5625
jhor	-5626
kesh	-5627
lekh	-5628
loom	-5629
mala	-5630
moda	-5631
modi	-5632
mtal	-5633
naam	-5634
odis	-5635
onyt	-5636
opsc	-5637
oven	-5638
pana	-5639
pros	-5640
radh	-5641
rots	-5642
ruli	-5643
ruly	-5644
ssib	-5645
then	-5646
time	-5647
ucal	-5648
urik	-5649
vens	-5650
vior	-5651
wadi	-5652
wami	-5653
yala	-5654
yole	-5655
yond	-5656
yura	-5657
yuri	-5658
▁aks	-5659
▁geh	-5660
▁icy	-5661
▁ign	-5662
▁lai	-5663
▁max	-5664
▁pua	-5665
▁puz	-5666
▁vij	-5667
▁wok	-5668
accha	-5669
added	-5670
aisha	-5671
alash	-5672
amaun	-5673
anesh	-5674
anyad	-5675
apada	-5676
artik	-5677
athas	-5678
atisf	-5679
avens	-5680
azier	-5681
bbles	-5682
bells	-5683
bhaat	-5684
bhang	-5685
burst	-5686
chait	-5687
chief	-5688
chuli	-5689
chuna	-5690
ciety	-5691
cises	-5692
daand	-5693
dhaan	-5694
dhuni	-5695
enced	-5696
enger	-5697
ermin	-5698
etted	-5699
ford	-5700
kale	-5701
pipe	-5702
play	-5703
plug	-5704
begar	-5705
fense	-5706
flies	-5707
fully	-5708
ghuri	-5709
haadh	-5710
hanti	-5711
hikar	-5712
hopsc	-5713
house	-5714
hurat	-5715
hurta	-5716
ichhu	-5717
idges	-5718
igada	-5719
insar	-5720
iquet	-5721
ithya	-5722
itiya	-5723
itron	-5724
jhora	-5725
katha	-5726
lapsi	-5727
maalu	-5728
maida	-5729
mites	-5730
nanda	-5731
nyard	-5732
olgia	-5733
olina	-5734
ooray	-5735
phala	-5736
press	-5737
prosy	-5738
provo	-5739
rahma	-5740
rific	-5741
ritis	-5742
roads	-5743
rogen	-5744
share	-5745
stlet	-5746
swami	-5747
tenna	-5748
ublic	-5749
ucaly	-5750
uised	-5751
warac	-5752
woven	-5753
▁amaz	-5754
▁bais	-5755
▁beej	-5756
▁budi	-5757
▁bunk	-5758
▁bury	-5759
▁club	-5760
▁cobs	-5761
▁decl	-5762
▁deod	-5763
▁devt	-5764
▁dial	-5765
▁diss	-5766
▁drew	-5767
▁echo	-5768
▁ency	-5769
▁eros	-5770
▁evap	-5771
▁fanf	-5772
▁fert	-5773
▁flea	-5774
▁foul	-5775
▁frog	-5776
▁fuel	-5777
▁gaon	-5778
▁ghyu	-5779
▁golj	-5780
▁graz	-5781
▁heel	-5782
▁hoar	-5783
▁humm	-5784
▁imit	-5785
▁issu	-5786
▁jane	-5787
▁jasm	-5788
▁july	-5789
▁june	-5790
▁jyes	-5791
▁kaam	-5792
▁lamb	-5793
▁magp	-5794
▁menu	-5795
▁moos	-5796
▁naga	-5797
▁nape	-5798
▁naur	-5799
tel	-5800
atte	-5801
haya	-5802
hiya	-5803
ipaw	-5804
izza	-5805
khli	-5806
ngas	-5807
umps	-5808
▁aug	-5809
▁opt	-5810
▁wax	-5811
anche	-5812
carom	-5813
check	-5814
emmed	-5815
inema	-5816
intel	-5817
ozing	-5818
ucial	-5819
uggul	-5820
vince	-5821
worms	-5822
▁arms	-5823
▁font	-5824
▁hate	-5825
▁jiya	-5826
▁juic	-5827
▁nett	-5828
▁paan	-5829
▁paid	-5830
▁penc	-5831
▁plug	-5832
▁pond	-5833
▁pooj	-5834
▁popc	-5835
▁puzz	-5836
▁rabb	-5837
▁ragi	-5838
▁raus	-5839
▁ravi	-5840
▁refr	-5841
▁sets	-5842
▁sins	-5843
▁subt	-5844
▁summ	-5845
▁tape	-5846
▁tarp	-5847
▁thal	-5848
▁thud	-5849
▁tiny	-5850
▁trem	-5851
▁undr	-5852
▁upto	-5853
▁vera	-5854
▁wala	-5855
▁warn	-5856
▁wifi	-5857
▁wobb	-5858
▁yoke	-5859
▁zila	-5860
▁zone	-5861
abbadi	-5862
actors	-5863
adcast	-5864
affold	-5865
agerly	-5866
ainoli	-5867
aithki	-5868
angled	-5869
anwadi	-5870
arnath	-5871
arters	-5872
artial	-5873
ashami	-5874
asured	-5875
atform	-5876
athvin	-5877
aurant	-5878
avasya	-5879
ayadas	-5880
basant	-5881
bhaang	-5882
bhatke	-5883
brahma	-5884
bursts	-5885
carved	-5886
cember	-5887
cerned	-5888
coming	-5889
cribed	-5890
daandi	-5891
dangal	-5892
enshot	-5893
entify	-5894
ervant	-5895
graphi	-5896
guggul	-5897
haling	-5898
havior	-5899
rup	-5900
eled	-5901
fold	-5902
ized	-5903
izer	-5904
ords	-5905
worm	-5906
▁gud	-5907
agiri	-5908
akesh	-5909
gular	-5910
idual	-5911
izens	-5912
vated	-5913
venty	-5914
▁chin	-5915
▁chop	-5916
▁chos	-5917
▁chow	-5918
▁cope	-5919
▁cute	-5920
▁died	-5921
▁guav	-5922
▁nail	-5923
▁raml	-5924
▁swor	-5925
chased	-5926
eeches	-5927
hengas	-5928
hthale	-5929
huliar	-5930
iative	-5931
icides	-5932
idemic	-5933
ierces	-5934
igious	-5935
ilmora	-5936
indoor	-5937
ipping	-5938
iquett	-5939
jhalar	-5940
kalash	-5941
kanche	-5942
krishi	-5943
lashes	-5944
legram	-5945
lished	-5946
mangal	-5947
master	-5948
molina	-5949
ooping	-5950
orates	-5951
oyment	-5952
parall	-5953
pended	-5954
racted	-5955
rapada	-5956
reetha	-5957
reshed	-5958
ridges	-5959
rising	-5960
▁	-5961
e	-5962
t	-5963
o	-5964
a	-5965
i	-5966
s	-5967
r	-5968
n	-5969
h	-5970
l	-5971
d	-5972
y	-5973
u	-5974
m	-5975
w	-5976
g	-5977
c	-5978
f	-5979
p	-5980
.	-5981
b	-5982
k	-5983
v	-5984
,	-5985
'	-5986
?	-5987
j	-5988
x	-5989
!	-5990
q	-5991
-	-5992
z	-5993
(	-5994
)	-5995
0	-5996
